{
  "version": "1.0",
  "truncation": null,
  "padding": null,
  "added_tokens": [
    {
      "id": 0,
      "content": "<pad>",
      "single_word": false,
      "lstrip": false,
      "rstrip": false,
      "normalized": false,
      "special": true
    },
    {
      "id": 1,
      "content": "<unk>",
      "single_word": false,
      "lstrip": false,
      "rstrip": false,
      "normalized": false,
      "special": true
    },
    {
      "id": 2,
      "content": "<bos>",
      "single_word": false,
      "lstrip": false,
      "rstrip": false,
      "normalized": false,
      "special": true
    },
    {
      "id": 3,
      "content": "<eos>",
      "single_word": false,
      "lstrip": false,
      "rstrip": false,
      "normalized": false,
      "special": true
    },
    {
      "id": 4,
      "content": "<system>",
      "single_word": false,
      "lstrip": false,
      "rstrip": false,
      "normalized": false,
      "special": true
    },
    {
      "id": 5,
      "content": "<user>",
      "single_word": false,
      "lstrip": false,
      "rstrip": false,
      "normalized": false,
      "special": true
    },
    {
      "id": 6,
      "content": "<assistant>",
      "single_word": false,
      "lstrip": false,
      "rstrip": false,
      "normalized": false,
      "special": true
    },
    {
      "id": 7,
      "content": "<end>",
      "single_word": false,
      "lstrip": false,
      "rstrip": false,
      "normalized": false,
      "special": true
    }
  ],
  "normalizer": null,
  "pre_tokenizer": {
    "type": "ByteLevel",
    "add_prefix_space": false,
    "trim_offsets": true,
    "use_regex": true
  },
  "post_processor": null,
  "decoder": {
    "type": "ByteLevel",
    "add_prefix_space": true,
    "trim_offsets": true,
    "use_regex": true
  },
  "model": {
    "type": "BPE",
    "dropout": null,
    "unk_token": "<unk>",
    "continuing_subword_prefix": null,
    "end_of_word_suffix": null,
    "fuse_unk": false,
    "byte_fallback": true,
    "ignore_merges": false,
    "vocab": {
      "<pad>": 0,
      "<unk>": 1,
      "<bos>": 2,
      "<eos>": 3,
      "<system>": 4,
      "<user>": 5,
      "<assistant>": 6,
      "<end>": 7,
      "!": 8,
      "\"": 9,
      "#": 10,
      "$": 11,
      "%": 12,
      "&": 13,
      "'": 14,
      "(": 15,
      ")": 16,
      "*": 17,
      "+": 18,
      ",": 19,
      "-": 20,
      ".": 21,
      "/": 22,
      "0": 23,
      "1": 24,
      "2": 25,
      "3": 26,
      "4": 27,
      "5": 28,
      "6": 29,
      "7": 30,
      "8": 31,
      "9": 32,
      ":": 33,
      ";": 34,
      "<": 35,
      "=": 36,
      ">": 37,
      "?": 38,
      "@": 39,
      "A": 40,
      "B": 41,
      "C": 42,
      "D": 43,
      "E": 44,
      "F": 45,
      "G": 46,
      "H": 47,
      "I": 48,
      "J": 49,
      "K": 50,
      "L": 51,
      "M": 52,
      "N": 53,
      "O": 54,
      "P": 55,
      "Q": 56,
      "R": 57,
      "S": 58,
      "T": 59,
      "U": 60,
      "V": 61,
      "W": 62,
      "X": 63,
      "Y": 64,
      "Z": 65,
      "[": 66,
      "\\": 67,
      "]": 68,
      "^": 69,
      "_": 70,
      "`": 71,
      "a": 72,
      "b": 73,
      "c": 74,
      "d": 75,
      "e": 76,
      "f": 77,
      "g": 78,
      "h": 79,
      "i": 80,
      "j": 81,
      "k": 82,
      "l": 83,
      "m": 84,
      "n": 85,
      "o": 86,
      "p": 87,
      "q": 88,
      "r": 89,
      "s": 90,
      "t": 91,
      "u": 92,
      "v": 93,
      "w": 94,
      "x": 95,
      "y": 96,
      "z": 97,
      "{": 98,
      "|": 99,
      "}": 100,
      "~": 101,
      "¡": 102,
      "¢": 103,
      "£": 104,
      "¤": 105,
      "¥": 106,
      "¦": 107,
      "§": 108,
      "¨": 109,
      "©": 110,
      "ª": 111,
      "«": 112,
      "¬": 113,
      "®": 114,
      "¯": 115,
      "°": 116,
      "±": 117,
      "²": 118,
      "³": 119,
      "´": 120,
      "µ": 121,
      "¶": 122,
      "·": 123,
      "¸": 124,
      "¹": 125,
      "º": 126,
      "»": 127,
      "¼": 128,
      "½": 129,
      "¾": 130,
      "¿": 131,
      "À": 132,
      "Á": 133,
      "Â": 134,
      "Ã": 135,
      "Ä": 136,
      "Å": 137,
      "Æ": 138,
      "Ç": 139,
      "È": 140,
      "É": 141,
      "Ê": 142,
      "Ë": 143,
      "Ì": 144,
      "Í": 145,
      "Î": 146,
      "Ï": 147,
      "Ð": 148,
      "Ñ": 149,
      "Ò": 150,
      "Ó": 151,
      "Ô": 152,
      "Õ": 153,
      "Ö": 154,
      "×": 155,
      "Ø": 156,
      "Ù": 157,
      "Ú": 158,
      "Û": 159,
      "Ü": 160,
      "Ý": 161,
      "Þ": 162,
      "ß": 163,
      "à": 164,
      "á": 165,
      "â": 166,
      "ã": 167,
      "ä": 168,
      "å": 169,
      "æ": 170,
      "ç": 171,
      "è": 172,
      "é": 173,
      "ê": 174,
      "ë": 175,
      "ì": 176,
      "í": 177,
      "î": 178,
      "ï": 179,
      "ð": 180,
      "ñ": 181,
      "ò": 182,
      "ó": 183,
      "ô": 184,
      "õ": 185,
      "ö": 186,
      "÷": 187,
      "ø": 188,
      "ù": 189,
      "ú": 190,
      "û": 191,
      "ü": 192,
      "ý": 193,
      "þ": 194,
      "ÿ": 195,
      "Ā": 196,
      "ā": 197,
      "Ă": 198,
      "ă": 199,
      "Ą": 200,
      "ą": 201,
      "Ć": 202,
      "ć": 203,
      "Ĉ": 204,
      "ĉ": 205,
      "Ċ": 206,
      "ċ": 207,
      "Č": 208,
      "č": 209,
      "Ď": 210,
      "ď": 211,
      "Đ": 212,
      "đ": 213,
      "Ē": 214,
      "ē": 215,
      "Ĕ": 216,
      "ĕ": 217,
      "Ė": 218,
      "ė": 219,
      "Ę": 220,
      "ę": 221,
      "Ě": 222,
      "ě": 223,
      "Ĝ": 224,
      "ĝ": 225,
      "Ğ": 226,
      "ğ": 227,
      "Ġ": 228,
      "ġ": 229,
      "Ģ": 230,
      "ģ": 231,
      "Ĥ": 232,
      "ĥ": 233,
      "Ħ": 234,
      "ħ": 235,
      "Ĩ": 236,
      "ĩ": 237,
      "Ī": 238,
      "ī": 239,
      "Ĭ": 240,
      "ĭ": 241,
      "Į": 242,
      "į": 243,
      "İ": 244,
      "ı": 245,
      "Ĳ": 246,
      "ĳ": 247,
      "Ĵ": 248,
      "ĵ": 249,
      "Ķ": 250,
      "ķ": 251,
      "ĸ": 252,
      "Ĺ": 253,
      "ĺ": 254,
      "Ļ": 255,
      "ļ": 256,
      "Ľ": 257,
      "ľ": 258,
      "Ŀ": 259,
      "ŀ": 260,
      "Ł": 261,
      "ł": 262,
      "Ń": 263,
      "Ġa": 264,
      "en": 265,
      "er": 266,
      "in": 267,
      "is": 268,
      "re": 269,
      "an": 270,
      "Ġt": 271,
      "al": 272,
      "os": 273,
      "te": 274,
      "on": 275,
      "ti": 276,
      "he": 277,
      "ss": 278,
      "ist": 279,
      "ic": 280,
      "ant": 281,
      "ssist": 282,
      "ssistant": 283,
      "Ġin": 284,
      "gen": 285,
      "le": 286,
      "or": 287,
      "Ġc": 288,
      "ce": 289,
      "ur": 290,
      "us": 291,
      "at": 292,
      "Ġis": 293,
      "tion": 294,
      "ul": 295,
      "Ġp": 296,
      "Ġare": 297,
      "ou": 298,
      "de": 299,
      "tem": 300,
      "Ġn": 301,
      "ĠĠ": 302,
      "ing": 303,
      "Ġthe": 304,
      "ll": 305,
      "Ġs": 306,
      "ys": 307,
      "end": 308,
      "Ġf": 309,
      "th": 310,
      "user": 311,
      "ystem": 312,
      "ful": 313,
      "assistant": 314,
      "bos": 315,
      "system": 316,
      "Ġhe": 317,
      "You": 318,
      "Ġar": 319,
      "Ġinte": 320,
      "ial": 321,
      "lp": 322,
      "Ġassistant": 323,
      "Ġhelp": 324,
      "fic": 325,
      "Ġre": 326,
      "ose": 327,
      "Ġw": 328,
      "Ġgen": 329,
      "Ġgener": 330,
      "igen": 331,
      "lligen": 332,
      "Ġhelpful": 333,
      "Ġgeneral": 334,
      "lligence": 335,
      "ar": 336,
      "hat": 337,
      "tific": 338,
      "Ġintelligence": 339,
      "tificial": 340,
      "am": 341,
      "Ġartificial": 342,
      "pose": 343,
      "Mos": 344,
      "aic": 345,
      "Mosaic": 346,
      "pur": 347,
      "ĠMosaic": 348,
      "purpose": 349,
      "Ġe": 350,
      "Ġb": 351,
      "Ġm": 352,
      "ro": 353,
      "Ġan": 354,
      "Ġo": 355,
      "Ġd": 356,
      "ts": 357,
      "es": 358,
      "Ġl": 359,
      "et": 360,
      "ed": 361,
      "Ġi": 362,
      "ers": 363,
      "Ġto": 364,
      "Ġex": 365,
      "Ġ=": 366,
      "Py": 367,
      "ly": 368,
      "ple": 369,
      "thon": 370,
      "Python": 371,
      "Ġv": 372,
      "ation": 373,
      "um": 374,
      "ent": 375,
      "What": 376,
      "om": 377,
      "Ġpro": 378,
      "Ġand": 379,
      "ain": 380,
      "ode": 381,
      "ĠPython": 382,
      "Ġof": 383,
      "ate": 384,
      "Ġwh": 385,
      "Ġthat": 386,
      "ĠĠĠ": 387,
      "Ġval": 388,
      "ble": 389,
      "orm": 390,
      "umb": 391,
      "ction": 392,
      "ec": 393,
      "un": 394,
      "Ġcan": 395,
      "ample": 396,
      "odel": 397,
      "ue": 398,
      "Ġus": 399,
      "Ġ2": 400,
      "Ġtr": 401,
      "Ġne": 402,
      "Ġmodel": 403,
      "Ġ1": 404,
      "Ġcon": 405,
      "form": 406,
      "etw": 407,
      "as": 408,
      "ut": 409,
      "Ġexample": 410,
      "Ġwi": 411,
      "able": 412,
      "ge": 413,
      "Ġper": 414,
      "ct": 415,
      "Ġth": 416,
      "ork": 417,
      "Ġcom": 418,
      "Ġfun": 419,
      "Ġfunction": 420,
      "Ġnetw": 421,
      "Ġwhen": 422,
      "Ġnetwork": 423,
      "ch": 424,
      "pre": 425,
      "ter": 426,
      "ver": 427,
      "lear": 428,
      "Ġnumb": 429,
      "ore": 430,
      "Ġ5": 431,
      "Ġde": 432,
      "Ġst": 433,
      "learn": 434,
      "The": 435,
      "im": 436,
      "it": 437,
      "ve": 438,
      "ere": 439,
      "ural": 440,
      "ame": 441,
      "rom": 442,
      "Ġdo": 443,
      "aining": 444,
      "Ġvalue": 445,
      "Th": 446,
      "gr": 447,
      "iz": 448,
      "ow": 449,
      "qu": 450,
      "ran": 451,
      "Ġlearn": 452,
      "ang": 453,
      "urn": 454,
      "Ġfrom": 455,
      "Ġret": 456,
      "Ġwith": 457,
      "For": 458,
      "age": 459,
      "il": 460,
      "xt": 461,
      "ata": 462,
      "Ġbe": 463,
      "Ġlist": 464,
      "Ġneural": 465,
      "Ġreturn": 466,
      "Ex": 467,
      "ion": 468,
      "Ġdata": 469,
      "du": 470,
      "ite": 471,
      "ten": 472,
      "ĠA": 473,
      "Ġon": 474,
      "Ġor": 475,
      "cess": 476,
      "):": 477,
      "ds": 478,
      "fore": 479,
      "ile": 480,
      "se": 481,
      "Ġh": 482,
      "Ġit": 483,
      "There": 484,
      "are": 485,
      "op": 486,
      "ot": 487,
      "pl": 488,
      "Ġ+": 489,
      "ence": 490,
      "ents": 491,
      "urs": 492,
      "Ġpar": 493,
      "Ġfor": 494,
      "Ġdi": 495,
      "eters": 496,
      "Ġnumber": 497,
      "fer": 498,
      "numb": 499,
      "st": 500,
      "Ġ3": 501,
      "Ġad": 502,
      "ine": 503,
      "Ġres": 504,
      "Ġprogr": 505,
      "Ġdoes": 506,
      "Ġprogram": 507,
      "cent": 508,
      "ol": 509,
      "ting": 510,
      "ĠT": 511,
      "ĠÃ": 512,
      "Ġse": 513,
      "Ġby": 514,
      "ations": 515,
      "Ġtraining": 516,
      "Therefore": 517,
      "Ġresul": 518,
      "di": 519,
      "id": 520,
      "ide": 521,
      "ken": 522,
      "pe": 523,
      "Ġ7": 524,
      "Ġat": 525,
      "def": 526,
      "ari": 527,
      "ase": 528,
      "pres": 529,
      "angu": 530,
      "tention": 531,
      "ck": 532,
      "ror": 533,
      "sform": 534,
      "Ġ4": 535,
      "Ġr": 536,
      "Ġinc": 537,
      "Ġpr": 538,
      "Ġrepres": 539,
      "Ġop": 540,
      "Ġlangu": 541,
      "Ġits": 542,
      "Ġprocess": 543,
      "Ġused": 544,
      "Ġcont": 545,
      "Ġperform": 546,
      "Ġpercent": 547,
      "Ġcomp": 548,
      "ach": 549,
      "ig": 550,
      "ues": 551,
      "Ġ\"": 552,
      "Ġ0": 553,
      "int": 554,
      "Ġty": 555,
      "tic": 556,
      "iction": 557,
      "Ġcode": 558,
      "cep": 559,
      "dex": 560,
      "Ġnot": 561,
      "Ġfile": 562,
      "Ġrec": 563,
      "ameters": 564,
      "Ġim": 565,
      "Ġtoken": 566,
      "ates": 567,
      "imp": 568,
      "Expl": 569,
      "ĠÃĹ": 570,
      "Ġlanguage": 571,
      "Explain": 572,
      "Wh": 573,
      "bj": 574,
      "ffer": 575,
      "lf": 576,
      "rite": 577,
      "up": 578,
      "uple": 579,
      "Ġk": 580,
      "Ġx": 581,
      "ally": 582,
      "lem": 583,
      "Ġcre": 584,
      "Ġname": 585,
      "Ġsimp": 586,
      "Ġ20": 587,
      "Ġdef": 588,
      "ransform": 589,
      "Ġlearning": 590,
      "duce": 591,
      "numbers": 592,
      "Ġprogramm": 593,
      "ariable": 594,
      "Why": 595,
      "bjec": 596,
      "Ġsimply": 597,
      "Er": 598,
      "How": 599,
      "In": 600,
      "Write": 601,
      "ad": 602,
      "act": 603,
      "oth": 604,
      "to": 605,
      "Ġ8": 606,
      "Ġran": 607,
      "all": 608,
      "text": 609,
      "ĠĠĠĠ": 610,
      "llow": 611,
      "ary": 612,
      "Ġelem": 613,
      "Ġme": 614,
      "Ġobjec": 615,
      "Ġdiction": 616,
      "Ġexcep": 617,
      "Ġvariable": 618,
      "Ġvalid": 619,
      "Ġvalues": 620,
      "Ġuse": 621,
      "Ġ12": 622,
      "utable": 623,
      "Ġexamples": 624,
      "quence": 625,
      "Ġparameters": 626,
      "Ġdiffer": 627,
      "Ġadd": 628,
      "ĠTransform": 629,
      "Ġresult": 630,
      "Ġprint": 631,
      "Ġrepresent": 632,
      "upd": 633,
      "Error": 634,
      "Ġelements": 635,
      "Ġdictionary": 636,
      "ĠTransformer": 637,
      "\",": 638,
      "An": 639,
      "ay": 640,
      "ass": 641,
      "ail": 642,
      "ext": 643,
      "fit": 644,
      "ir": 645,
      "ive": 646,
      "oop": 647,
      "ps": 648,
      "pro": 649,
      "Ġupd": 650,
      "Ġas": 651,
      "ise": 652,
      "Ġtuple": 653,
      "Ġtext": 654,
      "ted": 655,
      "tim": 656,
      "ich": 657,
      "arg": 658,
      "Ġif": 659,
      "ains": 660,
      "Ġwhich": 661,
      "Ġnetworks": 662,
      "verfit": 663,
      "Ġnumbers": 664,
      "Ġstr": 665,
      "Ġsequence": 666,
      "Ġattention": 667,
      "Ġtype": 668,
      "Ġprogramming": 669,
      "Ġdifferent": 670,
      "verfitting": 671,
      "\")": 672,
      "(\"": 673,
      "der": 674,
      "lo": 675,
      "name": 676,
      "ru": 677,
      "ure": 678,
      "vide": 679,
      "you": 680,
      "Ġ6": 681,
      "Ġyou": 682,
      "Ġac": 683,
      "Ġaf": 684,
      "and": 685,
      "Ġcl": 686,
      "ular": 687,
      "Ġpos": 688,
      "Ġso": 689,
      "Ġarch": 690,
      "Ġwor": 691,
      "Ġblo": 692,
      "Ġloop": 693,
      "Ġlarg": 694,
      "ctions": 695,
      "Ġuses": 696,
      "cture": 697,
      "Ġ50": 698,
      "ity": 699,
      "ization": 700,
      "quare": 701,
      "itecture": 702,
      "Ġcontains": 703,
      "Ġcomput": 704,
      "Ġrecurs": 705,
      "ĠĠĠĠĠĠĠ": 706,
      "Ġexception": 707,
      "Ġarchitecture": 708,
      "Ġblock": 709,
      "'s": 710,
      "If": 711,
      "ci": 712,
      "een": 713,
      "gth": 714,
      "ition": 715,
      "ls": 716,
      "ne": 717,
      "ns": 718,
      "per": 719,
      "par": 720,
      "pec": 721,
      "raining": 722,
      "wo": 723,
      "Ġg": 724,
      "Ġun": 725,
      "Ġass": 726,
      "ength": 727,
      "rect": 728,
      "Ġtwo": 729,
      "Ġindex": 730,
      "Ġinto": 731,
      "Ġch": 732,
      "Ġcol": 733,
      "atter": 734,
      "ded": 735,
      "Ġset": 736,
      "Ġinteg": 737,
      "Ġbetw": 738,
      "Ġmo": 739,
      "est": 740,
      "Ġproble": 741,
      "Ġproduce": 742,
      "ated": 743,
      "Ġusing": 744,
      "Ġtra": 745,
      "Ġ10": 746,
      "Ġthis": 747,
      "izer": 748,
      "Ġlearns": 749,
      "Example": 750,
      "stru": 751,
      "Ġra": 752,
      "Ġincre": 753,
      "achine": 754,
      "tical": 755,
      "Ġtokens": 756,
      "Ġobjects": 757,
      "Ġvalidation": 758,
      "Ġcolle": 759,
      "Ġbetween": 760,
      "Ġproblem": 761,
      "ab": 762,
      "ap": 763,
      "atem": 764,
      "com": 765,
      "cise": 766,
      "ding": 767,
      "ep": 768,
      "elf": 769,
      "hi": 770,
      "its": 771,
      "lations": 772,
      "mon": 773,
      "ole": 774,
      "the": 775,
      "ven": 776,
      "val": 777,
      "Ġ/": 778,
      "Ġ[": 779,
      "Ġ{": 780,
      "Ġaut": 781,
      "Ġallow": 782,
      "ens": 783,
      "ance": 784,
      "onds": 785,
      "Ġinform": 786,
      "Ġinter": 787,
      "Ġcare": 788,
      "Ġpre": 789,
      "Ġpatter": 790,
      "Ġsu": 791,
      "Ġsec": 792,
      "Ġsquare": 793,
      "fully": 794,
      "Ġrelations": 795,
      "Ġwe": 796,
      "Ġever": 797,
      "Ġeach": 798,
      "Ġma": 799,
      "Ġmat": 800,
      "Ġmutable": 801,
      "Ġlay": 802,
      "eter": 803,
      "umer": 804,
      "ometers": 805,
      "ech": 806,
      "Ġtrain": 807,
      "Ġ15": 808,
      "Ġthan": 809,
      "ilometers": 810,
      "ĠAI": 811,
      "Ġone": 812,
      "Ġho": 813,
      "ference": 814,
      "number": 815,
      "Ġoper": 816,
      "Ġkilometers": 817,
      "Ġ200": 818,
      "Ġdefin": 819,
      "Ġrange": 820,
      "aller": 821,
      "Ġupdates": 822,
      "Ġstring": 823,
      "Ġaccess": 824,
      "Ġafter": 825,
      "Ġlargest": 826,
      "Ġinteger": 827,
      "Ġtrave": 828,
      "abil": 829,
      "atement": 830,
      "hips": 831,
      "Ġallows": 832,
      "Ġinformation": 833,
      "Ġcarefully": 834,
      "Ġpatterns": 835,
      "Ġseconds": 836,
      "Ġrelationships": 837,
      "Ġevery": 838,
      "Ġlayers": 839,
      "\":": 840,
      "15": 841,
      "Fo": 842,
      "PI": 843,
      "Val": 844,
      "babil": 845,
      "cc": 846,
      "dth": 847,
      "dom": 848,
      "ey": 849,
      "fy": 850,
      "for": 851,
      "fers": 852,
      "hens": 853,
      "jus": 854,
      "lu": 855,
      "mutable": 856,
      "maller": 857,
      "not": 858,
      "oci": 859,
      "por": 860,
      "pend": 861,
      "put": 862,
      "vis": 863,
      "vant": 864,
      "vail": 865,
      "wer": 866,
      "Ġ(": 867,
      "Ġ*": 868,
      "Ġ-": 869,
      "ĠD": 870,
      "ĠI": 871,
      "ĠN": 872,
      "Ġen": 873,
      "Ġou": 874,
      "Ġuser": 875,
      "Ġgr": 876,
      "ĠVal": 877,
      "istical": 878,
      "read": 879,
      "Ġtim": 880,
      "oss": 881,
      "onents": 882,
      "tiple": 883,
      "heck": 884,
      "ical": 885,
      "Ġinten": 886,
      "Ġinstru": 887,
      "levant": 888,
      "ords": 889,
      "Ġcal": 890,
      "Ġcase": 891,
      "Ġcheck": 892,
      "uring": 893,
      "atistical": 894,
      "ultiple": 895,
      "Ġsame": 896,
      "Ġfi": 897,
      "Ġfin": 898,
      "Ġfact": 899,
      "ther": 900,
      "Ġrect": 901,
      "Ġrefers": 902,
      "Ġrelevant": 903,
      "Ġboth": 904,
      "Ġman": 905,
      "Ġmachine": 906,
      "Ġoverfitting": 907,
      "Ġocc": 908,
      "Ġlength": 909,
      "eds": 910,
      "Ġitem": 911,
      "Ġiter": 912,
      "erson": 913,
      "Ġtoo": 914,
      "Ġexper": 915,
      "ational": 916,
      "Ġprobabil": 917,
      "Ġwhile": 918,
      "ormally": 919,
      "Ġcannot": 920,
      "Ġ25": 921,
      "Ġmodels": 922,
      "Ġcondi": 923,
      "Ġcontext": 924,
      "ased": 925,
      "Ġwidth": 926,
      "Ġcompre": 927,
      "Ġcommon": 928,
      "Ġstatement": 929,
      "Ġstatistical": 930,
      "angle": 931,
      "Ġlists": 932,
      "Ġreturns": 933,
      "ĠAPI": 934,
      "Ġorder": 935,
      "Ġhas": 936,
      "Ġhand": 937,
      "Ġadjus": 938,
      "olv": 939,
      "Ġ40": 940,
      "Ġinclu": 941,
      "Ġoptim": 942,
      "igh": 943,
      "Ġimmutable": 944,
      "Ġtokenizer": 945,
      "Index": 946,
      "other": 947,
      "Ġrandom": 948,
      "Ġmean": 949,
      "Ġuseful": 950,
      "Ġrepresentation": 951,
      "Ġclass": 952,
      "Ġposition": 953,
      "Ġworse": 954,
      "Ġrecursion": 955,
      "Ġassoci": 956,
      "Ġchang": 957,
      "Ġincrease": 958,
      "Ġcollection": 959,
      "Ġsuch": 960,
      "Ġhours": 961,
      "Follow": 962,
      "hension": 963,
      "port": 964,
      "vailable": 965,
      "Ġintended": 966,
      "Ġinstructions": 967,
      "Ġfactor": 968,
      "Ġrectangle": 969,
      "Ġexpert": 970,
      "Ġcondition": 971,
      "Ġcomprehension": 972,
      "Ġordered": 973,
      "()": 974,
      "10": 975,
      "25": 976,
      "At": 977,
      "Bo": 978,
      "De": 979,
      "Di": 980,
      "Overfitting": 981,
      "ace": 982,
      "ads": 983,
      "adi": 984,
      "atic": 985,
      "can": 986,
      "den": 987,
      "dic": 988,
      "ex": 989,
      "gh": 990,
      "gular": 991,
      "iq": 992,
      "iti": 993,
      "ith": 994,
      "ms": 995,
      "mine": 996,
      "mech": 997,
      "oin": 998,
      "our": 999,
      "ption": 1000,
      "person": 1001,
      "rou": 1002,
      "si": 1003,
      "swer": 1004,
      "tr": 1005,
      "with": 1006,
      "xed": 1007,
      "ĠC": 1008,
      "Ġer": 1009,
      "ĠIndex": 1010,
      "Ġal": 1011,
      "Ġap": 1012,
      "Ġavailable": 1013,
      "ero": 1014,
      "ercise": 1015,
      "ishe": 1016,
      "ises": 1017,
      "isms": 1018,
      "ree": 1019,
      "anisms": 1020,
      "Ġtas": 1021,
      "alse": 1022,
      "ong": 1023,
      "onver": 1024,
      "tify": 1025,
      "hether": 1026,
      "ssion": 1027,
      "led": 1028,
      "orrect": 1029,
      "Ġcall": 1030,
      "ats": 1031,
      "ator": 1032,
      "ating": 1033,
      "Ġarea": 1034,
      "Ġsystem": 1035,
      "Ġsmaller": 1036,
      "Ġfail": 1037,
      "Ġfour": 1038,
      "Ġheads": 1039,
      "Ġreduce": 1040,
      "Ġread": 1041,
      "Ġwas": 1042,
      "Ġwhether": 1043,
      "Ġbec": 1044,
      "Ġbase": 1045,
      "Ġbased": 1046,
      "Ġanswer": 1047,
      "Ġloss": 1048,
      "Ġexpre": 1049,
      "Ġvers": 1050,
      "umption": 1051,
      "omatic": 1052,
      "Ġprovide": 1053,
      "ately": 1054,
      "ueError": 1055,
      "Ġtry": 1056,
      "Ġtrue": 1057,
      "Ġnew": 1058,
      "Ġneeds": 1059,
      "Ġconver": 1060,
      "Ġwill": 1061,
      "Ġperim": 1062,
      "Ġthen": 1063,
      "Ġthose": 1064,
      "Ġthrou": 1065,
      "Ġthree": 1066,
      "termine": 1067,
      "Ġdes": 1068,
      "Ġdetermine": 1069,
      "ize": 1070,
      "Ġlearned": 1071,
      "Ġbefore": 1072,
      "dule": 1073,
      "self": 1074,
      "ops": 1075,
      "plic": 1076,
      "Ġparts": 1077,
      "Ġdirect": 1078,
      "Ġ30": 1079,
      "olve": 1080,
      "ĠÃ·": 1081,
      "Ġresults": 1082,
      "Ġopen": 1083,
      "Ġitself": 1084,
      "Ġperforms": 1085,
      "Ġperformance": 1086,
      "Ġpercentage": 1087,
      "Ġcomponents": 1088,
      "ign": 1089,
      "Ġtyp": 1090,
      "Ġrecords": 1091,
      "Ġimpro": 1092,
      "Ġimport": 1093,
      "Ġkey": 1094,
      "Ġ80": 1095,
      "Ġobject": 1096,
      "Ġrepresentations": 1097,
      "irst": 1098,
      "Ġupdate": 1099,
      "Ġcomputing": 1100,
      "Ġcomputational": 1101,
      "Ġrecursive": 1102,
      "Ġunits": 1103,
      "Ġraise": 1104,
      "Ġraises": 1105,
      "olean": 1106,
      "Ġautomatic": 1107,
      "Ġinterpre": 1108,
      "Ġweigh": 1109,
      "Ġmak": 1110,
      "umerate": 1111,
      "Ġtrained": 1112,
      "Ġdefined": 1113,
      "Ġtravel": 1114,
      "vision": 1115,
      "ĠDuring": 1116,
      "Ġgrou": 1117,
      "ĠValueError": 1118,
      "Ġfixed": 1119,
      "Ġmany": 1120,
      "Ġoccurs": 1121,
      "Ġiterable": 1122,
      "Ġprobability": 1123,
      "Ġcommonly": 1124,
      "Ġhandle": 1125,
      "Ġadjusted": 1126,
      "olved": 1127,
      "Attention": 1128,
      "Boolean": 1129,
      "dentify": 1130,
      "ique": 1131,
      "mechanisms": 1132,
      "Ġerror": 1133,
      "ĠIndexError": 1134,
      "Ġtask": 1135,
      "Ġexpression": 1136,
      "Ġprovides": 1137,
      "Ġperimeter": 1138,
      "Ġthrough": 1139,
      "Ġdirectly": 1140,
      "Ġimprove": 1141,
      "Ġautomatically": 1142,
      "Ġweights": 1143,
      "\"]": 1144,
      "20": 1145,
      "44": 1146,
      "=\"": 1147,
      "Ad": 1148,
      "Ale": 1149,
      "Conver": 1150,
      "False": 1151,
      "Give": 1152,
      "Here": 1153,
      "Mo": 1154,
      "Model": 1155,
      "Machine": 1156,
      "Normally": 1157,
      "Rec": 1158,
      "Solve": 1159,
      "That": 1160,
      "Tuple": 1161,
      "Training": 1162,
      "[\"": 1163,
      "__": 1164,
      "ati": 1165,
      "aus": 1166,
      "ays": 1167,
      "air": 1168,
      "atical": 1169,
      "bine": 1170,
      "base": 1171,
      "big": 1172,
      "co": 1173,
      "cre": 1174,
      "cul": 1175,
      "cular": 1176,
      "dam": 1177,
      "diction": 1178,
      "el": 1179,
      "ely": 1180,
      "eural": 1181,
      "eded": 1182,
      "even": 1183,
      "ft": 1184,
      "fec": 1185,
      "file": 1186,
      "face": 1187,
      "gre": 1188,
      "gan": 1189,
      "ho": 1190,
      "her": 1191,
      "ie": 1192,
      "ian": 1193,
      "ific": 1194,
      "ment": 1195,
      "mun": 1196,
      "multiple": 1197,
      "matical": 1198,
      "mbig": 1199,
      "nt": 1200,
      "nique": 1201,
      "od": 1202,
      "oor": 1203,
      "oint": 1204,
      "pu": 1205,
      "pts": 1206,
      "point": 1207,
      "rue": 1208,
      "rong": 1209,
      "square": 1210,
      "spec": 1211,
      "txt": 1212,
      "training": 1213,
      "uti": 1214,
      "uity": 1215,
      "vers": 1216,
      "vent": 1217,
      "volved": 1218,
      "war": 1219,
      "ware": 1220,
      "ways": 1221,
      "zero": 1222,
      "Ġ%": 1223,
      "Ġ>": 1224,
      "Ġle": 1225,
      "Ġend": 1226,
      "ĠThe": 1227,
      "Ġqu": 1228,
      "ĠEx": 1229,
      "ĠHow": 1230,
      "ĠBoolean": 1231,
      "ĠFalse": 1232,
      "Ġzero": 1233,
      "Ġage": 1234,
      "Ġals": 1235,
      "Ġambig": 1236,
      "ented": 1237,
      "ansform": 1238,
      "Ġtech": 1239,
      "one": 1240,
      "hematical": 1241,
      "ssive": 1242,
      "icate": 1243,
      "Ġint": 1244,
      "Ġinference": 1245,
      "Ġinput": 1246,
      "Ġinvolved": 1247,
      "Ġcou": 1248,
      "Ġcoin": 1249,
      "usable": 1250,
      "attention": 1251,
      "ather": 1252,
      "uld": 1253,
      "Ġpoor": 1254,
      "out": 1255,
      "tempts": 1256,
      "Ġnumer": 1257,
      "Ġnormally": 1258,
      "Ġtheir": 1259,
      "Ġside": 1260,
      "Ġspe": 1261,
      "Ġspec": 1262,
      "Ġsho": 1263,
      "Ġfe": 1264,
      "Ġform": 1265,
      "Ġfair": 1266,
      "ially": 1267,
      "Ġrepe": 1268,
      "Ġrepro": 1269,
      "Ġregular": 1270,
      "Ġrevers": 1271,
      "Ġreusable": 1272,
      "Ġwrong": 1273,
      "Ġgenerally": 1274,
      "ameter": 1275,
      "posed": 1276,
      "Ġeven": 1277,
      "Ġbo": 1278,
      "Ġbut": 1279,
      "Ġbran": 1280,
      "Ġmus": 1281,
      "Ġmed": 1282,
      "Ġmultiple": 1283,
      "Ġover": 1284,
      "tside": 1285,
      "Ġidentify": 1286,
      "Ġexec": 1287,
      "Ġexact": 1288,
      "Ġexpec": 1289,
      "Ġexplic": 1290,
      "Ġ==": 1291,
      "omes": 1292,
      "Ġproce": 1293,
      "Ġwhole": 1294,
      "ormal": 1295,
      "Ġ21": 1296,
      "Ġ26": 1297,
      "Ġtransform": 1298,
      "Ġnever": 1299,
      "Ġneeded": 1300,
      "Ġ11": 1301,
      "Ġ13": 1302,
      "Ġconst": 1303,
      "Ġconstru": 1304,
      "Ġconcise": 1305,
      "utf": 1306,
      "Ġthere": 1307,
      "Ġcomple": 1308,
      "Ġcombine": 1309,
      "Ġcomposed": 1310,
      "oregre": 1311,
      "Ġdec": 1312,
      "Ġdeep": 1313,
      "Ġdepend": 1314,
      "Ġstore": 1315,
      "Ġstops": 1316,
      "ime": 1317,
      "itly": 1318,
      "Then": 1319,
      "This": 1320,
      "izing": 1321,
      "Ġwithout": 1322,
      "Ġbeing": 1323,
      "ions": 1324,
      "Ġdatabase": 1325,
      "duci": 1326,
      "ĠAn": 1327,
      "ĠAdam": 1328,
      "Ġonly": 1329,
      "Ġorgan": 1330,
      "Ġhow": 1331,
      "optim": 1332,
      "ursion": 1333,
      "Ġpartic": 1334,
      "Ġdivide": 1335,
      "Ġdivision": 1336,
      "Ġadds": 1337,
      "ĠTraining": 1338,
      "ĠTrue": 1339,
      "Ġseed": 1340,
      "Ġself": 1341,
      "Ġresulting": 1342,
      "Ġattempts": 1343,
      "arily": 1344,
      "Ġ42": 1345,
      "Ġrun": 1346,
      "Ġrather": 1347,
      "Ġincorrect": 1348,
      "Ġprime": 1349,
      "Ġrepresented": 1350,
      "Ġprocesses": 1351,
      "Ġcontaining": 1352,
      "Ġcreation": 1353,
      "Ġcreate": 1354,
      "Ġcreates": 1355,
      "Ġcreated": 1356,
      "Ġcreating": 1357,
      "Ġdefine": 1358,
      "Ġprogrammed": 1359,
      "Inference": 1360,
      "token": 1361,
      "Ġexcept": 1362,
      "assumption": 1363,
      "Ġsequences": 1364,
      "dern": 1365,
      "Ġ60": 1366,
      "Ġaffec": 1367,
      "Ġclose": 1368,
      "Ġpossi": 1369,
      "Ġsoft": 1370,
      "Ġwords": 1371,
      "Ġlarger": 1372,
      "Ġexceptions": 1373,
      "Ġblocks": 1374,
      "ness": 1375,
      "perform": 1376,
      "parameters": 1377,
      "Ġgre": 1378,
      "Ġmodi": 1379,
      "Ġmodule": 1380,
      "Examples": 1381,
      "Ġcollections": 1382,
      "append": 1383,
      "commun": 1384,
      "valid": 1385,
      "Ġautoregre": 1386,
      "Ġinterface": 1387,
      "Ġpredic": 1388,
      "Ġsquares": 1389,
      "Ġwell": 1390,
      "Ġmath": 1391,
      "Ġmathematical": 1392,
      "Ġ150": 1393,
      "Ġoperation": 1394,
      "Ġoperations": 1395,
      "Ġaccessing": 1396,
      "Ġtravels": 1397,
      "ĠNone": 1398,
      "Ġenumerate": 1399,
      "Ġenco": 1400,
      "Ġout": 1401,
      "Ġoutside": 1402,
      "ready": 1403,
      "Ġtime": 1404,
      "Ġtimes": 1405,
      "Ġcalled": 1406,
      "Ġcalcul": 1407,
      "Ġchecks": 1408,
      "Ġfinishe": 1409,
      "Ġinclude": 1410,
      "Ġincluding": 1411,
      "Ġoptimizer": 1412,
      "Ġmeaning": 1413,
      "Ġassociated": 1414,
      "Ġchanged": 1415,
      "Ġfactorial": 1416,
      "Deep": 1417,
      "Divide": 1418,
      "adient": 1419,
      "ities": 1420,
      "Ġalways": 1421,
      "Ġappro": 1422,
      "Ġcalls": 1423,
      "Ġsystems": 1424,
      "Ġbecomes": 1425,
      "Ġdescent": 1426,
      "Ġtypes": 1427,
      "Ġinterpret": 1428,
      "Ġgroups": 1429,
      "Alex": 1430,
      "Convert": 1431,
      "Recursion": 1432,
      "Tuples": 1433,
      "ause": 1434,
      "dictions": 1435,
      "ifically": 1436,
      "puts": 1437,
      "squares": 1438,
      "utils": 1439,
      "ward": 1440,
      "ĠExercise": 1441,
      "Ġalso": 1442,
      "Ġambiguity": 1443,
      "Ġtechnique": 1444,
      "Ġpoorly": 1445,
      "Ġnumerical": 1446,
      "Ġsides": 1447,
      "Ġspeed": 1448,
      "Ġshould": 1449,
      "Ġformats": 1450,
      "Ġreproduci": 1451,
      "Ġregularization": 1452,
      "Ġbranch": 1453,
      "Ġmedian": 1454,
      "Ġexactly": 1455,
      "Ġexplicitly": 1456,
      "Ġconstant": 1457,
      "optimization": 1458,
      "Ġparticular": 1459,
      "Ġpossible": 1460,
      "Ġsoftware": 1461,
      "communicate": 1462,
      "Ġautoregressive": 1463,
      "Ġencoding": 1464,
      "Ġcalculates": 1465,
      "Ġfinishes": 1466,
      "Ġreproducible": 1467,
      "([\"": 1468,
      ")]": 1469,
      ")}": 1470,
      "144": 1471,
      "30": 1472,
      "50": 1473,
      "60": 1474,
      "65": 1475,
      ":-": 1476,
      ":]": 1477,
      "::-": 1478,
      "Ar": 1479,
      "Both": 1480,
      "Ds": 1481,
      "First": 1482,
      "Gr": 1483,
      "He": 1484,
      "Its": 1485,
      "Identify": 1486,
      "List": 1487,
      "Loop": 1488,
      "Min": 1489,
      "More": 1490,
      "Not": 1491,
      "Neural": 1492,
      "One": 1493,
      "Person": 1494,
      "Re": 1495,
      "St": 1496,
      "Su": 1497,
      "Self": 1498,
      "Str": 1499,
      "Turn": 1500,
      "Transform": 1501,
      "Use": 1502,
      "Zero": 1503,
      "[::-": 1504,
      "])": 1505,
      "].": 1506,
      "];": 1507,
      "]?": 1508,
      "ac": 1509,
      "af": 1510,
      "ag": 1511,
      "av": 1512,
      "ax": 1513,
      "ade": 1514,
      "agr": 1515,
      "ack": 1516,
      "available": 1517,
      "bu": 1518,
      "bec": 1519,
      "bit": 1520,
      "btr": 1521,
      "back": 1522,
      "cl": 1523,
      "con": 1524,
      "cur": 1525,
      "cing": 1526,
      "cts": 1527,
      "cop": 1528,
      "conver": 1529,
      "do": 1530,
      "dle": 1531,
      "dor": 1532,
      "dent": 1533,
      "ef": 1534,
      "eys": 1535,
      "eth": 1536,
      "ever": 1537,
      "elem": 1538,
      "fi": 1539,
      "fin": 1540,
      "ffic": 1541,
      "fam": 1542,
      "from": 1543,
      "fine": 1544,
      "first": 1545,
      "gg": 1546,
      "gi": 1547,
      "gn": 1548,
      "gum": 1549,
      "gati": 1550,
      "hys": 1551,
      "hav": 1552,
      "if": 1553,
      "ik": 1554,
      "ip": 1555,
      "ire": 1556,
      "ior": 1557,
      "item": 1558,
      "iar": 1559,
      "ient": 1560,
      "iven": 1561,
      "iately": 1562,
      "key": 1563,
      "lic": 1564,
      "ling": 1565,
      "langu": 1566,
      "larg": 1567,
      "length": 1568,
      "loss": 1569,
      "lled": 1570,
      "lip": 1571,
      "mp": 1572,
      "mal": 1573,
      "mor": 1574,
      "may": 1575,
      "mains": 1576,
      "matter": 1577,
      "ning": 1578,
      "nts": 1579,
      "nec": 1580,
      "normal": 1581,
      "ov": 1582,
      "oic": 1583,
      "overfitting": 1584,
      "ood": 1585,
      "ogn": 1586,
      "pr": 1587,
      "py": 1588,
      "pos": 1589,
      "ping": 1590,
      "pens": 1591,
      "ponents": 1592,
      "ring": 1593,
      "rent": 1594,
      "rate": 1595,
      "rie": 1596,
      "rarily": 1597,
      "sy": 1598,
      "ste": 1599,
      "spl": 1600,
      "stim": 1601,
      "smaller": 1602,
      "ty": 1603,
      "ule": 1604,
      "ution": 1605,
      "uate": 1606,
      "uil": 1607,
      "uide": 1608,
      "udor": 1609,
      "ving": 1610,
      "ves": 1611,
      "variable": 1612,
      "vity": 1613,
      "was": 1614,
      "words": 1615,
      "xim": 1616,
      "ype": 1617,
      "}\"": 1618,
      "Ġ'": 1619,
      "Ġ9": 1620,
      "Ġ<": 1621,
      "ĠWhat": 1622,
      "ĠIf": 1623,
      "ĠMo": 1624,
      "Ġ__": 1625,
      "ĠOne": 1626,
      "ĠPerson": 1627,
      "ĠRe": 1628,
      "ĠZero": 1629,
      "enom": 1630,
      "ense": 1631,
      "enumerate": 1632,
      "enef": 1633,
      "erator": 1634,
      "erially": 1635,
      "inal": 1636,
      "inte": 1637,
      "ints": 1638,
      "ined": 1639,
      "init": 1640,
      "inues": 1641,
      "index": 1642,
      "inference": 1643,
      "input": 1644,
      "inator": 1645,
      "inputs": 1646,
      "iscre": 1647,
      "isions": 1648,
      "red": 1649,
      "rection": 1650,
      "repres": 1651,
      "resi": 1652,
      "remains": 1653,
      "Ġtail": 1654,
      "alth": 1655,
      "ality": 1656,
      "ost": 1657,
      "tep": 1658,
      "tely": 1659,
      "till": 1660,
      "tivity": 1661,
      "hes": 1662,
      "ssage": 1663,
      "Ġindic": 1664,
      "Ġinade": 1665,
      "Ġindent": 1666,
      "Ġinste": 1667,
      "let": 1668,
      "lest": 1669,
      "ors": 1670,
      "oring": 1671,
      "Ġcar": 1672,
      "Ġclear": 1673,
      "Ġcop": 1674,
      "Ġcap": 1675,
      "Ġcaller": 1676,
      "Ġcorrect": 1677,
      "ces": 1678,
      "ceding": 1679,
      "ceback": 1680,
      "uration": 1681,
      "urance": 1682,
      "urred": 1683,
      "ater": 1684,
      "ult": 1685,
      "ullet": 1686,
      "Ġpse": 1687,
      "Ġpoin": 1688,
      "Ġpie": 1689,
      "Ġphys": 1690,
      "dea": 1691,
      "dely": 1692,
      "Ġnon": 1693,
      "Ġnow": 1694,
      "Ġnormal": 1695,
      "ings": 1696,
      "ingly": 1697,
      "Ġthey": 1698,
      "Ġthese": 1699,
      "llo": 1700,
      "Ġsum": 1701,
      "Ġsent": 1702,
      "Ġsom": 1703,
      "Ġsup": 1704,
      "Ġsolv": 1705,
      "Ġsize": 1706,
      "Ġsolve": 1707,
      "Ġsign": 1708,
      "Ġsaf": 1709,
      "Ġscop": 1710,
      "Ġslic": 1711,
      "Ġsmal": 1712,
      "Ġsense": 1713,
      "Ġstep": 1714,
      "Ġstill": 1715,
      "Ġfar": 1716,
      "Ġfit": 1717,
      "Ġfive": 1718,
      "Ġfalse": 1719,
      "Ġfirst": 1720,
      "Ġflip": 1721,
      "thod": 1722,
      "Ġhealth": 1723,
      "Ġarbit": 1724,
      "Ġargum": 1725,
      "ializ": 1726,
      "Ġhelps": 1727,
      "fication": 1728,
      "Ġrequ": 1729,
      "Ġrepl": 1730,
      "Ġreac": 1731,
      "Ġwent": 1732,
      "Ġwork": 1733,
      "Ġwrite": 1734,
      "Ġway": 1735,
      "Ġgenerate": 1736,
      "Ġgenerator": 1737,
      "Ġgeneraliz": 1738,
      "Ġgeneralization": 1739,
      "Ġgeneralize": 1740,
      "art": 1741,
      "arge": 1742,
      "aract": 1743,
      "Ġequ": 1744,
      "Ġeval": 1745,
      "Ġespec": 1746,
      "Ġevent": 1747,
      "Ġeffic": 1748,
      "Ġemp": 1749,
      "Ġestim": 1750,
      "Ġbet": 1751,
      "Ġbuil": 1752,
      "Ġbenef": 1753,
      "Ġbullet": 1754,
      "Ġmore": 1755,
      "Ġmid": 1756,
      "Ġmay": 1757,
      "Ġmigh": 1758,
      "Ġmost": 1759,
      "rolled": 1760,
      "roving": 1761,
      "Ġanother": 1762,
      "Ġother": 1763,
      "Ġduring": 1764,
      "Ġdenom": 1765,
      "Ġdiscre": 1766,
      "Ġduration": 1767,
      "estion": 1768,
      "Ġlen": 1769,
      "Ġlim": 1770,
      "Ġline": 1771,
      "Ġlong": 1772,
      "Ġlik": 1773,
      "Ġlarge": 1774,
      "etting": 1775,
      "Ġidea": 1776,
      "Ġtoward": 1777,
      "Ġexist": 1778,
      "Ġexercise": 1779,
      "plement": 1780,
      "uman": 1781,
      "entations": 1782,
      "ompar": 1783,
      "Ġprodu": 1784,
      "ategi": 1785,
      "Ġwhose": 1786,
      "Ġwhere": 1787,
      "under": 1788,
      "amples": 1789,
      "Ġneed": 1790,
      "Ġnext": 1791,
      "Ġnecess": 1792,
      "Ġ18": 1793,
      "Ġ144": 1794,
      "Ġconten": 1795,
      "Ġconne": 1796,
      "Ġconnec": 1797,
      "ascular": 1798,
      "asingly": 1799,
      "uting": 1800,
      "Ġwidely": 1801,
      "Ġthir": 1802,
      "Ġfunctions": 1803,
      "predictions": 1804,
      "Ġdebu": 1805,
      "Ġstate": 1806,
      "Ġstated": 1807,
      "Ġstoring": 1808,
      "itor": 1809,
      "ameError": 1810,
      "gradi": 1811,
      "izers": 1812,
      "quately": 1813,
      "Ġretrie": 1814,
      "iliar": 1815,
      "Ġbehav": 1816,
      "dure": 1817,
      "dual": 1818,
      "ited": 1819,
      "Ġorig": 1820,
      "sequence": 1821,
      "Ġhap": 1822,
      "Ġhuman": 1823,
      "area": 1824,
      "operator": 1825,
      "Ġparameter": 1826,
      "Ġparagr": 1827,
      "statement": 1828,
      "stops": 1829,
      "string": 1830,
      "Ġresolved": 1831,
      "ĠType": 1832,
      "Ġseen": 1833,
      "Ġsepar": 1834,
      "differ": 1835,
      "divis": 1836,
      "diov": 1837,
      "direction": 1838,
      "idation": 1839,
      "defined": 1840,
      "arification": 1841,
      "Ġrate": 1842,
      "Ġrule": 1843,
      "Ġprints": 1844,
      "Ġrepresents": 1845,
      "Ġlanguag": 1846,
      "Ġprocessing": 1847,
      "Ġprocessed": 1848,
      "Ġcontain": 1849,
      "Ġcontinues": 1850,
      "Ġcontrolled": 1851,
      "Ġperforming": 1852,
      "Ġperformed": 1853,
      "Ġcompact": 1854,
      "Ġcompati": 1855,
      "igns": 1856,
      "cept": 1857,
      "cepts": 1858,
      "Ġrecogn": 1859,
      "Ġimplement": 1860,
      "improving": 1861,
      "Ġkep": 1862,
      "Ġkeys": 1863,
      "bject": 1864,
      "However": 1865,
      "Invalid": 1866,
      "ĠĠĠĠĠĠĠĠĠĠĠ": 1867,
      "Ġmemor": 1868,
      "Ġmessage": 1869,
      "Ġmethod": 1870,
      "Ġdifference": 1871,
      "Ġrepresenting": 1872,
      "update": 1873,
      "assign": 1874,
      "produce": 1875,
      "Ġask": 1876,
      "Ġtuples": 1877,
      "times": 1878,
      "Ġstrength": 1879,
      "Ġstrategi": 1880,
      "rule": 1881,
      "Ġ65": 1882,
      "Ġactivity": 1883,
      "Ġaccepts": 1884,
      "andom": 1885,
      "Ġclarification": 1886,
      "Ġpositi": 1887,
      "Ġword": 1888,
      "Ġloops": 1889,
      "Ġcomputer": 1890,
      "Ġarchitectures": 1891,
      "needs": 1892,
      "negati": 1893,
      "part": 1894,
      "parameter": 1895,
      "Ġgiven": 1896,
      "Ġgood": 1897,
      "Ġguide": 1898,
      "Ġgetting": 1899,
      "Ġunique": 1900,
      "Ġunfam": 1901,
      "Ġundefined": 1902,
      "Ġassumption": 1903,
      "Ġassign": 1904,
      "Ġindexes": 1905,
      "Ġindexed": 1906,
      "Ġchoic": 1907,
      "Ġcharact": 1908,
      "Ġintegers": 1909,
      "Ġmodern": 1910,
      "Ġmoves": 1911,
      "Ġtraceback": 1912,
      "Ġ100": 1913,
      "Ġincreased": 1914,
      "Ġincreasingly": 1915,
      "Ġproblems": 1916,
      "aph": 1917,
      "comes": 1918,
      "comput": 1919,
      "components": 1920,
      "itself": 1921,
      "monitor": 1922,
      "them": 1923,
      "value": 1924,
      "values": 1925,
      "Ġprevent": 1926,
      "Ġpredictions": 1927,
      "Ġpreceding": 1928,
      "Ġsubject": 1929,
      "Ġmade": 1930,
      "Ġmaps": 1931,
      "Ġmaterially": 1932,
      "Ġhour": 1933,
      "Ġoperate": 1934,
      "Ġdefines": 1935,
      "Ġdefinition": 1936,
      "Ġaccessed": 1937,
      "abilities": 1938,
      "forward": 1939,
      "Ġ*=": 1940,
      "ĠData": 1941,
      "ĠIt": 1942,
      "ĠIDs": 1943,
      "ĠNeural": 1944,
      "ĠNameError": 1945,
      "Ġgradient": 1946,
      "ĠValidation": 1947,
      "Ġchecking": 1948,
      "Ġfiel": 1949,
      "Ġfind": 1950,
      "Ġfinds": 1951,
      "Ġmanage": 1952,
      "Ġoccurred": 1953,
      "Ġitems": 1954,
      "Ġiterate": 1955,
      "Ġprobabilities": 1956,
      "Ġhandling": 1957,
      "Ġadjusts": 1958,
      "Ġoptimization": 1959,
      "Ġoptimizers": 1960,
      "Ġrandomness": 1961,
      "Ġclasses": 1962,
      "Ġpositions": 1963,
      "Ġassociations": 1964,
      "Ġassociates": 1965,
      "Ġchanging": 1966,
      "Ġchanges": 1967,
      "Ġfactors": 1968,
      "Ġconditions": 1969,
      "())": 1970,
      "Define": 1971,
      "Division": 1972,
      "aced": 1973,
      "exist": 1974,
      "examples": 1975,
      "except": 1976,
      "try": 1977,
      "ĠCompar": 1978,
      "Ġalready": 1979,
      "Ġapplic": 1980,
      "ished": 1981,
      "Ġcalling": 1982,
      "Ġreading": 1983,
      "Ġbecause": 1984,
      "Ġversus": 1985,
      "Ġversion": 1986,
      "Ġversions": 1987,
      "Ġconvert": 1988,
      "Ġconverts": 1989,
      "Ġconverted": 1990,
      "Ġdesigns": 1991,
      "dules": 1992,
      "Ġtypical": 1993,
      "Ġimportant": 1994,
      "Ġinterpreting": 1995,
      "Ġmake": 1996,
      "Ġmaking": 1997,
      "Ġmakes": 1998,
      "Ġgroup": 1999,
      "Ġerrors": 2000,
      "Ġtasks": 2001,
      "Ġexpressions": 2002,
      "\"]):": 2003,
      "Add": 2004,
      "Adult": 2005,
      "Modules": 2006,
      "__(": 2007,
      "created": 2008,
      "else": 2009,
      "ntax": 2010,
      "specifically": 2011,
      "Ġ>=": 2012,
      "Ġlets": 2013,
      "Ġlead": 2014,
      "Ġendurance": 2015,
      "ĠThese": 2016,
      "Ġquality": 2017,
      "Ġquestion": 2018,
      "Ġcount": 2019,
      "Ġcounts": 2020,
      "Ġspecifically": 2021,
      "Ġspecializ": 2022,
      "Ġfeed": 2023,
      "Ġfewer": 2024,
      "Ġrepeats": 2025,
      "Ġrepeating": 2026,
      "Ġreverse": 2027,
      "Ġreverses": 2028,
      "Ġbox": 2029,
      "Ġbool": 2030,
      "Ġmust": 2031,
      "Ġmuscular": 2032,
      "Ġoverall": 2033,
      "Ġexecution": 2034,
      "Ġexecuting": 2035,
      "Ġexpects": 2036,
      "Ġexpected": 2037,
      "Ġproceed": 2038,
      "Ġprocedure": 2039,
      "Ġconstruct": 2040,
      "Ġconstructs": 2041,
      "Ġcomplex": 2042,
      "Ġcompletely": 2043,
      "Ġdecide": 2044,
      "Ġdecisions": 2045,
      "Ġdepends": 2046,
      "Ġdepending": 2047,
      "Ġstored": 2048,
      "Ġstores": 2049,
      "ĠAdamW": 2050,
      "Ġorganize": 2051,
      "Ġorganizing": 2052,
      "Ġdivided": 2053,
      "Ġruns": 2054,
      "Ġrunning": 2055,
      "tokens": 2056,
      "assumptions": 2057,
      "Ġaffects": 2058,
      "Ġaffecting": 2059,
      "Ġclosed": 2060,
      "Ġcloses": 2061,
      "performance": 2062,
      "Ġgreet": 2063,
      "Ġgreater": 2064,
      "Ġmodify": 2065,
      "Ġmodifi": 2066,
      "Ġpredicts": 2067,
      "Ġpredicting": 2068,
      "Ġoutputs": 2069,
      "Ġoutcomes": 2070,
      "Ġappropr": 2071,
      "Ġapproxim": 2072,
      "Ġinterpretation": 2073,
      "Ġinterpretations": 2074,
      ":]:": 2075,
      "Artificial": 2076,
      "Gradient": 2077,
      "Hello": 2078,
      "Lists": 2079,
      "Loops": 2080,
      "Minor": 2081,
      "Start": 2082,
      "Subtr": 2083,
      "Strings": 2084,
      "Transformers": 2085,
      "because": 2086,
      "class": 2087,
      "context": 2088,
      "current": 2089,
      "converts": 2090,
      "does": 2091,
      "ething": 2092,
      "element": 2093,
      "finished": 2094,
      "gging": 2095,
      "iently": 2096,
      "language": 2097,
      "largest": 2098,
      "position": 2099,
      "syntax": 2100,
      "split": 2101,
      "udorandom": 2102,
      "variables": 2103,
      "ĠModern": 2104,
      "ĠRegular": 2105,
      "ĠZeroDivision": 2106,
      "intelligence": 2107,
      "representations": 2108,
      "residual": 2109,
      "Ġtails": 2110,
      "Ġindicates": 2111,
      "Ġinadequately": 2112,
      "Ġindentation": 2113,
      "Ġinstead": 2114,
      "Ġcardiov": 2115,
      "Ġcopy": 2116,
      "Ġcapabilities": 2117,
      "Ġpseudorandom": 2118,
      "Ġpoints": 2119,
      "Ġpieces": 2120,
      "Ġphysical": 2121,
      "Ġnormalization": 2122,
      "Ġsentence": 2123,
      "Ġsomething": 2124,
      "Ġsupport": 2125,
      "Ġsolving": 2126,
      "Ġsafely": 2127,
      "Ġscope": 2128,
      "Ġsliced": 2129,
      "Ġsmallest": 2130,
      "Ġfitness": 2131,
      "Ġflipping": 2132,
      "Ġarbitrarily": 2133,
      "Ġarguments": 2134,
      "Ġrequire": 2135,
      "Ġreplaced": 2136,
      "Ġreaches": 2137,
      "Ġgeneralizes": 2138,
      "Ġequally": 2139,
      "Ġevaluate": 2140,
      "Ġespecially": 2141,
      "Ġefficiently": 2142,
      "Ġempty": 2143,
      "Ġestimate": 2144,
      "Ġbetter": 2145,
      "Ġbuilt": 2146,
      "Ġbenefits": 2147,
      "Ġmiddle": 2148,
      "Ġmight": 2149,
      "Ġdenominator": 2150,
      "Ġdiscrete": 2151,
      "Ġlimited": 2152,
      "Ġlikely": 2153,
      "Ġproducing": 2154,
      "Ġnecessarily": 2155,
      "Ġcontents": 2156,
      "Ġconnections": 2157,
      "Ġconnected": 2158,
      "Ġthird": 2159,
      "Ġdebugging": 2160,
      "gradients": 2161,
      "Ġretrieve": 2162,
      "Ġbehavior": 2163,
      "Ġoriginal": 2164,
      "Ġhappens": 2165,
      "Ġparagraph": 2166,
      "ĠTypeError": 2167,
      "Ġseparate": 2168,
      "different": 2169,
      "divisors": 2170,
      "Ġlanguages": 2171,
      "Ġcompatible": 2172,
      "Ġrecognizing": 2173,
      "Ġimplementation": 2174,
      "Ġkept": 2175,
      "Ġmemory": 2176,
      "Ġstrategies": 2177,
      "Ġpositive": 2178,
      "negative": 2179,
      "Ġunfamiliar": 2180,
      "Ġassignment": 2181,
      "Ġchoices": 2182,
      "Ġcharacters": 2183,
      "computational": 2184,
      "Ġfield": 2185,
      "ĠComparing": 2186,
      "Ġapplications": 2187,
      "Ġspecialized": 2188,
      "Ġexecutions": 2189,
      "Ġmodified": 2190,
      "Ġappropriately": 2191,
      "Ġapproximately": 2192,
      "Subtract": 2193,
      "ĠZeroDivisionError": 2194,
      "Ġcardiovascular": 2195
    },
    "merges": [
      [
        "Ġ",
        "a"
      ],
      [
        "e",
        "n"
      ],
      [
        "e",
        "r"
      ],
      [
        "i",
        "n"
      ],
      [
        "i",
        "s"
      ],
      [
        "r",
        "e"
      ],
      [
        "a",
        "n"
      ],
      [
        "Ġ",
        "t"
      ],
      [
        "a",
        "l"
      ],
      [
        "o",
        "s"
      ],
      [
        "t",
        "e"
      ],
      [
        "o",
        "n"
      ],
      [
        "t",
        "i"
      ],
      [
        "h",
        "e"
      ],
      [
        "s",
        "s"
      ],
      [
        "is",
        "t"
      ],
      [
        "i",
        "c"
      ],
      [
        "an",
        "t"
      ],
      [
        "ss",
        "ist"
      ],
      [
        "ssist",
        "ant"
      ],
      [
        "Ġ",
        "in"
      ],
      [
        "g",
        "en"
      ],
      [
        "l",
        "e"
      ],
      [
        "o",
        "r"
      ],
      [
        "Ġ",
        "c"
      ],
      [
        "c",
        "e"
      ],
      [
        "u",
        "r"
      ],
      [
        "u",
        "s"
      ],
      [
        "a",
        "t"
      ],
      [
        "Ġ",
        "is"
      ],
      [
        "ti",
        "on"
      ],
      [
        "u",
        "l"
      ],
      [
        "Ġ",
        "p"
      ],
      [
        "Ġa",
        "re"
      ],
      [
        "o",
        "u"
      ],
      [
        "d",
        "e"
      ],
      [
        "te",
        "m"
      ],
      [
        "Ġ",
        "n"
      ],
      [
        "Ġ",
        "Ġ"
      ],
      [
        "in",
        "g"
      ],
      [
        "Ġt",
        "he"
      ],
      [
        "l",
        "l"
      ],
      [
        "Ġ",
        "s"
      ],
      [
        "y",
        "s"
      ],
      [
        "en",
        "d"
      ],
      [
        "Ġ",
        "f"
      ],
      [
        "t",
        "h"
      ],
      [
        "us",
        "er"
      ],
      [
        "ys",
        "tem"
      ],
      [
        "f",
        "ul"
      ],
      [
        "a",
        "ssistant"
      ],
      [
        "b",
        "os"
      ],
      [
        "s",
        "ystem"
      ],
      [
        "Ġ",
        "he"
      ],
      [
        "Y",
        "ou"
      ],
      [
        "Ġa",
        "r"
      ],
      [
        "Ġin",
        "te"
      ],
      [
        "i",
        "al"
      ],
      [
        "l",
        "p"
      ],
      [
        "Ġa",
        "ssistant"
      ],
      [
        "Ġhe",
        "lp"
      ],
      [
        "f",
        "ic"
      ],
      [
        "Ġ",
        "re"
      ],
      [
        "os",
        "e"
      ],
      [
        "Ġ",
        "w"
      ],
      [
        "Ġ",
        "gen"
      ],
      [
        "Ġgen",
        "er"
      ],
      [
        "i",
        "gen"
      ],
      [
        "ll",
        "igen"
      ],
      [
        "Ġhelp",
        "ful"
      ],
      [
        "Ġgener",
        "al"
      ],
      [
        "lligen",
        "ce"
      ],
      [
        "a",
        "r"
      ],
      [
        "h",
        "at"
      ],
      [
        "ti",
        "fic"
      ],
      [
        "Ġinte",
        "lligence"
      ],
      [
        "tific",
        "ial"
      ],
      [
        "a",
        "m"
      ],
      [
        "Ġar",
        "tificial"
      ],
      [
        "p",
        "ose"
      ],
      [
        "M",
        "os"
      ],
      [
        "a",
        "ic"
      ],
      [
        "Mos",
        "aic"
      ],
      [
        "p",
        "ur"
      ],
      [
        "Ġ",
        "Mosaic"
      ],
      [
        "pur",
        "pose"
      ],
      [
        "Ġ",
        "e"
      ],
      [
        "Ġ",
        "b"
      ],
      [
        "Ġ",
        "m"
      ],
      [
        "r",
        "o"
      ],
      [
        "Ġa",
        "n"
      ],
      [
        "Ġ",
        "o"
      ],
      [
        "Ġ",
        "d"
      ],
      [
        "t",
        "s"
      ],
      [
        "e",
        "s"
      ],
      [
        "Ġ",
        "l"
      ],
      [
        "e",
        "t"
      ],
      [
        "e",
        "d"
      ],
      [
        "Ġ",
        "i"
      ],
      [
        "er",
        "s"
      ],
      [
        "Ġt",
        "o"
      ],
      [
        "Ġe",
        "x"
      ],
      [
        "Ġ",
        "="
      ],
      [
        "P",
        "y"
      ],
      [
        "l",
        "y"
      ],
      [
        "p",
        "le"
      ],
      [
        "th",
        "on"
      ],
      [
        "Py",
        "thon"
      ],
      [
        "Ġ",
        "v"
      ],
      [
        "a",
        "tion"
      ],
      [
        "u",
        "m"
      ],
      [
        "en",
        "t"
      ],
      [
        "W",
        "hat"
      ],
      [
        "o",
        "m"
      ],
      [
        "Ġp",
        "ro"
      ],
      [
        "Ġan",
        "d"
      ],
      [
        "a",
        "in"
      ],
      [
        "o",
        "de"
      ],
      [
        "Ġ",
        "Python"
      ],
      [
        "Ġo",
        "f"
      ],
      [
        "a",
        "te"
      ],
      [
        "Ġw",
        "h"
      ],
      [
        "Ġt",
        "hat"
      ],
      [
        "ĠĠ",
        "Ġ"
      ],
      [
        "Ġv",
        "al"
      ],
      [
        "b",
        "le"
      ],
      [
        "or",
        "m"
      ],
      [
        "um",
        "b"
      ],
      [
        "c",
        "tion"
      ],
      [
        "e",
        "c"
      ],
      [
        "u",
        "n"
      ],
      [
        "Ġc",
        "an"
      ],
      [
        "am",
        "ple"
      ],
      [
        "ode",
        "l"
      ],
      [
        "u",
        "e"
      ],
      [
        "Ġ",
        "us"
      ],
      [
        "Ġ",
        "2"
      ],
      [
        "Ġt",
        "r"
      ],
      [
        "Ġn",
        "e"
      ],
      [
        "Ġm",
        "odel"
      ],
      [
        "Ġ",
        "1"
      ],
      [
        "Ġc",
        "on"
      ],
      [
        "f",
        "orm"
      ],
      [
        "et",
        "w"
      ],
      [
        "a",
        "s"
      ],
      [
        "u",
        "t"
      ],
      [
        "Ġex",
        "ample"
      ],
      [
        "Ġw",
        "i"
      ],
      [
        "a",
        "ble"
      ],
      [
        "g",
        "e"
      ],
      [
        "Ġp",
        "er"
      ],
      [
        "c",
        "t"
      ],
      [
        "Ġt",
        "h"
      ],
      [
        "or",
        "k"
      ],
      [
        "Ġc",
        "om"
      ],
      [
        "Ġf",
        "un"
      ],
      [
        "Ġfun",
        "ction"
      ],
      [
        "Ġn",
        "etw"
      ],
      [
        "Ġwh",
        "en"
      ],
      [
        "Ġnetw",
        "ork"
      ],
      [
        "c",
        "h"
      ],
      [
        "p",
        "re"
      ],
      [
        "t",
        "er"
      ],
      [
        "v",
        "er"
      ],
      [
        "le",
        "ar"
      ],
      [
        "Ġn",
        "umb"
      ],
      [
        "o",
        "re"
      ],
      [
        "Ġ",
        "5"
      ],
      [
        "Ġ",
        "de"
      ],
      [
        "Ġs",
        "t"
      ],
      [
        "lear",
        "n"
      ],
      [
        "T",
        "he"
      ],
      [
        "i",
        "m"
      ],
      [
        "i",
        "t"
      ],
      [
        "v",
        "e"
      ],
      [
        "er",
        "e"
      ],
      [
        "ur",
        "al"
      ],
      [
        "am",
        "e"
      ],
      [
        "ro",
        "m"
      ],
      [
        "Ġd",
        "o"
      ],
      [
        "ain",
        "ing"
      ],
      [
        "Ġval",
        "ue"
      ],
      [
        "T",
        "h"
      ],
      [
        "g",
        "r"
      ],
      [
        "i",
        "z"
      ],
      [
        "o",
        "w"
      ],
      [
        "q",
        "u"
      ],
      [
        "r",
        "an"
      ],
      [
        "Ġ",
        "learn"
      ],
      [
        "an",
        "g"
      ],
      [
        "ur",
        "n"
      ],
      [
        "Ġf",
        "rom"
      ],
      [
        "Ġre",
        "t"
      ],
      [
        "Ġwi",
        "th"
      ],
      [
        "F",
        "or"
      ],
      [
        "a",
        "ge"
      ],
      [
        "i",
        "l"
      ],
      [
        "x",
        "t"
      ],
      [
        "at",
        "a"
      ],
      [
        "Ġb",
        "e"
      ],
      [
        "Ġl",
        "ist"
      ],
      [
        "Ġne",
        "ural"
      ],
      [
        "Ġret",
        "urn"
      ],
      [
        "E",
        "x"
      ],
      [
        "i",
        "on"
      ],
      [
        "Ġd",
        "ata"
      ],
      [
        "d",
        "u"
      ],
      [
        "i",
        "te"
      ],
      [
        "t",
        "en"
      ],
      [
        "Ġ",
        "A"
      ],
      [
        "Ġ",
        "on"
      ],
      [
        "Ġ",
        "or"
      ],
      [
        "ce",
        "ss"
      ],
      [
        ")",
        ":"
      ],
      [
        "d",
        "s"
      ],
      [
        "f",
        "ore"
      ],
      [
        "i",
        "le"
      ],
      [
        "s",
        "e"
      ],
      [
        "Ġ",
        "h"
      ],
      [
        "Ġi",
        "t"
      ],
      [
        "Th",
        "ere"
      ],
      [
        "a",
        "re"
      ],
      [
        "o",
        "p"
      ],
      [
        "o",
        "t"
      ],
      [
        "p",
        "l"
      ],
      [
        "Ġ",
        "+"
      ],
      [
        "en",
        "ce"
      ],
      [
        "en",
        "ts"
      ],
      [
        "ur",
        "s"
      ],
      [
        "Ġp",
        "ar"
      ],
      [
        "Ġf",
        "or"
      ],
      [
        "Ġd",
        "i"
      ],
      [
        "et",
        "ers"
      ],
      [
        "Ġnumb",
        "er"
      ],
      [
        "f",
        "er"
      ],
      [
        "n",
        "umb"
      ],
      [
        "s",
        "t"
      ],
      [
        "Ġ",
        "3"
      ],
      [
        "Ġa",
        "d"
      ],
      [
        "in",
        "e"
      ],
      [
        "Ġre",
        "s"
      ],
      [
        "Ġpro",
        "gr"
      ],
      [
        "Ġdo",
        "es"
      ],
      [
        "Ġprogr",
        "am"
      ],
      [
        "c",
        "ent"
      ],
      [
        "o",
        "l"
      ],
      [
        "t",
        "ing"
      ],
      [
        "Ġ",
        "T"
      ],
      [
        "Ġ",
        "Ã"
      ],
      [
        "Ġs",
        "e"
      ],
      [
        "Ġb",
        "y"
      ],
      [
        "ation",
        "s"
      ],
      [
        "Ġtr",
        "aining"
      ],
      [
        "There",
        "fore"
      ],
      [
        "Ġres",
        "ul"
      ],
      [
        "d",
        "i"
      ],
      [
        "i",
        "d"
      ],
      [
        "i",
        "de"
      ],
      [
        "k",
        "en"
      ],
      [
        "p",
        "e"
      ],
      [
        "Ġ",
        "7"
      ],
      [
        "Ġa",
        "t"
      ],
      [
        "de",
        "f"
      ],
      [
        "ar",
        "i"
      ],
      [
        "as",
        "e"
      ],
      [
        "pre",
        "s"
      ],
      [
        "ang",
        "u"
      ],
      [
        "ten",
        "tion"
      ],
      [
        "c",
        "k"
      ],
      [
        "r",
        "or"
      ],
      [
        "s",
        "form"
      ],
      [
        "Ġ",
        "4"
      ],
      [
        "Ġ",
        "r"
      ],
      [
        "Ġin",
        "c"
      ],
      [
        "Ġp",
        "r"
      ],
      [
        "Ġre",
        "pres"
      ],
      [
        "Ġo",
        "p"
      ],
      [
        "Ġl",
        "angu"
      ],
      [
        "Ġi",
        "ts"
      ],
      [
        "Ġpro",
        "cess"
      ],
      [
        "Ġus",
        "ed"
      ],
      [
        "Ġcon",
        "t"
      ],
      [
        "Ġper",
        "form"
      ],
      [
        "Ġper",
        "cent"
      ],
      [
        "Ġcom",
        "p"
      ],
      [
        "a",
        "ch"
      ],
      [
        "i",
        "g"
      ],
      [
        "u",
        "es"
      ],
      [
        "Ġ",
        "\""
      ],
      [
        "Ġ",
        "0"
      ],
      [
        "in",
        "t"
      ],
      [
        "Ġt",
        "y"
      ],
      [
        "ti",
        "c"
      ],
      [
        "ic",
        "tion"
      ],
      [
        "Ġc",
        "ode"
      ],
      [
        "ce",
        "p"
      ],
      [
        "de",
        "x"
      ],
      [
        "Ġn",
        "ot"
      ],
      [
        "Ġf",
        "ile"
      ],
      [
        "Ġre",
        "c"
      ],
      [
        "am",
        "eters"
      ],
      [
        "Ġi",
        "m"
      ],
      [
        "Ġto",
        "ken"
      ],
      [
        "ate",
        "s"
      ],
      [
        "im",
        "p"
      ],
      [
        "Ex",
        "pl"
      ],
      [
        "ĠÃ",
        "Ĺ"
      ],
      [
        "Ġlangu",
        "age"
      ],
      [
        "Expl",
        "ain"
      ],
      [
        "W",
        "h"
      ],
      [
        "b",
        "j"
      ],
      [
        "f",
        "fer"
      ],
      [
        "l",
        "f"
      ],
      [
        "r",
        "ite"
      ],
      [
        "u",
        "p"
      ],
      [
        "u",
        "ple"
      ],
      [
        "Ġ",
        "k"
      ],
      [
        "Ġ",
        "x"
      ],
      [
        "al",
        "ly"
      ],
      [
        "le",
        "m"
      ],
      [
        "Ġc",
        "re"
      ],
      [
        "Ġn",
        "ame"
      ],
      [
        "Ġs",
        "imp"
      ],
      [
        "Ġ2",
        "0"
      ],
      [
        "Ġde",
        "f"
      ],
      [
        "ran",
        "sform"
      ],
      [
        "Ġlearn",
        "ing"
      ],
      [
        "du",
        "ce"
      ],
      [
        "numb",
        "ers"
      ],
      [
        "Ġprogram",
        "m"
      ],
      [
        "ari",
        "able"
      ],
      [
        "Wh",
        "y"
      ],
      [
        "bj",
        "ec"
      ],
      [
        "Ġsimp",
        "ly"
      ],
      [
        "E",
        "r"
      ],
      [
        "H",
        "ow"
      ],
      [
        "I",
        "n"
      ],
      [
        "W",
        "rite"
      ],
      [
        "a",
        "d"
      ],
      [
        "a",
        "ct"
      ],
      [
        "o",
        "th"
      ],
      [
        "t",
        "o"
      ],
      [
        "Ġ",
        "8"
      ],
      [
        "Ġ",
        "ran"
      ],
      [
        "al",
        "l"
      ],
      [
        "te",
        "xt"
      ],
      [
        "ĠĠ",
        "ĠĠ"
      ],
      [
        "ll",
        "ow"
      ],
      [
        "ar",
        "y"
      ],
      [
        "Ġe",
        "lem"
      ],
      [
        "Ġm",
        "e"
      ],
      [
        "Ġo",
        "bjec"
      ],
      [
        "Ġd",
        "iction"
      ],
      [
        "Ġex",
        "cep"
      ],
      [
        "Ġv",
        "ariable"
      ],
      [
        "Ġval",
        "id"
      ],
      [
        "Ġval",
        "ues"
      ],
      [
        "Ġus",
        "e"
      ],
      [
        "Ġ1",
        "2"
      ],
      [
        "ut",
        "able"
      ],
      [
        "Ġexample",
        "s"
      ],
      [
        "qu",
        "ence"
      ],
      [
        "Ġpar",
        "ameters"
      ],
      [
        "Ġdi",
        "ffer"
      ],
      [
        "Ġad",
        "d"
      ],
      [
        "ĠT",
        "ransform"
      ],
      [
        "Ġresul",
        "t"
      ],
      [
        "Ġpr",
        "int"
      ],
      [
        "Ġrepres",
        "ent"
      ],
      [
        "up",
        "d"
      ],
      [
        "Er",
        "ror"
      ],
      [
        "Ġelem",
        "ents"
      ],
      [
        "Ġdiction",
        "ary"
      ],
      [
        "ĠTransform",
        "er"
      ],
      [
        "\"",
        ","
      ],
      [
        "A",
        "n"
      ],
      [
        "a",
        "y"
      ],
      [
        "a",
        "ss"
      ],
      [
        "a",
        "il"
      ],
      [
        "e",
        "xt"
      ],
      [
        "f",
        "it"
      ],
      [
        "i",
        "r"
      ],
      [
        "i",
        "ve"
      ],
      [
        "o",
        "op"
      ],
      [
        "p",
        "s"
      ],
      [
        "p",
        "ro"
      ],
      [
        "Ġ",
        "upd"
      ],
      [
        "Ġa",
        "s"
      ],
      [
        "is",
        "e"
      ],
      [
        "Ġt",
        "uple"
      ],
      [
        "Ġt",
        "ext"
      ],
      [
        "te",
        "d"
      ],
      [
        "ti",
        "m"
      ],
      [
        "ic",
        "h"
      ],
      [
        "ar",
        "g"
      ],
      [
        "Ġi",
        "f"
      ],
      [
        "ain",
        "s"
      ],
      [
        "Ġwh",
        "ich"
      ],
      [
        "Ġnetwork",
        "s"
      ],
      [
        "ver",
        "fit"
      ],
      [
        "Ġnumb",
        "ers"
      ],
      [
        "Ġst",
        "r"
      ],
      [
        "Ġse",
        "quence"
      ],
      [
        "Ġat",
        "tention"
      ],
      [
        "Ġty",
        "pe"
      ],
      [
        "Ġprogramm",
        "ing"
      ],
      [
        "Ġdiffer",
        "ent"
      ],
      [
        "verfit",
        "ting"
      ],
      [
        "\"",
        ")"
      ],
      [
        "(",
        "\""
      ],
      [
        "d",
        "er"
      ],
      [
        "l",
        "o"
      ],
      [
        "n",
        "ame"
      ],
      [
        "r",
        "u"
      ],
      [
        "u",
        "re"
      ],
      [
        "v",
        "ide"
      ],
      [
        "y",
        "ou"
      ],
      [
        "Ġ",
        "6"
      ],
      [
        "Ġ",
        "you"
      ],
      [
        "Ġa",
        "c"
      ],
      [
        "Ġa",
        "f"
      ],
      [
        "an",
        "d"
      ],
      [
        "Ġc",
        "l"
      ],
      [
        "ul",
        "ar"
      ],
      [
        "Ġp",
        "os"
      ],
      [
        "Ġs",
        "o"
      ],
      [
        "Ġar",
        "ch"
      ],
      [
        "Ġw",
        "or"
      ],
      [
        "Ġb",
        "lo"
      ],
      [
        "Ġl",
        "oop"
      ],
      [
        "Ġl",
        "arg"
      ],
      [
        "ction",
        "s"
      ],
      [
        "Ġus",
        "es"
      ],
      [
        "ct",
        "ure"
      ],
      [
        "Ġ5",
        "0"
      ],
      [
        "it",
        "y"
      ],
      [
        "iz",
        "ation"
      ],
      [
        "qu",
        "are"
      ],
      [
        "ite",
        "cture"
      ],
      [
        "Ġcont",
        "ains"
      ],
      [
        "Ġcomp",
        "ut"
      ],
      [
        "Ġrec",
        "urs"
      ],
      [
        "ĠĠĠĠ",
        "ĠĠĠ"
      ],
      [
        "Ġexcep",
        "tion"
      ],
      [
        "Ġarch",
        "itecture"
      ],
      [
        "Ġblo",
        "ck"
      ],
      [
        "'",
        "s"
      ],
      [
        "I",
        "f"
      ],
      [
        "c",
        "i"
      ],
      [
        "e",
        "en"
      ],
      [
        "g",
        "th"
      ],
      [
        "i",
        "tion"
      ],
      [
        "l",
        "s"
      ],
      [
        "n",
        "e"
      ],
      [
        "n",
        "s"
      ],
      [
        "p",
        "er"
      ],
      [
        "p",
        "ar"
      ],
      [
        "p",
        "ec"
      ],
      [
        "r",
        "aining"
      ],
      [
        "w",
        "o"
      ],
      [
        "Ġ",
        "g"
      ],
      [
        "Ġ",
        "un"
      ],
      [
        "Ġa",
        "ss"
      ],
      [
        "en",
        "gth"
      ],
      [
        "re",
        "ct"
      ],
      [
        "Ġt",
        "wo"
      ],
      [
        "Ġin",
        "dex"
      ],
      [
        "Ġin",
        "to"
      ],
      [
        "Ġc",
        "h"
      ],
      [
        "Ġc",
        "ol"
      ],
      [
        "at",
        "ter"
      ],
      [
        "de",
        "d"
      ],
      [
        "Ġs",
        "et"
      ],
      [
        "Ġinte",
        "g"
      ],
      [
        "Ġb",
        "etw"
      ],
      [
        "Ġm",
        "o"
      ],
      [
        "es",
        "t"
      ],
      [
        "Ġpro",
        "ble"
      ],
      [
        "Ġpro",
        "duce"
      ],
      [
        "ate",
        "d"
      ],
      [
        "Ġus",
        "ing"
      ],
      [
        "Ġtr",
        "a"
      ],
      [
        "Ġ1",
        "0"
      ],
      [
        "Ġth",
        "is"
      ],
      [
        "iz",
        "er"
      ],
      [
        "Ġlearn",
        "s"
      ],
      [
        "Ex",
        "ample"
      ],
      [
        "st",
        "ru"
      ],
      [
        "Ġr",
        "a"
      ],
      [
        "Ġinc",
        "re"
      ],
      [
        "ach",
        "ine"
      ],
      [
        "tic",
        "al"
      ],
      [
        "Ġtoken",
        "s"
      ],
      [
        "Ġobjec",
        "ts"
      ],
      [
        "Ġvalid",
        "ation"
      ],
      [
        "Ġcol",
        "le"
      ],
      [
        "Ġbetw",
        "een"
      ],
      [
        "Ġproble",
        "m"
      ],
      [
        "a",
        "b"
      ],
      [
        "a",
        "p"
      ],
      [
        "a",
        "tem"
      ],
      [
        "c",
        "om"
      ],
      [
        "c",
        "ise"
      ],
      [
        "d",
        "ing"
      ],
      [
        "e",
        "p"
      ],
      [
        "e",
        "lf"
      ],
      [
        "h",
        "i"
      ],
      [
        "i",
        "ts"
      ],
      [
        "l",
        "ations"
      ],
      [
        "m",
        "on"
      ],
      [
        "o",
        "le"
      ],
      [
        "t",
        "he"
      ],
      [
        "v",
        "en"
      ],
      [
        "v",
        "al"
      ],
      [
        "Ġ",
        "/"
      ],
      [
        "Ġ",
        "["
      ],
      [
        "Ġ",
        "{"
      ],
      [
        "Ġa",
        "ut"
      ],
      [
        "Ġa",
        "llow"
      ],
      [
        "en",
        "s"
      ],
      [
        "an",
        "ce"
      ],
      [
        "on",
        "ds"
      ],
      [
        "Ġin",
        "form"
      ],
      [
        "Ġin",
        "ter"
      ],
      [
        "Ġc",
        "are"
      ],
      [
        "Ġp",
        "re"
      ],
      [
        "Ġp",
        "atter"
      ],
      [
        "Ġs",
        "u"
      ],
      [
        "Ġs",
        "ec"
      ],
      [
        "Ġs",
        "quare"
      ],
      [
        "ful",
        "ly"
      ],
      [
        "Ġre",
        "lations"
      ],
      [
        "Ġw",
        "e"
      ],
      [
        "Ġe",
        "ver"
      ],
      [
        "Ġe",
        "ach"
      ],
      [
        "Ġm",
        "a"
      ],
      [
        "Ġm",
        "at"
      ],
      [
        "Ġm",
        "utable"
      ],
      [
        "Ġl",
        "ay"
      ],
      [
        "et",
        "er"
      ],
      [
        "um",
        "er"
      ],
      [
        "om",
        "eters"
      ],
      [
        "ec",
        "h"
      ],
      [
        "Ġtr",
        "ain"
      ],
      [
        "Ġ1",
        "5"
      ],
      [
        "Ġth",
        "an"
      ],
      [
        "il",
        "ometers"
      ],
      [
        "ĠA",
        "I"
      ],
      [
        "Ġon",
        "e"
      ],
      [
        "Ġh",
        "o"
      ],
      [
        "fer",
        "ence"
      ],
      [
        "numb",
        "er"
      ],
      [
        "Ġop",
        "er"
      ],
      [
        "Ġk",
        "ilometers"
      ],
      [
        "Ġ20",
        "0"
      ],
      [
        "Ġdef",
        "in"
      ],
      [
        "Ġran",
        "ge"
      ],
      [
        "all",
        "er"
      ],
      [
        "Ġupd",
        "ates"
      ],
      [
        "Ġstr",
        "ing"
      ],
      [
        "Ġac",
        "cess"
      ],
      [
        "Ġaf",
        "ter"
      ],
      [
        "Ġlarg",
        "est"
      ],
      [
        "Ġinteg",
        "er"
      ],
      [
        "Ġtra",
        "ve"
      ],
      [
        "ab",
        "il"
      ],
      [
        "atem",
        "ent"
      ],
      [
        "hi",
        "ps"
      ],
      [
        "Ġallow",
        "s"
      ],
      [
        "Ġinform",
        "ation"
      ],
      [
        "Ġcare",
        "fully"
      ],
      [
        "Ġpatter",
        "ns"
      ],
      [
        "Ġsec",
        "onds"
      ],
      [
        "Ġrelations",
        "hips"
      ],
      [
        "Ġever",
        "y"
      ],
      [
        "Ġlay",
        "ers"
      ],
      [
        "\"",
        ":"
      ],
      [
        "1",
        "5"
      ],
      [
        "F",
        "o"
      ],
      [
        "P",
        "I"
      ],
      [
        "V",
        "al"
      ],
      [
        "b",
        "abil"
      ],
      [
        "c",
        "c"
      ],
      [
        "d",
        "th"
      ],
      [
        "d",
        "om"
      ],
      [
        "e",
        "y"
      ],
      [
        "f",
        "y"
      ],
      [
        "f",
        "or"
      ],
      [
        "f",
        "ers"
      ],
      [
        "h",
        "ens"
      ],
      [
        "j",
        "us"
      ],
      [
        "l",
        "u"
      ],
      [
        "m",
        "utable"
      ],
      [
        "m",
        "aller"
      ],
      [
        "n",
        "ot"
      ],
      [
        "o",
        "ci"
      ],
      [
        "p",
        "or"
      ],
      [
        "p",
        "end"
      ],
      [
        "p",
        "ut"
      ],
      [
        "v",
        "is"
      ],
      [
        "v",
        "ant"
      ],
      [
        "v",
        "ail"
      ],
      [
        "w",
        "er"
      ],
      [
        "Ġ",
        "("
      ],
      [
        "Ġ",
        "*"
      ],
      [
        "Ġ",
        "-"
      ],
      [
        "Ġ",
        "D"
      ],
      [
        "Ġ",
        "I"
      ],
      [
        "Ġ",
        "N"
      ],
      [
        "Ġ",
        "en"
      ],
      [
        "Ġ",
        "ou"
      ],
      [
        "Ġ",
        "user"
      ],
      [
        "Ġ",
        "gr"
      ],
      [
        "Ġ",
        "Val"
      ],
      [
        "is",
        "tical"
      ],
      [
        "re",
        "ad"
      ],
      [
        "Ġt",
        "im"
      ],
      [
        "os",
        "s"
      ],
      [
        "on",
        "ents"
      ],
      [
        "ti",
        "ple"
      ],
      [
        "he",
        "ck"
      ],
      [
        "ic",
        "al"
      ],
      [
        "Ġin",
        "ten"
      ],
      [
        "Ġin",
        "stru"
      ],
      [
        "le",
        "vant"
      ],
      [
        "or",
        "ds"
      ],
      [
        "Ġc",
        "al"
      ],
      [
        "Ġc",
        "ase"
      ],
      [
        "Ġc",
        "heck"
      ],
      [
        "ur",
        "ing"
      ],
      [
        "at",
        "istical"
      ],
      [
        "ul",
        "tiple"
      ],
      [
        "Ġs",
        "ame"
      ],
      [
        "Ġf",
        "i"
      ],
      [
        "Ġf",
        "in"
      ],
      [
        "Ġf",
        "act"
      ],
      [
        "th",
        "er"
      ],
      [
        "Ġre",
        "ct"
      ],
      [
        "Ġre",
        "fers"
      ],
      [
        "Ġre",
        "levant"
      ],
      [
        "Ġb",
        "oth"
      ],
      [
        "Ġm",
        "an"
      ],
      [
        "Ġm",
        "achine"
      ],
      [
        "Ġo",
        "verfitting"
      ],
      [
        "Ġo",
        "cc"
      ],
      [
        "Ġl",
        "ength"
      ],
      [
        "ed",
        "s"
      ],
      [
        "Ġi",
        "tem"
      ],
      [
        "Ġi",
        "ter"
      ],
      [
        "ers",
        "on"
      ],
      [
        "Ġto",
        "o"
      ],
      [
        "Ġex",
        "per"
      ],
      [
        "ation",
        "al"
      ],
      [
        "Ġpro",
        "babil"
      ],
      [
        "Ġwh",
        "ile"
      ],
      [
        "orm",
        "ally"
      ],
      [
        "Ġcan",
        "not"
      ],
      [
        "Ġ2",
        "5"
      ],
      [
        "Ġmodel",
        "s"
      ],
      [
        "Ġcon",
        "di"
      ],
      [
        "Ġcon",
        "text"
      ],
      [
        "as",
        "ed"
      ],
      [
        "Ġwi",
        "dth"
      ],
      [
        "Ġcom",
        "pre"
      ],
      [
        "Ġcom",
        "mon"
      ],
      [
        "Ġst",
        "atement"
      ],
      [
        "Ġst",
        "atistical"
      ],
      [
        "ang",
        "le"
      ],
      [
        "Ġlist",
        "s"
      ],
      [
        "Ġreturn",
        "s"
      ],
      [
        "ĠA",
        "PI"
      ],
      [
        "Ġor",
        "der"
      ],
      [
        "Ġh",
        "as"
      ],
      [
        "Ġh",
        "and"
      ],
      [
        "Ġad",
        "jus"
      ],
      [
        "ol",
        "v"
      ],
      [
        "Ġ4",
        "0"
      ],
      [
        "Ġinc",
        "lu"
      ],
      [
        "Ġop",
        "tim"
      ],
      [
        "ig",
        "h"
      ],
      [
        "Ġim",
        "mutable"
      ],
      [
        "Ġtoken",
        "izer"
      ],
      [
        "In",
        "dex"
      ],
      [
        "oth",
        "er"
      ],
      [
        "Ġran",
        "dom"
      ],
      [
        "Ġme",
        "an"
      ],
      [
        "Ġuse",
        "ful"
      ],
      [
        "Ġrepresent",
        "ation"
      ],
      [
        "Ġcl",
        "ass"
      ],
      [
        "Ġpos",
        "ition"
      ],
      [
        "Ġwor",
        "se"
      ],
      [
        "Ġrecurs",
        "ion"
      ],
      [
        "Ġass",
        "oci"
      ],
      [
        "Ġch",
        "ang"
      ],
      [
        "Ġincre",
        "ase"
      ],
      [
        "Ġcolle",
        "ction"
      ],
      [
        "Ġsu",
        "ch"
      ],
      [
        "Ġho",
        "urs"
      ],
      [
        "Fo",
        "llow"
      ],
      [
        "hens",
        "ion"
      ],
      [
        "por",
        "t"
      ],
      [
        "vail",
        "able"
      ],
      [
        "Ġinten",
        "ded"
      ],
      [
        "Ġinstru",
        "ctions"
      ],
      [
        "Ġfact",
        "or"
      ],
      [
        "Ġrect",
        "angle"
      ],
      [
        "Ġexper",
        "t"
      ],
      [
        "Ġcondi",
        "tion"
      ],
      [
        "Ġcompre",
        "hension"
      ],
      [
        "Ġorder",
        "ed"
      ],
      [
        "(",
        ")"
      ],
      [
        "1",
        "0"
      ],
      [
        "2",
        "5"
      ],
      [
        "A",
        "t"
      ],
      [
        "B",
        "o"
      ],
      [
        "D",
        "e"
      ],
      [
        "D",
        "i"
      ],
      [
        "O",
        "verfitting"
      ],
      [
        "a",
        "ce"
      ],
      [
        "a",
        "ds"
      ],
      [
        "a",
        "di"
      ],
      [
        "a",
        "tic"
      ],
      [
        "c",
        "an"
      ],
      [
        "d",
        "en"
      ],
      [
        "d",
        "ic"
      ],
      [
        "e",
        "x"
      ],
      [
        "g",
        "h"
      ],
      [
        "g",
        "ular"
      ],
      [
        "i",
        "q"
      ],
      [
        "i",
        "ti"
      ],
      [
        "i",
        "th"
      ],
      [
        "m",
        "s"
      ],
      [
        "m",
        "ine"
      ],
      [
        "m",
        "ech"
      ],
      [
        "o",
        "in"
      ],
      [
        "o",
        "ur"
      ],
      [
        "p",
        "tion"
      ],
      [
        "p",
        "erson"
      ],
      [
        "r",
        "ou"
      ],
      [
        "s",
        "i"
      ],
      [
        "s",
        "wer"
      ],
      [
        "t",
        "r"
      ],
      [
        "w",
        "ith"
      ],
      [
        "x",
        "ed"
      ],
      [
        "Ġ",
        "C"
      ],
      [
        "Ġ",
        "er"
      ],
      [
        "Ġ",
        "Index"
      ],
      [
        "Ġa",
        "l"
      ],
      [
        "Ġa",
        "p"
      ],
      [
        "Ġa",
        "vailable"
      ],
      [
        "er",
        "o"
      ],
      [
        "er",
        "cise"
      ],
      [
        "is",
        "he"
      ],
      [
        "is",
        "es"
      ],
      [
        "is",
        "ms"
      ],
      [
        "re",
        "e"
      ],
      [
        "an",
        "isms"
      ],
      [
        "Ġt",
        "as"
      ],
      [
        "al",
        "se"
      ],
      [
        "on",
        "g"
      ],
      [
        "on",
        "ver"
      ],
      [
        "ti",
        "fy"
      ],
      [
        "he",
        "ther"
      ],
      [
        "ss",
        "ion"
      ],
      [
        "le",
        "d"
      ],
      [
        "or",
        "rect"
      ],
      [
        "Ġc",
        "all"
      ],
      [
        "at",
        "s"
      ],
      [
        "at",
        "or"
      ],
      [
        "at",
        "ing"
      ],
      [
        "Ġare",
        "a"
      ],
      [
        "Ġs",
        "ystem"
      ],
      [
        "Ġs",
        "maller"
      ],
      [
        "Ġf",
        "ail"
      ],
      [
        "Ġf",
        "our"
      ],
      [
        "Ġhe",
        "ads"
      ],
      [
        "Ġre",
        "duce"
      ],
      [
        "Ġre",
        "ad"
      ],
      [
        "Ġw",
        "as"
      ],
      [
        "Ġw",
        "hether"
      ],
      [
        "Ġb",
        "ec"
      ],
      [
        "Ġb",
        "ase"
      ],
      [
        "Ġb",
        "ased"
      ],
      [
        "Ġan",
        "swer"
      ],
      [
        "Ġl",
        "oss"
      ],
      [
        "Ġex",
        "pre"
      ],
      [
        "Ġv",
        "ers"
      ],
      [
        "um",
        "ption"
      ],
      [
        "om",
        "atic"
      ],
      [
        "Ġpro",
        "vide"
      ],
      [
        "ate",
        "ly"
      ],
      [
        "ue",
        "Error"
      ],
      [
        "Ġtr",
        "y"
      ],
      [
        "Ġtr",
        "ue"
      ],
      [
        "Ġne",
        "w"
      ],
      [
        "Ġne",
        "eds"
      ],
      [
        "Ġcon",
        "ver"
      ],
      [
        "Ġwi",
        "ll"
      ],
      [
        "Ġper",
        "im"
      ],
      [
        "Ġth",
        "en"
      ],
      [
        "Ġth",
        "ose"
      ],
      [
        "Ġth",
        "rou"
      ],
      [
        "Ġth",
        "ree"
      ],
      [
        "ter",
        "mine"
      ],
      [
        "Ġde",
        "s"
      ],
      [
        "Ġde",
        "termine"
      ],
      [
        "iz",
        "e"
      ],
      [
        "Ġlearn",
        "ed"
      ],
      [
        "Ġbe",
        "fore"
      ],
      [
        "du",
        "le"
      ],
      [
        "se",
        "lf"
      ],
      [
        "op",
        "s"
      ],
      [
        "pl",
        "ic"
      ],
      [
        "Ġpar",
        "ts"
      ],
      [
        "Ġdi",
        "rect"
      ],
      [
        "Ġ3",
        "0"
      ],
      [
        "ol",
        "ve"
      ],
      [
        "ĠÃ",
        "·"
      ],
      [
        "Ġresul",
        "ts"
      ],
      [
        "Ġop",
        "en"
      ],
      [
        "Ġits",
        "elf"
      ],
      [
        "Ġperform",
        "s"
      ],
      [
        "Ġperform",
        "ance"
      ],
      [
        "Ġpercent",
        "age"
      ],
      [
        "Ġcomp",
        "onents"
      ],
      [
        "ig",
        "n"
      ],
      [
        "Ġty",
        "p"
      ],
      [
        "Ġrec",
        "ords"
      ],
      [
        "Ġim",
        "pro"
      ],
      [
        "Ġim",
        "port"
      ],
      [
        "Ġk",
        "ey"
      ],
      [
        "Ġ8",
        "0"
      ],
      [
        "Ġobjec",
        "t"
      ],
      [
        "Ġrepresent",
        "ations"
      ],
      [
        "ir",
        "st"
      ],
      [
        "Ġupd",
        "ate"
      ],
      [
        "Ġcomput",
        "ing"
      ],
      [
        "Ġcomput",
        "ational"
      ],
      [
        "Ġrecurs",
        "ive"
      ],
      [
        "Ġun",
        "its"
      ],
      [
        "Ġra",
        "ise"
      ],
      [
        "Ġra",
        "ises"
      ],
      [
        "ole",
        "an"
      ],
      [
        "Ġaut",
        "omatic"
      ],
      [
        "Ġinter",
        "pre"
      ],
      [
        "Ġwe",
        "igh"
      ],
      [
        "Ġma",
        "k"
      ],
      [
        "umer",
        "ate"
      ],
      [
        "Ġtrain",
        "ed"
      ],
      [
        "Ġdefin",
        "ed"
      ],
      [
        "Ġtrave",
        "l"
      ],
      [
        "vis",
        "ion"
      ],
      [
        "ĠD",
        "uring"
      ],
      [
        "Ġgr",
        "ou"
      ],
      [
        "ĠVal",
        "ueError"
      ],
      [
        "Ġfi",
        "xed"
      ],
      [
        "Ġman",
        "y"
      ],
      [
        "Ġocc",
        "urs"
      ],
      [
        "Ġiter",
        "able"
      ],
      [
        "Ġprobabil",
        "ity"
      ],
      [
        "Ġcommon",
        "ly"
      ],
      [
        "Ġhand",
        "le"
      ],
      [
        "Ġadjus",
        "ted"
      ],
      [
        "olv",
        "ed"
      ],
      [
        "At",
        "tention"
      ],
      [
        "Bo",
        "olean"
      ],
      [
        "den",
        "tify"
      ],
      [
        "iq",
        "ue"
      ],
      [
        "mech",
        "anisms"
      ],
      [
        "Ġer",
        "ror"
      ],
      [
        "ĠIndex",
        "Error"
      ],
      [
        "Ġtas",
        "k"
      ],
      [
        "Ġexpre",
        "ssion"
      ],
      [
        "Ġprovide",
        "s"
      ],
      [
        "Ġperim",
        "eter"
      ],
      [
        "Ġthrou",
        "gh"
      ],
      [
        "Ġdirect",
        "ly"
      ],
      [
        "Ġimpro",
        "ve"
      ],
      [
        "Ġautomatic",
        "ally"
      ],
      [
        "Ġweigh",
        "ts"
      ],
      [
        "\"",
        "]"
      ],
      [
        "2",
        "0"
      ],
      [
        "4",
        "4"
      ],
      [
        "=",
        "\""
      ],
      [
        "A",
        "d"
      ],
      [
        "A",
        "le"
      ],
      [
        "C",
        "onver"
      ],
      [
        "F",
        "alse"
      ],
      [
        "G",
        "ive"
      ],
      [
        "H",
        "ere"
      ],
      [
        "M",
        "o"
      ],
      [
        "M",
        "odel"
      ],
      [
        "M",
        "achine"
      ],
      [
        "N",
        "ormally"
      ],
      [
        "R",
        "ec"
      ],
      [
        "S",
        "olve"
      ],
      [
        "T",
        "hat"
      ],
      [
        "T",
        "uple"
      ],
      [
        "T",
        "raining"
      ],
      [
        "[",
        "\""
      ],
      [
        "_",
        "_"
      ],
      [
        "a",
        "ti"
      ],
      [
        "a",
        "us"
      ],
      [
        "a",
        "ys"
      ],
      [
        "a",
        "ir"
      ],
      [
        "a",
        "tical"
      ],
      [
        "b",
        "ine"
      ],
      [
        "b",
        "ase"
      ],
      [
        "b",
        "ig"
      ],
      [
        "c",
        "o"
      ],
      [
        "c",
        "re"
      ],
      [
        "c",
        "ul"
      ],
      [
        "c",
        "ular"
      ],
      [
        "d",
        "am"
      ],
      [
        "d",
        "iction"
      ],
      [
        "e",
        "l"
      ],
      [
        "e",
        "ly"
      ],
      [
        "e",
        "ural"
      ],
      [
        "e",
        "ded"
      ],
      [
        "e",
        "ven"
      ],
      [
        "f",
        "t"
      ],
      [
        "f",
        "ec"
      ],
      [
        "f",
        "ile"
      ],
      [
        "f",
        "ace"
      ],
      [
        "g",
        "re"
      ],
      [
        "g",
        "an"
      ],
      [
        "h",
        "o"
      ],
      [
        "h",
        "er"
      ],
      [
        "i",
        "e"
      ],
      [
        "i",
        "an"
      ],
      [
        "i",
        "fic"
      ],
      [
        "m",
        "ent"
      ],
      [
        "m",
        "un"
      ],
      [
        "m",
        "ultiple"
      ],
      [
        "m",
        "atical"
      ],
      [
        "m",
        "big"
      ],
      [
        "n",
        "t"
      ],
      [
        "n",
        "ique"
      ],
      [
        "o",
        "d"
      ],
      [
        "o",
        "or"
      ],
      [
        "o",
        "int"
      ],
      [
        "p",
        "u"
      ],
      [
        "p",
        "ts"
      ],
      [
        "p",
        "oint"
      ],
      [
        "r",
        "ue"
      ],
      [
        "r",
        "ong"
      ],
      [
        "s",
        "quare"
      ],
      [
        "s",
        "pec"
      ],
      [
        "t",
        "xt"
      ],
      [
        "t",
        "raining"
      ],
      [
        "u",
        "ti"
      ],
      [
        "u",
        "ity"
      ],
      [
        "v",
        "ers"
      ],
      [
        "v",
        "ent"
      ],
      [
        "v",
        "olved"
      ],
      [
        "w",
        "ar"
      ],
      [
        "w",
        "are"
      ],
      [
        "w",
        "ays"
      ],
      [
        "z",
        "ero"
      ],
      [
        "Ġ",
        "%"
      ],
      [
        "Ġ",
        ">"
      ],
      [
        "Ġ",
        "le"
      ],
      [
        "Ġ",
        "end"
      ],
      [
        "Ġ",
        "The"
      ],
      [
        "Ġ",
        "qu"
      ],
      [
        "Ġ",
        "Ex"
      ],
      [
        "Ġ",
        "How"
      ],
      [
        "Ġ",
        "Boolean"
      ],
      [
        "Ġ",
        "False"
      ],
      [
        "Ġ",
        "zero"
      ],
      [
        "Ġa",
        "ge"
      ],
      [
        "Ġa",
        "ls"
      ],
      [
        "Ġa",
        "mbig"
      ],
      [
        "en",
        "ted"
      ],
      [
        "an",
        "sform"
      ],
      [
        "Ġt",
        "ech"
      ],
      [
        "on",
        "e"
      ],
      [
        "he",
        "matical"
      ],
      [
        "ss",
        "ive"
      ],
      [
        "ic",
        "ate"
      ],
      [
        "Ġin",
        "t"
      ],
      [
        "Ġin",
        "ference"
      ],
      [
        "Ġin",
        "put"
      ],
      [
        "Ġin",
        "volved"
      ],
      [
        "Ġc",
        "ou"
      ],
      [
        "Ġc",
        "oin"
      ],
      [
        "us",
        "able"
      ],
      [
        "at",
        "tention"
      ],
      [
        "at",
        "her"
      ],
      [
        "ul",
        "d"
      ],
      [
        "Ġp",
        "oor"
      ],
      [
        "ou",
        "t"
      ],
      [
        "tem",
        "pts"
      ],
      [
        "Ġn",
        "umer"
      ],
      [
        "Ġn",
        "ormally"
      ],
      [
        "Ġthe",
        "ir"
      ],
      [
        "Ġs",
        "ide"
      ],
      [
        "Ġs",
        "pe"
      ],
      [
        "Ġs",
        "pec"
      ],
      [
        "Ġs",
        "ho"
      ],
      [
        "Ġf",
        "e"
      ],
      [
        "Ġf",
        "orm"
      ],
      [
        "Ġf",
        "air"
      ],
      [
        "ial",
        "ly"
      ],
      [
        "Ġre",
        "pe"
      ],
      [
        "Ġre",
        "pro"
      ],
      [
        "Ġre",
        "gular"
      ],
      [
        "Ġre",
        "vers"
      ],
      [
        "Ġre",
        "usable"
      ],
      [
        "Ġw",
        "rong"
      ],
      [
        "Ġgeneral",
        "ly"
      ],
      [
        "am",
        "eter"
      ],
      [
        "pose",
        "d"
      ],
      [
        "Ġe",
        "ven"
      ],
      [
        "Ġb",
        "o"
      ],
      [
        "Ġb",
        "ut"
      ],
      [
        "Ġb",
        "ran"
      ],
      [
        "Ġm",
        "us"
      ],
      [
        "Ġm",
        "ed"
      ],
      [
        "Ġm",
        "ultiple"
      ],
      [
        "Ġo",
        "ver"
      ],
      [
        "ts",
        "ide"
      ],
      [
        "Ġi",
        "dentify"
      ],
      [
        "Ġex",
        "ec"
      ],
      [
        "Ġex",
        "act"
      ],
      [
        "Ġex",
        "pec"
      ],
      [
        "Ġex",
        "plic"
      ],
      [
        "Ġ=",
        "="
      ],
      [
        "om",
        "es"
      ],
      [
        "Ġpro",
        "ce"
      ],
      [
        "Ġwh",
        "ole"
      ],
      [
        "orm",
        "al"
      ],
      [
        "Ġ2",
        "1"
      ],
      [
        "Ġ2",
        "6"
      ],
      [
        "Ġtr",
        "ansform"
      ],
      [
        "Ġne",
        "ver"
      ],
      [
        "Ġne",
        "eded"
      ],
      [
        "Ġ1",
        "1"
      ],
      [
        "Ġ1",
        "3"
      ],
      [
        "Ġcon",
        "st"
      ],
      [
        "Ġcon",
        "stru"
      ],
      [
        "Ġcon",
        "cise"
      ],
      [
        "ut",
        "f"
      ],
      [
        "Ġth",
        "ere"
      ],
      [
        "Ġcom",
        "ple"
      ],
      [
        "Ġcom",
        "bine"
      ],
      [
        "Ġcom",
        "posed"
      ],
      [
        "ore",
        "gre"
      ],
      [
        "Ġde",
        "c"
      ],
      [
        "Ġde",
        "ep"
      ],
      [
        "Ġde",
        "pend"
      ],
      [
        "Ġst",
        "ore"
      ],
      [
        "Ġst",
        "ops"
      ],
      [
        "im",
        "e"
      ],
      [
        "it",
        "ly"
      ],
      [
        "Th",
        "en"
      ],
      [
        "Th",
        "is"
      ],
      [
        "iz",
        "ing"
      ],
      [
        "Ġwith",
        "out"
      ],
      [
        "Ġbe",
        "ing"
      ],
      [
        "ion",
        "s"
      ],
      [
        "Ġdata",
        "base"
      ],
      [
        "du",
        "ci"
      ],
      [
        "ĠA",
        "n"
      ],
      [
        "ĠA",
        "dam"
      ],
      [
        "Ġon",
        "ly"
      ],
      [
        "Ġor",
        "gan"
      ],
      [
        "Ġh",
        "ow"
      ],
      [
        "op",
        "tim"
      ],
      [
        "urs",
        "ion"
      ],
      [
        "Ġpar",
        "tic"
      ],
      [
        "Ġdi",
        "vide"
      ],
      [
        "Ġdi",
        "vision"
      ],
      [
        "Ġad",
        "ds"
      ],
      [
        "ĠT",
        "raining"
      ],
      [
        "ĠT",
        "rue"
      ],
      [
        "Ġse",
        "ed"
      ],
      [
        "Ġse",
        "lf"
      ],
      [
        "Ġresul",
        "ting"
      ],
      [
        "Ġat",
        "tempts"
      ],
      [
        "ari",
        "ly"
      ],
      [
        "Ġ4",
        "2"
      ],
      [
        "Ġr",
        "un"
      ],
      [
        "Ġr",
        "ather"
      ],
      [
        "Ġinc",
        "orrect"
      ],
      [
        "Ġpr",
        "ime"
      ],
      [
        "Ġrepres",
        "ented"
      ],
      [
        "Ġprocess",
        "es"
      ],
      [
        "Ġcont",
        "aining"
      ],
      [
        "Ġcre",
        "ation"
      ],
      [
        "Ġcre",
        "ate"
      ],
      [
        "Ġcre",
        "ates"
      ],
      [
        "Ġcre",
        "ated"
      ],
      [
        "Ġcre",
        "ating"
      ],
      [
        "Ġdef",
        "ine"
      ],
      [
        "Ġprogramm",
        "ed"
      ],
      [
        "In",
        "ference"
      ],
      [
        "to",
        "ken"
      ],
      [
        "Ġexcep",
        "t"
      ],
      [
        "ass",
        "umption"
      ],
      [
        "Ġsequence",
        "s"
      ],
      [
        "der",
        "n"
      ],
      [
        "Ġ6",
        "0"
      ],
      [
        "Ġaf",
        "fec"
      ],
      [
        "Ġcl",
        "ose"
      ],
      [
        "Ġpos",
        "si"
      ],
      [
        "Ġso",
        "ft"
      ],
      [
        "Ġwor",
        "ds"
      ],
      [
        "Ġlarg",
        "er"
      ],
      [
        "Ġexception",
        "s"
      ],
      [
        "Ġblock",
        "s"
      ],
      [
        "ne",
        "ss"
      ],
      [
        "per",
        "form"
      ],
      [
        "par",
        "ameters"
      ],
      [
        "Ġg",
        "re"
      ],
      [
        "Ġmo",
        "di"
      ],
      [
        "Ġmo",
        "dule"
      ],
      [
        "Example",
        "s"
      ],
      [
        "Ġcolle",
        "ctions"
      ],
      [
        "ap",
        "pend"
      ],
      [
        "com",
        "mun"
      ],
      [
        "val",
        "id"
      ],
      [
        "Ġaut",
        "oregre"
      ],
      [
        "Ġinter",
        "face"
      ],
      [
        "Ġpre",
        "dic"
      ],
      [
        "Ġsquare",
        "s"
      ],
      [
        "Ġwe",
        "ll"
      ],
      [
        "Ġmat",
        "h"
      ],
      [
        "Ġmat",
        "hematical"
      ],
      [
        "Ġ15",
        "0"
      ],
      [
        "Ġoper",
        "ation"
      ],
      [
        "Ġoper",
        "ations"
      ],
      [
        "Ġaccess",
        "ing"
      ],
      [
        "Ġtrave",
        "ls"
      ],
      [
        "ĠN",
        "one"
      ],
      [
        "Ġen",
        "umerate"
      ],
      [
        "Ġen",
        "co"
      ],
      [
        "Ġou",
        "t"
      ],
      [
        "Ġou",
        "tside"
      ],
      [
        "read",
        "y"
      ],
      [
        "Ġtim",
        "e"
      ],
      [
        "Ġtim",
        "es"
      ],
      [
        "Ġcal",
        "led"
      ],
      [
        "Ġcal",
        "cul"
      ],
      [
        "Ġcheck",
        "s"
      ],
      [
        "Ġfin",
        "ishe"
      ],
      [
        "Ġinclu",
        "de"
      ],
      [
        "Ġinclu",
        "ding"
      ],
      [
        "Ġoptim",
        "izer"
      ],
      [
        "Ġmean",
        "ing"
      ],
      [
        "Ġassoci",
        "ated"
      ],
      [
        "Ġchang",
        "ed"
      ],
      [
        "Ġfactor",
        "ial"
      ],
      [
        "De",
        "ep"
      ],
      [
        "Di",
        "vide"
      ],
      [
        "adi",
        "ent"
      ],
      [
        "iti",
        "es"
      ],
      [
        "Ġal",
        "ways"
      ],
      [
        "Ġap",
        "pro"
      ],
      [
        "Ġcall",
        "s"
      ],
      [
        "Ġsystem",
        "s"
      ],
      [
        "Ġbec",
        "omes"
      ],
      [
        "Ġdes",
        "cent"
      ],
      [
        "Ġtyp",
        "es"
      ],
      [
        "Ġinterpre",
        "t"
      ],
      [
        "Ġgrou",
        "ps"
      ],
      [
        "Ale",
        "x"
      ],
      [
        "Conver",
        "t"
      ],
      [
        "Rec",
        "ursion"
      ],
      [
        "Tuple",
        "s"
      ],
      [
        "aus",
        "e"
      ],
      [
        "diction",
        "s"
      ],
      [
        "ific",
        "ally"
      ],
      [
        "pu",
        "ts"
      ],
      [
        "square",
        "s"
      ],
      [
        "uti",
        "ls"
      ],
      [
        "war",
        "d"
      ],
      [
        "ĠEx",
        "ercise"
      ],
      [
        "Ġals",
        "o"
      ],
      [
        "Ġambig",
        "uity"
      ],
      [
        "Ġtech",
        "nique"
      ],
      [
        "Ġpoor",
        "ly"
      ],
      [
        "Ġnumer",
        "ical"
      ],
      [
        "Ġside",
        "s"
      ],
      [
        "Ġspe",
        "ed"
      ],
      [
        "Ġsho",
        "uld"
      ],
      [
        "Ġform",
        "ats"
      ],
      [
        "Ġrepro",
        "duci"
      ],
      [
        "Ġregular",
        "ization"
      ],
      [
        "Ġbran",
        "ch"
      ],
      [
        "Ġmed",
        "ian"
      ],
      [
        "Ġexact",
        "ly"
      ],
      [
        "Ġexplic",
        "itly"
      ],
      [
        "Ġconst",
        "ant"
      ],
      [
        "optim",
        "ization"
      ],
      [
        "Ġpartic",
        "ular"
      ],
      [
        "Ġpossi",
        "ble"
      ],
      [
        "Ġsoft",
        "ware"
      ],
      [
        "commun",
        "icate"
      ],
      [
        "Ġautoregre",
        "ssive"
      ],
      [
        "Ġenco",
        "ding"
      ],
      [
        "Ġcalcul",
        "ates"
      ],
      [
        "Ġfinishe",
        "s"
      ],
      [
        "Ġreproduci",
        "ble"
      ],
      [
        "(",
        "[\""
      ],
      [
        ")",
        "]"
      ],
      [
        ")",
        "}"
      ],
      [
        "1",
        "44"
      ],
      [
        "3",
        "0"
      ],
      [
        "5",
        "0"
      ],
      [
        "6",
        "0"
      ],
      [
        "6",
        "5"
      ],
      [
        ":",
        "-"
      ],
      [
        ":",
        "]"
      ],
      [
        ":",
        ":-"
      ],
      [
        "A",
        "r"
      ],
      [
        "B",
        "oth"
      ],
      [
        "D",
        "s"
      ],
      [
        "F",
        "irst"
      ],
      [
        "G",
        "r"
      ],
      [
        "H",
        "e"
      ],
      [
        "I",
        "ts"
      ],
      [
        "I",
        "dentify"
      ],
      [
        "L",
        "ist"
      ],
      [
        "L",
        "oop"
      ],
      [
        "M",
        "in"
      ],
      [
        "M",
        "ore"
      ],
      [
        "N",
        "ot"
      ],
      [
        "N",
        "eural"
      ],
      [
        "O",
        "ne"
      ],
      [
        "P",
        "erson"
      ],
      [
        "R",
        "e"
      ],
      [
        "S",
        "t"
      ],
      [
        "S",
        "u"
      ],
      [
        "S",
        "elf"
      ],
      [
        "S",
        "tr"
      ],
      [
        "T",
        "urn"
      ],
      [
        "T",
        "ransform"
      ],
      [
        "U",
        "se"
      ],
      [
        "Z",
        "ero"
      ],
      [
        "[",
        "::-"
      ],
      [
        "]",
        ")"
      ],
      [
        "]",
        "."
      ],
      [
        "]",
        ";"
      ],
      [
        "]",
        "?"
      ],
      [
        "a",
        "c"
      ],
      [
        "a",
        "f"
      ],
      [
        "a",
        "g"
      ],
      [
        "a",
        "v"
      ],
      [
        "a",
        "x"
      ],
      [
        "a",
        "de"
      ],
      [
        "a",
        "gr"
      ],
      [
        "a",
        "ck"
      ],
      [
        "a",
        "vailable"
      ],
      [
        "b",
        "u"
      ],
      [
        "b",
        "ec"
      ],
      [
        "b",
        "it"
      ],
      [
        "b",
        "tr"
      ],
      [
        "b",
        "ack"
      ],
      [
        "c",
        "l"
      ],
      [
        "c",
        "on"
      ],
      [
        "c",
        "ur"
      ],
      [
        "c",
        "ing"
      ],
      [
        "c",
        "ts"
      ],
      [
        "c",
        "op"
      ],
      [
        "c",
        "onver"
      ],
      [
        "d",
        "o"
      ],
      [
        "d",
        "le"
      ],
      [
        "d",
        "or"
      ],
      [
        "d",
        "ent"
      ],
      [
        "e",
        "f"
      ],
      [
        "e",
        "ys"
      ],
      [
        "e",
        "th"
      ],
      [
        "e",
        "ver"
      ],
      [
        "e",
        "lem"
      ],
      [
        "f",
        "i"
      ],
      [
        "f",
        "in"
      ],
      [
        "f",
        "fic"
      ],
      [
        "f",
        "am"
      ],
      [
        "f",
        "rom"
      ],
      [
        "f",
        "ine"
      ],
      [
        "f",
        "irst"
      ],
      [
        "g",
        "g"
      ],
      [
        "g",
        "i"
      ],
      [
        "g",
        "n"
      ],
      [
        "g",
        "um"
      ],
      [
        "g",
        "ati"
      ],
      [
        "h",
        "ys"
      ],
      [
        "h",
        "av"
      ],
      [
        "i",
        "f"
      ],
      [
        "i",
        "k"
      ],
      [
        "i",
        "p"
      ],
      [
        "i",
        "re"
      ],
      [
        "i",
        "or"
      ],
      [
        "i",
        "tem"
      ],
      [
        "i",
        "ar"
      ],
      [
        "i",
        "ent"
      ],
      [
        "i",
        "ven"
      ],
      [
        "i",
        "ately"
      ],
      [
        "k",
        "ey"
      ],
      [
        "l",
        "ic"
      ],
      [
        "l",
        "ing"
      ],
      [
        "l",
        "angu"
      ],
      [
        "l",
        "arg"
      ],
      [
        "l",
        "ength"
      ],
      [
        "l",
        "oss"
      ],
      [
        "l",
        "led"
      ],
      [
        "l",
        "ip"
      ],
      [
        "m",
        "p"
      ],
      [
        "m",
        "al"
      ],
      [
        "m",
        "or"
      ],
      [
        "m",
        "ay"
      ],
      [
        "m",
        "ains"
      ],
      [
        "m",
        "atter"
      ],
      [
        "n",
        "ing"
      ],
      [
        "n",
        "ts"
      ],
      [
        "n",
        "ec"
      ],
      [
        "n",
        "ormal"
      ],
      [
        "o",
        "v"
      ],
      [
        "o",
        "ic"
      ],
      [
        "o",
        "verfitting"
      ],
      [
        "o",
        "od"
      ],
      [
        "o",
        "gn"
      ],
      [
        "p",
        "r"
      ],
      [
        "p",
        "y"
      ],
      [
        "p",
        "os"
      ],
      [
        "p",
        "ing"
      ],
      [
        "p",
        "ens"
      ],
      [
        "p",
        "onents"
      ],
      [
        "r",
        "ing"
      ],
      [
        "r",
        "ent"
      ],
      [
        "r",
        "ate"
      ],
      [
        "r",
        "ie"
      ],
      [
        "r",
        "arily"
      ],
      [
        "s",
        "y"
      ],
      [
        "s",
        "te"
      ],
      [
        "s",
        "pl"
      ],
      [
        "s",
        "tim"
      ],
      [
        "s",
        "maller"
      ],
      [
        "t",
        "y"
      ],
      [
        "u",
        "le"
      ],
      [
        "u",
        "tion"
      ],
      [
        "u",
        "ate"
      ],
      [
        "u",
        "il"
      ],
      [
        "u",
        "ide"
      ],
      [
        "u",
        "dor"
      ],
      [
        "v",
        "ing"
      ],
      [
        "v",
        "es"
      ],
      [
        "v",
        "ariable"
      ],
      [
        "v",
        "ity"
      ],
      [
        "w",
        "as"
      ],
      [
        "w",
        "ords"
      ],
      [
        "x",
        "im"
      ],
      [
        "y",
        "pe"
      ],
      [
        "}",
        "\""
      ],
      [
        "Ġ",
        "'"
      ],
      [
        "Ġ",
        "9"
      ],
      [
        "Ġ",
        "<"
      ],
      [
        "Ġ",
        "What"
      ],
      [
        "Ġ",
        "If"
      ],
      [
        "Ġ",
        "Mo"
      ],
      [
        "Ġ",
        "__"
      ],
      [
        "Ġ",
        "One"
      ],
      [
        "Ġ",
        "Person"
      ],
      [
        "Ġ",
        "Re"
      ],
      [
        "Ġ",
        "Zero"
      ],
      [
        "en",
        "om"
      ],
      [
        "en",
        "se"
      ],
      [
        "en",
        "umerate"
      ],
      [
        "en",
        "ef"
      ],
      [
        "er",
        "ator"
      ],
      [
        "er",
        "ially"
      ],
      [
        "in",
        "al"
      ],
      [
        "in",
        "te"
      ],
      [
        "in",
        "ts"
      ],
      [
        "in",
        "ed"
      ],
      [
        "in",
        "it"
      ],
      [
        "in",
        "ues"
      ],
      [
        "in",
        "dex"
      ],
      [
        "in",
        "ference"
      ],
      [
        "in",
        "put"
      ],
      [
        "in",
        "ator"
      ],
      [
        "in",
        "puts"
      ],
      [
        "is",
        "cre"
      ],
      [
        "is",
        "ions"
      ],
      [
        "re",
        "d"
      ],
      [
        "re",
        "ction"
      ],
      [
        "re",
        "pres"
      ],
      [
        "re",
        "si"
      ],
      [
        "re",
        "mains"
      ],
      [
        "Ġt",
        "ail"
      ],
      [
        "al",
        "th"
      ],
      [
        "al",
        "ity"
      ],
      [
        "os",
        "t"
      ],
      [
        "te",
        "p"
      ],
      [
        "te",
        "ly"
      ],
      [
        "ti",
        "ll"
      ],
      [
        "ti",
        "vity"
      ],
      [
        "he",
        "s"
      ],
      [
        "ss",
        "age"
      ],
      [
        "Ġin",
        "dic"
      ],
      [
        "Ġin",
        "ade"
      ],
      [
        "Ġin",
        "dent"
      ],
      [
        "Ġin",
        "ste"
      ],
      [
        "le",
        "t"
      ],
      [
        "le",
        "st"
      ],
      [
        "or",
        "s"
      ],
      [
        "or",
        "ing"
      ],
      [
        "Ġc",
        "ar"
      ],
      [
        "Ġc",
        "lear"
      ],
      [
        "Ġc",
        "op"
      ],
      [
        "Ġc",
        "ap"
      ],
      [
        "Ġc",
        "aller"
      ],
      [
        "Ġc",
        "orrect"
      ],
      [
        "ce",
        "s"
      ],
      [
        "ce",
        "ding"
      ],
      [
        "ce",
        "back"
      ],
      [
        "ur",
        "ation"
      ],
      [
        "ur",
        "ance"
      ],
      [
        "ur",
        "red"
      ],
      [
        "at",
        "er"
      ],
      [
        "ul",
        "t"
      ],
      [
        "ul",
        "let"
      ],
      [
        "Ġp",
        "se"
      ],
      [
        "Ġp",
        "oin"
      ],
      [
        "Ġp",
        "ie"
      ],
      [
        "Ġp",
        "hys"
      ],
      [
        "de",
        "a"
      ],
      [
        "de",
        "ly"
      ],
      [
        "Ġn",
        "on"
      ],
      [
        "Ġn",
        "ow"
      ],
      [
        "Ġn",
        "ormal"
      ],
      [
        "ing",
        "s"
      ],
      [
        "ing",
        "ly"
      ],
      [
        "Ġthe",
        "y"
      ],
      [
        "Ġthe",
        "se"
      ],
      [
        "ll",
        "o"
      ],
      [
        "Ġs",
        "um"
      ],
      [
        "Ġs",
        "ent"
      ],
      [
        "Ġs",
        "om"
      ],
      [
        "Ġs",
        "up"
      ],
      [
        "Ġs",
        "olv"
      ],
      [
        "Ġs",
        "ize"
      ],
      [
        "Ġs",
        "olve"
      ],
      [
        "Ġs",
        "ign"
      ],
      [
        "Ġs",
        "af"
      ],
      [
        "Ġs",
        "cop"
      ],
      [
        "Ġs",
        "lic"
      ],
      [
        "Ġs",
        "mal"
      ],
      [
        "Ġs",
        "ense"
      ],
      [
        "Ġs",
        "tep"
      ],
      [
        "Ġs",
        "till"
      ],
      [
        "Ġf",
        "ar"
      ],
      [
        "Ġf",
        "it"
      ],
      [
        "Ġf",
        "ive"
      ],
      [
        "Ġf",
        "alse"
      ],
      [
        "Ġf",
        "irst"
      ],
      [
        "Ġf",
        "lip"
      ],
      [
        "th",
        "od"
      ],
      [
        "Ġhe",
        "alth"
      ],
      [
        "Ġar",
        "bit"
      ],
      [
        "Ġar",
        "gum"
      ],
      [
        "ial",
        "iz"
      ],
      [
        "Ġhelp",
        "s"
      ],
      [
        "fic",
        "ation"
      ],
      [
        "Ġre",
        "qu"
      ],
      [
        "Ġre",
        "pl"
      ],
      [
        "Ġre",
        "ac"
      ],
      [
        "Ġw",
        "ent"
      ],
      [
        "Ġw",
        "ork"
      ],
      [
        "Ġw",
        "rite"
      ],
      [
        "Ġw",
        "ay"
      ],
      [
        "Ġgener",
        "ate"
      ],
      [
        "Ġgener",
        "ator"
      ],
      [
        "Ġgeneral",
        "iz"
      ],
      [
        "Ġgeneral",
        "ization"
      ],
      [
        "Ġgeneral",
        "ize"
      ],
      [
        "ar",
        "t"
      ],
      [
        "ar",
        "ge"
      ],
      [
        "ar",
        "act"
      ],
      [
        "Ġe",
        "qu"
      ],
      [
        "Ġe",
        "val"
      ],
      [
        "Ġe",
        "spec"
      ],
      [
        "Ġe",
        "vent"
      ],
      [
        "Ġe",
        "ffic"
      ],
      [
        "Ġe",
        "mp"
      ],
      [
        "Ġe",
        "stim"
      ],
      [
        "Ġb",
        "et"
      ],
      [
        "Ġb",
        "uil"
      ],
      [
        "Ġb",
        "enef"
      ],
      [
        "Ġb",
        "ullet"
      ],
      [
        "Ġm",
        "ore"
      ],
      [
        "Ġm",
        "id"
      ],
      [
        "Ġm",
        "ay"
      ],
      [
        "Ġm",
        "igh"
      ],
      [
        "Ġm",
        "ost"
      ],
      [
        "ro",
        "lled"
      ],
      [
        "ro",
        "ving"
      ],
      [
        "Ġan",
        "other"
      ],
      [
        "Ġo",
        "ther"
      ],
      [
        "Ġd",
        "uring"
      ],
      [
        "Ġd",
        "enom"
      ],
      [
        "Ġd",
        "iscre"
      ],
      [
        "Ġd",
        "uration"
      ],
      [
        "es",
        "tion"
      ],
      [
        "Ġl",
        "en"
      ],
      [
        "Ġl",
        "im"
      ],
      [
        "Ġl",
        "ine"
      ],
      [
        "Ġl",
        "ong"
      ],
      [
        "Ġl",
        "ik"
      ],
      [
        "Ġl",
        "arge"
      ],
      [
        "et",
        "ting"
      ],
      [
        "Ġi",
        "dea"
      ],
      [
        "Ġto",
        "ward"
      ],
      [
        "Ġex",
        "ist"
      ],
      [
        "Ġex",
        "ercise"
      ],
      [
        "ple",
        "ment"
      ],
      [
        "um",
        "an"
      ],
      [
        "ent",
        "ations"
      ],
      [
        "om",
        "par"
      ],
      [
        "Ġpro",
        "du"
      ],
      [
        "ate",
        "gi"
      ],
      [
        "Ġwh",
        "ose"
      ],
      [
        "Ġwh",
        "ere"
      ],
      [
        "un",
        "der"
      ],
      [
        "ample",
        "s"
      ],
      [
        "Ġne",
        "ed"
      ],
      [
        "Ġne",
        "xt"
      ],
      [
        "Ġne",
        "cess"
      ],
      [
        "Ġ1",
        "8"
      ],
      [
        "Ġ1",
        "44"
      ],
      [
        "Ġcon",
        "ten"
      ],
      [
        "Ġcon",
        "ne"
      ],
      [
        "Ġcon",
        "nec"
      ],
      [
        "as",
        "cular"
      ],
      [
        "as",
        "ingly"
      ],
      [
        "ut",
        "ing"
      ],
      [
        "Ġwi",
        "dely"
      ],
      [
        "Ġth",
        "ir"
      ],
      [
        "Ġfunction",
        "s"
      ],
      [
        "pre",
        "dictions"
      ],
      [
        "Ġde",
        "bu"
      ],
      [
        "Ġst",
        "ate"
      ],
      [
        "Ġst",
        "ated"
      ],
      [
        "Ġst",
        "oring"
      ],
      [
        "it",
        "or"
      ],
      [
        "ame",
        "Error"
      ],
      [
        "gr",
        "adi"
      ],
      [
        "iz",
        "ers"
      ],
      [
        "qu",
        "ately"
      ],
      [
        "Ġret",
        "rie"
      ],
      [
        "il",
        "iar"
      ],
      [
        "Ġbe",
        "hav"
      ],
      [
        "du",
        "re"
      ],
      [
        "du",
        "al"
      ],
      [
        "ite",
        "d"
      ],
      [
        "Ġor",
        "ig"
      ],
      [
        "se",
        "quence"
      ],
      [
        "Ġh",
        "ap"
      ],
      [
        "Ġh",
        "uman"
      ],
      [
        "are",
        "a"
      ],
      [
        "op",
        "erator"
      ],
      [
        "Ġpar",
        "ameter"
      ],
      [
        "Ġpar",
        "agr"
      ],
      [
        "st",
        "atement"
      ],
      [
        "st",
        "ops"
      ],
      [
        "st",
        "ring"
      ],
      [
        "Ġres",
        "olved"
      ],
      [
        "ĠT",
        "ype"
      ],
      [
        "Ġse",
        "en"
      ],
      [
        "Ġse",
        "par"
      ],
      [
        "di",
        "ffer"
      ],
      [
        "di",
        "vis"
      ],
      [
        "di",
        "ov"
      ],
      [
        "di",
        "rection"
      ],
      [
        "id",
        "ation"
      ],
      [
        "def",
        "ined"
      ],
      [
        "ari",
        "fication"
      ],
      [
        "Ġr",
        "ate"
      ],
      [
        "Ġr",
        "ule"
      ],
      [
        "Ġpr",
        "ints"
      ],
      [
        "Ġrepres",
        "ents"
      ],
      [
        "Ġlangu",
        "ag"
      ],
      [
        "Ġprocess",
        "ing"
      ],
      [
        "Ġprocess",
        "ed"
      ],
      [
        "Ġcont",
        "ain"
      ],
      [
        "Ġcont",
        "inues"
      ],
      [
        "Ġcont",
        "rolled"
      ],
      [
        "Ġperform",
        "ing"
      ],
      [
        "Ġperform",
        "ed"
      ],
      [
        "Ġcomp",
        "act"
      ],
      [
        "Ġcomp",
        "ati"
      ],
      [
        "ig",
        "ns"
      ],
      [
        "cep",
        "t"
      ],
      [
        "cep",
        "ts"
      ],
      [
        "Ġrec",
        "ogn"
      ],
      [
        "Ġim",
        "plement"
      ],
      [
        "imp",
        "roving"
      ],
      [
        "Ġk",
        "ep"
      ],
      [
        "Ġk",
        "eys"
      ],
      [
        "bjec",
        "t"
      ],
      [
        "How",
        "ever"
      ],
      [
        "In",
        "valid"
      ],
      [
        "ĠĠĠĠ",
        "ĠĠĠĠĠĠĠ"
      ],
      [
        "Ġme",
        "mor"
      ],
      [
        "Ġme",
        "ssage"
      ],
      [
        "Ġme",
        "thod"
      ],
      [
        "Ġdiffer",
        "ence"
      ],
      [
        "Ġrepresent",
        "ing"
      ],
      [
        "upd",
        "ate"
      ],
      [
        "ass",
        "ign"
      ],
      [
        "pro",
        "duce"
      ],
      [
        "Ġas",
        "k"
      ],
      [
        "Ġtuple",
        "s"
      ],
      [
        "tim",
        "es"
      ],
      [
        "Ġstr",
        "ength"
      ],
      [
        "Ġstr",
        "ategi"
      ],
      [
        "ru",
        "le"
      ],
      [
        "Ġ6",
        "5"
      ],
      [
        "Ġac",
        "tivity"
      ],
      [
        "Ġac",
        "cepts"
      ],
      [
        "and",
        "om"
      ],
      [
        "Ġcl",
        "arification"
      ],
      [
        "Ġpos",
        "iti"
      ],
      [
        "Ġwor",
        "d"
      ],
      [
        "Ġloop",
        "s"
      ],
      [
        "Ġcomput",
        "er"
      ],
      [
        "Ġarchitecture",
        "s"
      ],
      [
        "ne",
        "eds"
      ],
      [
        "ne",
        "gati"
      ],
      [
        "par",
        "t"
      ],
      [
        "par",
        "ameter"
      ],
      [
        "Ġg",
        "iven"
      ],
      [
        "Ġg",
        "ood"
      ],
      [
        "Ġg",
        "uide"
      ],
      [
        "Ġg",
        "etting"
      ],
      [
        "Ġun",
        "ique"
      ],
      [
        "Ġun",
        "fam"
      ],
      [
        "Ġun",
        "defined"
      ],
      [
        "Ġass",
        "umption"
      ],
      [
        "Ġass",
        "ign"
      ],
      [
        "Ġindex",
        "es"
      ],
      [
        "Ġindex",
        "ed"
      ],
      [
        "Ġch",
        "oic"
      ],
      [
        "Ġch",
        "aract"
      ],
      [
        "Ġinteg",
        "ers"
      ],
      [
        "Ġmo",
        "dern"
      ],
      [
        "Ġmo",
        "ves"
      ],
      [
        "Ġtra",
        "ceback"
      ],
      [
        "Ġ10",
        "0"
      ],
      [
        "Ġincre",
        "ased"
      ],
      [
        "Ġincre",
        "asingly"
      ],
      [
        "Ġproblem",
        "s"
      ],
      [
        "ap",
        "h"
      ],
      [
        "com",
        "es"
      ],
      [
        "com",
        "put"
      ],
      [
        "com",
        "ponents"
      ],
      [
        "its",
        "elf"
      ],
      [
        "mon",
        "itor"
      ],
      [
        "the",
        "m"
      ],
      [
        "val",
        "ue"
      ],
      [
        "val",
        "ues"
      ],
      [
        "Ġpre",
        "vent"
      ],
      [
        "Ġpre",
        "dictions"
      ],
      [
        "Ġpre",
        "ceding"
      ],
      [
        "Ġsu",
        "bject"
      ],
      [
        "Ġma",
        "de"
      ],
      [
        "Ġma",
        "ps"
      ],
      [
        "Ġmat",
        "erially"
      ],
      [
        "Ġho",
        "ur"
      ],
      [
        "Ġoper",
        "ate"
      ],
      [
        "Ġdefin",
        "es"
      ],
      [
        "Ġdefin",
        "ition"
      ],
      [
        "Ġaccess",
        "ed"
      ],
      [
        "abil",
        "ities"
      ],
      [
        "for",
        "ward"
      ],
      [
        "Ġ*",
        "="
      ],
      [
        "ĠD",
        "ata"
      ],
      [
        "ĠI",
        "t"
      ],
      [
        "ĠI",
        "Ds"
      ],
      [
        "ĠN",
        "eural"
      ],
      [
        "ĠN",
        "ameError"
      ],
      [
        "Ġgr",
        "adient"
      ],
      [
        "ĠVal",
        "idation"
      ],
      [
        "Ġcheck",
        "ing"
      ],
      [
        "Ġfi",
        "el"
      ],
      [
        "Ġfin",
        "d"
      ],
      [
        "Ġfin",
        "ds"
      ],
      [
        "Ġman",
        "age"
      ],
      [
        "Ġocc",
        "urred"
      ],
      [
        "Ġitem",
        "s"
      ],
      [
        "Ġiter",
        "ate"
      ],
      [
        "Ġprobabil",
        "ities"
      ],
      [
        "Ġhand",
        "ling"
      ],
      [
        "Ġadjus",
        "ts"
      ],
      [
        "Ġoptim",
        "ization"
      ],
      [
        "Ġoptim",
        "izers"
      ],
      [
        "Ġrandom",
        "ness"
      ],
      [
        "Ġclass",
        "es"
      ],
      [
        "Ġposition",
        "s"
      ],
      [
        "Ġassoci",
        "ations"
      ],
      [
        "Ġassoci",
        "ates"
      ],
      [
        "Ġchang",
        "ing"
      ],
      [
        "Ġchang",
        "es"
      ],
      [
        "Ġfactor",
        "s"
      ],
      [
        "Ġcondition",
        "s"
      ],
      [
        "()",
        ")"
      ],
      [
        "De",
        "fine"
      ],
      [
        "Di",
        "vision"
      ],
      [
        "ace",
        "d"
      ],
      [
        "ex",
        "ist"
      ],
      [
        "ex",
        "amples"
      ],
      [
        "ex",
        "cept"
      ],
      [
        "tr",
        "y"
      ],
      [
        "ĠC",
        "ompar"
      ],
      [
        "Ġal",
        "ready"
      ],
      [
        "Ġap",
        "plic"
      ],
      [
        "ishe",
        "d"
      ],
      [
        "Ġcall",
        "ing"
      ],
      [
        "Ġread",
        "ing"
      ],
      [
        "Ġbec",
        "ause"
      ],
      [
        "Ġvers",
        "us"
      ],
      [
        "Ġvers",
        "ion"
      ],
      [
        "Ġvers",
        "ions"
      ],
      [
        "Ġconver",
        "t"
      ],
      [
        "Ġconver",
        "ts"
      ],
      [
        "Ġconver",
        "ted"
      ],
      [
        "Ġdes",
        "igns"
      ],
      [
        "dule",
        "s"
      ],
      [
        "Ġtyp",
        "ical"
      ],
      [
        "Ġimport",
        "ant"
      ],
      [
        "Ġinterpre",
        "ting"
      ],
      [
        "Ġmak",
        "e"
      ],
      [
        "Ġmak",
        "ing"
      ],
      [
        "Ġmak",
        "es"
      ],
      [
        "Ġgrou",
        "p"
      ],
      [
        "Ġerror",
        "s"
      ],
      [
        "Ġtask",
        "s"
      ],
      [
        "Ġexpression",
        "s"
      ],
      [
        "\"]",
        "):"
      ],
      [
        "Ad",
        "d"
      ],
      [
        "Ad",
        "ult"
      ],
      [
        "Mo",
        "dules"
      ],
      [
        "__",
        "("
      ],
      [
        "cre",
        "ated"
      ],
      [
        "el",
        "se"
      ],
      [
        "nt",
        "ax"
      ],
      [
        "spec",
        "ifically"
      ],
      [
        "Ġ>",
        "="
      ],
      [
        "Ġle",
        "ts"
      ],
      [
        "Ġle",
        "ad"
      ],
      [
        "Ġend",
        "urance"
      ],
      [
        "ĠThe",
        "se"
      ],
      [
        "Ġqu",
        "ality"
      ],
      [
        "Ġqu",
        "estion"
      ],
      [
        "Ġcou",
        "nt"
      ],
      [
        "Ġcou",
        "nts"
      ],
      [
        "Ġspec",
        "ifically"
      ],
      [
        "Ġspec",
        "ializ"
      ],
      [
        "Ġfe",
        "ed"
      ],
      [
        "Ġfe",
        "wer"
      ],
      [
        "Ġrepe",
        "ats"
      ],
      [
        "Ġrepe",
        "ating"
      ],
      [
        "Ġrevers",
        "e"
      ],
      [
        "Ġrevers",
        "es"
      ],
      [
        "Ġbo",
        "x"
      ],
      [
        "Ġbo",
        "ol"
      ],
      [
        "Ġmus",
        "t"
      ],
      [
        "Ġmus",
        "cular"
      ],
      [
        "Ġover",
        "all"
      ],
      [
        "Ġexec",
        "ution"
      ],
      [
        "Ġexec",
        "uting"
      ],
      [
        "Ġexpec",
        "ts"
      ],
      [
        "Ġexpec",
        "ted"
      ],
      [
        "Ġproce",
        "ed"
      ],
      [
        "Ġproce",
        "dure"
      ],
      [
        "Ġconstru",
        "ct"
      ],
      [
        "Ġconstru",
        "cts"
      ],
      [
        "Ġcomple",
        "x"
      ],
      [
        "Ġcomple",
        "tely"
      ],
      [
        "Ġdec",
        "ide"
      ],
      [
        "Ġdec",
        "isions"
      ],
      [
        "Ġdepend",
        "s"
      ],
      [
        "Ġdepend",
        "ing"
      ],
      [
        "Ġstore",
        "d"
      ],
      [
        "Ġstore",
        "s"
      ],
      [
        "ĠAdam",
        "W"
      ],
      [
        "Ġorgan",
        "ize"
      ],
      [
        "Ġorgan",
        "izing"
      ],
      [
        "Ġdivide",
        "d"
      ],
      [
        "Ġrun",
        "s"
      ],
      [
        "Ġrun",
        "ning"
      ],
      [
        "token",
        "s"
      ],
      [
        "assumption",
        "s"
      ],
      [
        "Ġaffec",
        "ts"
      ],
      [
        "Ġaffec",
        "ting"
      ],
      [
        "Ġclose",
        "d"
      ],
      [
        "Ġclose",
        "s"
      ],
      [
        "perform",
        "ance"
      ],
      [
        "Ġgre",
        "et"
      ],
      [
        "Ġgre",
        "ater"
      ],
      [
        "Ġmodi",
        "fy"
      ],
      [
        "Ġmodi",
        "fi"
      ],
      [
        "Ġpredic",
        "ts"
      ],
      [
        "Ġpredic",
        "ting"
      ],
      [
        "Ġout",
        "puts"
      ],
      [
        "Ġout",
        "comes"
      ],
      [
        "Ġappro",
        "pr"
      ],
      [
        "Ġappro",
        "xim"
      ],
      [
        "Ġinterpret",
        "ation"
      ],
      [
        "Ġinterpret",
        "ations"
      ],
      [
        ":]",
        ":"
      ],
      [
        "Ar",
        "tificial"
      ],
      [
        "Gr",
        "adient"
      ],
      [
        "He",
        "llo"
      ],
      [
        "List",
        "s"
      ],
      [
        "Loop",
        "s"
      ],
      [
        "Min",
        "or"
      ],
      [
        "St",
        "art"
      ],
      [
        "Su",
        "btr"
      ],
      [
        "Str",
        "ings"
      ],
      [
        "Transform",
        "ers"
      ],
      [
        "bec",
        "ause"
      ],
      [
        "cl",
        "ass"
      ],
      [
        "con",
        "text"
      ],
      [
        "cur",
        "rent"
      ],
      [
        "conver",
        "ts"
      ],
      [
        "do",
        "es"
      ],
      [
        "eth",
        "ing"
      ],
      [
        "elem",
        "ent"
      ],
      [
        "fin",
        "ished"
      ],
      [
        "gg",
        "ing"
      ],
      [
        "ient",
        "ly"
      ],
      [
        "langu",
        "age"
      ],
      [
        "larg",
        "est"
      ],
      [
        "pos",
        "ition"
      ],
      [
        "sy",
        "ntax"
      ],
      [
        "spl",
        "it"
      ],
      [
        "udor",
        "andom"
      ],
      [
        "variable",
        "s"
      ],
      [
        "ĠMo",
        "dern"
      ],
      [
        "ĠRe",
        "gular"
      ],
      [
        "ĠZero",
        "Division"
      ],
      [
        "inte",
        "lligence"
      ],
      [
        "repres",
        "entations"
      ],
      [
        "resi",
        "dual"
      ],
      [
        "Ġtail",
        "s"
      ],
      [
        "Ġindic",
        "ates"
      ],
      [
        "Ġinade",
        "quately"
      ],
      [
        "Ġindent",
        "ation"
      ],
      [
        "Ġinste",
        "ad"
      ],
      [
        "Ġcar",
        "diov"
      ],
      [
        "Ġcop",
        "y"
      ],
      [
        "Ġcap",
        "abilities"
      ],
      [
        "Ġpse",
        "udorandom"
      ],
      [
        "Ġpoin",
        "ts"
      ],
      [
        "Ġpie",
        "ces"
      ],
      [
        "Ġphys",
        "ical"
      ],
      [
        "Ġnormal",
        "ization"
      ],
      [
        "Ġsent",
        "ence"
      ],
      [
        "Ġsom",
        "ething"
      ],
      [
        "Ġsup",
        "port"
      ],
      [
        "Ġsolv",
        "ing"
      ],
      [
        "Ġsaf",
        "ely"
      ],
      [
        "Ġscop",
        "e"
      ],
      [
        "Ġslic",
        "ed"
      ],
      [
        "Ġsmal",
        "lest"
      ],
      [
        "Ġfit",
        "ness"
      ],
      [
        "Ġflip",
        "ping"
      ],
      [
        "Ġarbit",
        "rarily"
      ],
      [
        "Ġargum",
        "ents"
      ],
      [
        "Ġrequ",
        "ire"
      ],
      [
        "Ġrepl",
        "aced"
      ],
      [
        "Ġreac",
        "hes"
      ],
      [
        "Ġgeneraliz",
        "es"
      ],
      [
        "Ġequ",
        "ally"
      ],
      [
        "Ġeval",
        "uate"
      ],
      [
        "Ġespec",
        "ially"
      ],
      [
        "Ġeffic",
        "iently"
      ],
      [
        "Ġemp",
        "ty"
      ],
      [
        "Ġestim",
        "ate"
      ],
      [
        "Ġbet",
        "ter"
      ],
      [
        "Ġbuil",
        "t"
      ],
      [
        "Ġbenef",
        "its"
      ],
      [
        "Ġmid",
        "dle"
      ],
      [
        "Ġmigh",
        "t"
      ],
      [
        "Ġdenom",
        "inator"
      ],
      [
        "Ġdiscre",
        "te"
      ],
      [
        "Ġlim",
        "ited"
      ],
      [
        "Ġlik",
        "ely"
      ],
      [
        "Ġprodu",
        "cing"
      ],
      [
        "Ġnecess",
        "arily"
      ],
      [
        "Ġconten",
        "ts"
      ],
      [
        "Ġconne",
        "ctions"
      ],
      [
        "Ġconnec",
        "ted"
      ],
      [
        "Ġthir",
        "d"
      ],
      [
        "Ġdebu",
        "gging"
      ],
      [
        "gradi",
        "ents"
      ],
      [
        "Ġretrie",
        "ve"
      ],
      [
        "Ġbehav",
        "ior"
      ],
      [
        "Ġorig",
        "inal"
      ],
      [
        "Ġhap",
        "pens"
      ],
      [
        "Ġparagr",
        "aph"
      ],
      [
        "ĠType",
        "Error"
      ],
      [
        "Ġsepar",
        "ate"
      ],
      [
        "differ",
        "ent"
      ],
      [
        "divis",
        "ors"
      ],
      [
        "Ġlanguag",
        "es"
      ],
      [
        "Ġcompati",
        "ble"
      ],
      [
        "Ġrecogn",
        "izing"
      ],
      [
        "Ġimplement",
        "ation"
      ],
      [
        "Ġkep",
        "t"
      ],
      [
        "Ġmemor",
        "y"
      ],
      [
        "Ġstrategi",
        "es"
      ],
      [
        "Ġpositi",
        "ve"
      ],
      [
        "negati",
        "ve"
      ],
      [
        "Ġunfam",
        "iliar"
      ],
      [
        "Ġassign",
        "ment"
      ],
      [
        "Ġchoic",
        "es"
      ],
      [
        "Ġcharact",
        "ers"
      ],
      [
        "comput",
        "ational"
      ],
      [
        "Ġfiel",
        "d"
      ],
      [
        "ĠCompar",
        "ing"
      ],
      [
        "Ġapplic",
        "ations"
      ],
      [
        "Ġspecializ",
        "ed"
      ],
      [
        "Ġexecution",
        "s"
      ],
      [
        "Ġmodifi",
        "ed"
      ],
      [
        "Ġappropr",
        "iately"
      ],
      [
        "Ġapproxim",
        "ately"
      ],
      [
        "Subtr",
        "act"
      ],
      [
        "ĠZeroDivision",
        "Error"
      ],
      [
        "Ġcardiov",
        "ascular"
      ]
    ]
  }
}