{
  "version": "1.0",
  "truncation": null,
  "padding": null,
  "added_tokens": [
    {
      "id": 0,
      "content": "<pad>",
      "single_word": false,
      "lstrip": false,
      "rstrip": false,
      "normalized": false,
      "special": true
    },
    {
      "id": 1,
      "content": "<unk>",
      "single_word": false,
      "lstrip": false,
      "rstrip": false,
      "normalized": false,
      "special": true
    },
    {
      "id": 2,
      "content": "<bos>",
      "single_word": false,
      "lstrip": false,
      "rstrip": false,
      "normalized": false,
      "special": true
    },
    {
      "id": 3,
      "content": "<eos>",
      "single_word": false,
      "lstrip": false,
      "rstrip": false,
      "normalized": false,
      "special": true
    },
    {
      "id": 4,
      "content": "<system>",
      "single_word": false,
      "lstrip": false,
      "rstrip": false,
      "normalized": false,
      "special": true
    },
    {
      "id": 5,
      "content": "<user>",
      "single_word": false,
      "lstrip": false,
      "rstrip": false,
      "normalized": false,
      "special": true
    },
    {
      "id": 6,
      "content": "<assistant>",
      "single_word": false,
      "lstrip": false,
      "rstrip": false,
      "normalized": false,
      "special": true
    },
    {
      "id": 7,
      "content": "<end>",
      "single_word": false,
      "lstrip": false,
      "rstrip": false,
      "normalized": false,
      "special": true
    }
  ],
  "normalizer": null,
  "pre_tokenizer": {
    "type": "ByteLevel",
    "add_prefix_space": false,
    "trim_offsets": true,
    "use_regex": true
  },
  "post_processor": null,
  "decoder": {
    "type": "ByteLevel",
    "add_prefix_space": true,
    "trim_offsets": true,
    "use_regex": true
  },
  "model": {
    "type": "BPE",
    "dropout": null,
    "unk_token": "<unk>",
    "continuing_subword_prefix": null,
    "end_of_word_suffix": null,
    "fuse_unk": false,
    "byte_fallback": true,
    "ignore_merges": false,
    "vocab": {
      "<pad>": 0,
      "<unk>": 1,
      "<bos>": 2,
      "<eos>": 3,
      "<system>": 4,
      "<user>": 5,
      "<assistant>": 6,
      "<end>": 7,
      "!": 8,
      "\"": 9,
      "#": 10,
      "$": 11,
      "%": 12,
      "&": 13,
      "'": 14,
      "(": 15,
      ")": 16,
      "*": 17,
      "+": 18,
      ",": 19,
      "-": 20,
      ".": 21,
      "/": 22,
      "0": 23,
      "1": 24,
      "2": 25,
      "3": 26,
      "4": 27,
      "5": 28,
      "6": 29,
      "7": 30,
      "8": 31,
      "9": 32,
      ":": 33,
      ";": 34,
      "<": 35,
      "=": 36,
      ">": 37,
      "?": 38,
      "@": 39,
      "A": 40,
      "B": 41,
      "C": 42,
      "D": 43,
      "E": 44,
      "F": 45,
      "G": 46,
      "H": 47,
      "I": 48,
      "J": 49,
      "K": 50,
      "L": 51,
      "M": 52,
      "N": 53,
      "O": 54,
      "P": 55,
      "Q": 56,
      "R": 57,
      "S": 58,
      "T": 59,
      "U": 60,
      "V": 61,
      "W": 62,
      "X": 63,
      "Y": 64,
      "Z": 65,
      "[": 66,
      "\\": 67,
      "]": 68,
      "^": 69,
      "_": 70,
      "`": 71,
      "a": 72,
      "b": 73,
      "c": 74,
      "d": 75,
      "e": 76,
      "f": 77,
      "g": 78,
      "h": 79,
      "i": 80,
      "j": 81,
      "k": 82,
      "l": 83,
      "m": 84,
      "n": 85,
      "o": 86,
      "p": 87,
      "q": 88,
      "r": 89,
      "s": 90,
      "t": 91,
      "u": 92,
      "v": 93,
      "w": 94,
      "x": 95,
      "y": 96,
      "z": 97,
      "{": 98,
      "|": 99,
      "}": 100,
      "~": 101,
      "¡": 102,
      "¢": 103,
      "£": 104,
      "¤": 105,
      "¥": 106,
      "¦": 107,
      "§": 108,
      "¨": 109,
      "©": 110,
      "ª": 111,
      "«": 112,
      "¬": 113,
      "®": 114,
      "¯": 115,
      "°": 116,
      "±": 117,
      "²": 118,
      "³": 119,
      "´": 120,
      "µ": 121,
      "¶": 122,
      "·": 123,
      "¸": 124,
      "¹": 125,
      "º": 126,
      "»": 127,
      "¼": 128,
      "½": 129,
      "¾": 130,
      "¿": 131,
      "À": 132,
      "Á": 133,
      "Â": 134,
      "Ã": 135,
      "Ä": 136,
      "Å": 137,
      "Æ": 138,
      "Ç": 139,
      "È": 140,
      "É": 141,
      "Ê": 142,
      "Ë": 143,
      "Ì": 144,
      "Í": 145,
      "Î": 146,
      "Ï": 147,
      "Ð": 148,
      "Ñ": 149,
      "Ò": 150,
      "Ó": 151,
      "Ô": 152,
      "Õ": 153,
      "Ö": 154,
      "×": 155,
      "Ø": 156,
      "Ù": 157,
      "Ú": 158,
      "Û": 159,
      "Ü": 160,
      "Ý": 161,
      "Þ": 162,
      "ß": 163,
      "à": 164,
      "á": 165,
      "â": 166,
      "ã": 167,
      "ä": 168,
      "å": 169,
      "æ": 170,
      "ç": 171,
      "è": 172,
      "é": 173,
      "ê": 174,
      "ë": 175,
      "ì": 176,
      "í": 177,
      "î": 178,
      "ï": 179,
      "ð": 180,
      "ñ": 181,
      "ò": 182,
      "ó": 183,
      "ô": 184,
      "õ": 185,
      "ö": 186,
      "÷": 187,
      "ø": 188,
      "ù": 189,
      "ú": 190,
      "û": 191,
      "ü": 192,
      "ý": 193,
      "þ": 194,
      "ÿ": 195,
      "Ā": 196,
      "ā": 197,
      "Ă": 198,
      "ă": 199,
      "Ą": 200,
      "ą": 201,
      "Ć": 202,
      "ć": 203,
      "Ĉ": 204,
      "ĉ": 205,
      "Ċ": 206,
      "ċ": 207,
      "Č": 208,
      "č": 209,
      "Ď": 210,
      "ď": 211,
      "Đ": 212,
      "đ": 213,
      "Ē": 214,
      "ē": 215,
      "Ĕ": 216,
      "ĕ": 217,
      "Ė": 218,
      "ė": 219,
      "Ę": 220,
      "ę": 221,
      "Ě": 222,
      "ě": 223,
      "Ĝ": 224,
      "ĝ": 225,
      "Ğ": 226,
      "ğ": 227,
      "Ġ": 228,
      "ġ": 229,
      "Ģ": 230,
      "ģ": 231,
      "Ĥ": 232,
      "ĥ": 233,
      "Ħ": 234,
      "ħ": 235,
      "Ĩ": 236,
      "ĩ": 237,
      "Ī": 238,
      "ī": 239,
      "Ĭ": 240,
      "ĭ": 241,
      "Į": 242,
      "į": 243,
      "İ": 244,
      "ı": 245,
      "Ĳ": 246,
      "ĳ": 247,
      "Ĵ": 248,
      "ĵ": 249,
      "Ķ": 250,
      "ķ": 251,
      "ĸ": 252,
      "Ĺ": 253,
      "ĺ": 254,
      "Ļ": 255,
      "ļ": 256,
      "Ľ": 257,
      "ľ": 258,
      "Ŀ": 259,
      "ŀ": 260,
      "Ł": 261,
      "ł": 262,
      "Ń": 263,
      "Ġa": 264,
      "en": 265,
      "er": 266,
      "is": 267,
      "nt": 268,
      "os": 269,
      "al": 270,
      "re": 271,
      "ti": 272,
      "on": 273,
      "el": 274,
      "ta": 275,
      "ic": 276,
      "ss": 277,
      "th": 278,
      "Ġi": 279,
      "gen": 280,
      "tant": 281,
      "istant": 282,
      "ssistant": 283,
      "te": 284,
      "ĠĠ": 285,
      "ur": 286,
      "ce": 287,
      "or": 288,
      "fu": 289,
      "ou": 290,
      "us": 291,
      "Ġis": 292,
      "Ġth": 293,
      "tion": 294,
      "le": 295,
      "in": 296,
      "at": 297,
      "Ġare": 298,
      "pos": 299,
      "Ġint": 300,
      "Ġh": 301,
      "Ġn": 302,
      "Ġar": 303,
      "tem": 304,
      "You": 305,
      "fic": 306,
      "ial": 307,
      "li": 308,
      "sy": 309,
      "Ġgen": 310,
      "end": 311,
      "Ġgener": 312,
      "stem": 313,
      "system": 314,
      "Ġgeneral": 315,
      "tific": 316,
      "elli": 317,
      "gence": 318,
      "ful": 319,
      "pose": 320,
      "Ġintelli": 321,
      "Ġartific": 322,
      "Ġintelligence": 323,
      "Ġartificial": 324,
      "Mos": 325,
      "aic": 326,
      "assistant": 327,
      "bos": 328,
      "pur": 329,
      "pful": 330,
      "Ġre": 331,
      "ĠMos": 332,
      "Ġassistant": 333,
      "elpful": 334,
      "user": 335,
      "Ġhelpful": 336,
      "purpose": 337,
      "ĠMosaic": 338,
      "an": 339,
      "Ġc": 340,
      "Ġs": 341,
      "Ġp": 342,
      "Ġt": 343,
      "es": 344,
      "Ġd": 345,
      "um": 346,
      "Ġb": 347,
      "Ġo": 348,
      "ar": 349,
      "Ġf": 350,
      "Ġthe": 351,
      "Py": 352,
      "Ġe": 353,
      "Ġw": 354,
      "thon": 355,
      "ĠĠĠ": 356,
      "ing": 357,
      "Python": 358,
      "am": 359,
      "ber": 360,
      "Ġl": 361,
      "umber": 362,
      "Ġan": 363,
      "Ġin": 364,
      "Wh": 365,
      "ction": 366,
      "de": 367,
      "Ġm": 368,
      "ĠPython": 369,
      "ent": 370,
      "Ġ=": 371,
      "ec": 372,
      "ro": 373,
      "What": 374,
      "Ġthat": 375,
      "Ġne": 376,
      "Ġex": 377,
      "ed": 378,
      "ple": 379,
      "ue": 380,
      "Ġ2": 381,
      "Ġnumber": 382,
      "nction": 383,
      "val": 384,
      "Ġfu": 385,
      "Ġco": 386,
      "Ġto": 387,
      "Ġfunction": 388,
      "Th": 389,
      "ra": 390,
      "Ġ1": 391,
      "orm": 392,
      "Ġof": 393,
      "ly": 394,
      "ri": 395,
      "Ġret": 396,
      "Ġpro": 397,
      "Ġand": 398,
      "od": 399,
      "ts": 400,
      "Ġval": 401,
      "urn": 402,
      "Ġreturn": 403,
      "ac": 404,
      "ds": 405,
      "form": 406,
      "ers": 407,
      "Ġwh": 408,
      "ample": 409,
      "ate": 410,
      "tw": 411,
      "ere": 412,
      "):": 413,
      "ation": 414,
      "ng": 415,
      "ul": 416,
      "ting": 417,
      "lear": 418,
      "Ġcan": 419,
      "def": 420,
      "Ġmod": 421,
      "Ġvalue": 422,
      "learn": 423,
      "ore": 424,
      "Ġ5": 425,
      "Ġon": 426,
      "Ġlearn": 427,
      "Ġper": 428,
      "Ġ20": 429,
      "Ġmodel": 430,
      "ata": 431,
      "ain": 432,
      "gr": 433,
      "iv": 434,
      "ion": 435,
      "ith": 436,
      "ile": 437,
      "mp": 438,
      "number": 439,
      "qu": 440,
      "ran": 441,
      "xt": 442,
      "Ġ4": 443,
      "Ġus": 444,
      "ist": 445,
      "Ġit": 446,
      "ork": 447,
      "Ġse": 448,
      "Ġdo": 449,
      "arg": 450,
      "ame": 451,
      "Ġnetw": 452,
      "Ġexample": 453,
      "There": 454,
      "rite": 455,
      "Ġnetwork": 456,
      "Ex": 457,
      "For": 458,
      "Write": 459,
      "as": 460,
      "ble": 461,
      "fore": 462,
      "ge": 463,
      "iz": 464,
      "ot": 465,
      "ow": 466,
      "ror": 467,
      "Ġ+": 468,
      "ence": 469,
      "text": 470,
      "ĠĠĠĠ": 471,
      "ural": 472,
      "cess": 473,
      "Ġdata": 474,
      "Ġbe": 475,
      "Ġwith": 476,
      "Ġlist": 477,
      "Ġlarg": 478,
      "ents": 479,
      "Ġneural": 480,
      "ach": 481,
      "Ġwhen": 482,
      "Er": 483,
      "fer": 484,
      "ps": 485,
      "sul": 486,
      "ver": 487,
      "ĠA": 488,
      "Ġu": 489,
      "ĠÃ": 490,
      "Ġra": 491,
      "tim": 492,
      "urs": 493,
      "cep": 494,
      "Ġnot": 495,
      "Ġrec": 496,
      "Ġresul": 497,
      "est": 498,
      "Ġby": 499,
      "Ġfor": 500,
      "The": 501,
      "Ġperform": 502,
      "Therefore": 503,
      "Error": 504,
      "How": 505,
      "age": 506,
      "bj": 507,
      "ch": 508,
      "cent": 509,
      "em": 510,
      "ig": 511,
      "pl": 512,
      "sform": 513,
      "ut": 514,
      "Ġor": 515,
      "Ġpos": 516,
      "Ġat": 517,
      "res": 518,
      "onds": 519,
      "ords": 520,
      "Ġst": 521,
      "Ġsec": 522,
      "Ġtra": 523,
      "Ġobj": 524,
      "Ġfile": 525,
      "Ġnumbers": 526,
      "Ġprogr": 527,
      "act": 528,
      "ations": 529,
      "Ġlearning": 530,
      "Ġ200": 531,
      "ains": 532,
      "numbers": 533,
      "ransform": 534,
      "Ġdoes": 535,
      "ĠĠĠĠĠĠĠ": 536,
      "Ġlargest": 537,
      "Ġresult": 538,
      "Ġseconds": 539,
      "Ġtrain": 540,
      "Ġobjec": 541,
      "Ġprogram": 542,
      "\")": 543,
      "(\"": 544,
      "In": 545,
      "Transform": 546,
      "ct": 547,
      "dd": 548,
      "di": 549,
      "du": 550,
      "date": 551,
      "gu": 552,
      "if": 553,
      "it": 554,
      "lle": 555,
      "oc": 556,
      "pdate": 557,
      "ten": 558,
      "ter": 559,
      "you": 560,
      "Ġ\"": 561,
      "Ġ0": 562,
      "Ġ3": 563,
      "Ġ6": 564,
      "Ġ7": 565,
      "Ġ8": 566,
      "Ġel": 567,
      "Ġtim": 568,
      "ĠTransform": 569,
      "Ġyou": 570,
      "Ġac": 571,
      "Ġal": 572,
      "ntains": 573,
      "elf": 574,
      "ely": 575,
      "tation": 576,
      "Ġif": 577,
      "Ġits": 578,
      "Ġthan": 579,
      "Ġrep": 580,
      "and": 581,
      "angu": 582,
      "Ġpri": 583,
      "Ġdiv": 584,
      "Ġop": 585,
      "Ġlangu": 586,
      "Why": 587,
      "Ġexcep": 588,
      "Ġcolle": 589,
      "Ġcontains": 590,
      "Ġ10": 591,
      "Ġ12": 592,
      "Ġprocess": 593,
      "Ġone": 594,
      "quence": 595,
      "Ġsequence": 596,
      "Example": 597,
      "ase": 598,
      "ization": 599,
      "Ġupdate": 600,
      "ĠÃĹ": 601,
      "Ġrais": 602,
      "ements": 603,
      "Ġposi": 604,
      "Ġobjects": 605,
      "tention": 606,
      "Ġelements": 607,
      "ĠTransformer": 608,
      "Ġcollection": 609,
      "\",": 610,
      "25": 611,
      "Val": 612,
      "ati": 613,
      "able": 614,
      "cal": 615,
      "der": 616,
      "eg": 617,
      "id": 618,
      "ite": 619,
      "ide": 620,
      "imp": 621,
      "loc": 622,
      "om": 623,
      "oo": 624,
      "pp": 625,
      "ry": 626,
      "ring": 627,
      "ters": 628,
      "ure": 629,
      "ues": 630,
      "uple": 631,
      "ve": 632,
      "vers": 633,
      "wo": 634,
      "wer": 635,
      "yp": 636,
      "Ġgr": 637,
      "Ġtext": 638,
      "ĠVal": 639,
      "Ġaf": 640,
      "Ġadd": 641,
      "entation": 642,
      "ero": 643,
      "ision": 644,
      "all": 645,
      "iction": 646,
      "ther": 647,
      "ors": 648,
      "ine": 649,
      "ately": 650,
      "Ġhand": 651,
      "Ġarch": 652,
      "Ġcon": 653,
      "Ġsta": 654,
      "Ġsimp": 655,
      "Ġpre": 656,
      "Ġtwo": 657,
      "Ġtyp": 658,
      "Ġdes": 659,
      "Ġdif": 660,
      "Ġbloc": 661,
      "arame": 662,
      "Ġfin": 663,
      "Ġfro": 664,
      "Ġfact": 665,
      "Ġeach": 666,
      "Ġloo": 667,
      "Ġinc": 668,
      "dex": 669,
      "Ġme": 670,
      "Ġman": 671,
      "ueError": 672,
      "Ġ25": 673,
      "Ġcode": 674,
      "Ġcomp": 675,
      "Ġvalues": 676,
      "Ġreturns": 677,
      "Ġ50": 678,
      "Ġpercent": 679,
      "Ġset": 680,
      "Expl": 681,
      "achine": 682,
      "ferent": 683,
      "ference": 684,
      "ursion": 685,
      "Ġrecords": 686,
      "igh": 687,
      "Ġtraining": 688,
      "Ġprogramm": 689,
      "cture": 690,
      "Ġaccess": 691,
      "Ġrepres": 692,
      "Ġlanguage": 693,
      "Ġexception": 694,
      "Ġraise": 695,
      "Ġposition": 696,
      "itecture": 697,
      "Ġgrou": 698,
      "ĠValueError": 699,
      "Ġarchitecture": 700,
      "Ġsimply": 701,
      "Ġdifferent": 702,
      "Ġblock": 703,
      "arameters": 704,
      "Ġfrom": 705,
      "Ġfactor": 706,
      "Explain": 707,
      "\":": 708,
      "()": 709,
      "10": 710,
      "20": 711,
      "44": 712,
      "An": 713,
      "Non": 714,
      "PI": 715,
      "ad": 716,
      "ay": 717,
      "are": 718,
      "ating": 719,
      "base": 720,
      "cc": 721,
      "can": 722,
      "cul": 723,
      "ee": 724,
      "ex": 725,
      "ey": 726,
      "een": 727,
      "eigh": 728,
      "for": 729,
      "fers": 730,
      "fit": 731,
      "gre": 732,
      "hi": 733,
      "hec": 734,
      "il": 735,
      "iq": 736,
      "iable": 737,
      "ken": 738,
      "key": 739,
      "lu": 740,
      "low": 741,
      "lations": 742,
      "me": 743,
      "mu": 744,
      "mall": 745,
      "ns": 746,
      "name": 747,
      "niq": 748,
      "our": 749,
      "pec": 750,
      "pers": 751,
      "so": 752,
      "st": 753,
      "swer": 754,
      "uting": 755,
      "ven": 756,
      "var": 757,
      "zero": 758,
      "Ġ*": 759,
      "ĠC": 760,
      "ĠD": 761,
      "ĠI": 762,
      "Ġx": 763,
      "Ġ{": 764,
      "Ġsystem": 765,
      "Ġran": 766,
      "ĠHow": 767,
      "ĠIn": 768,
      "ĠNon": 769,
      "Ġkey": 770,
      "Ġvar": 771,
      "Ġzero": 772,
      "Ġas": 773,
      "Ġass": 774,
      "Ġaut": 775,
      "Ġapp": 776,
      "ally": 777,
      "alcul": 778,
      "reate": 779,
      "onents": 780,
      "table": 781,
      "ich": 782,
      "Ġim": 783,
      "ted": 784,
      "uring": 785,
      "ount": 786,
      "Ġthere": 787,
      "ined": 788,
      "atter": 789,
      "attention": 790,
      "Ġinteg": 791,
      "Ġhas": 792,
      "tement": 793,
      "Ġrevers": 794,
      "Ġrefers": 795,
      "Ġrelations": 796,
      "Ġchec": 797,
      "Ġcalcul": 798,
      "Ġcount": 799,
      "Ġso": 800,
      "Ġsqu": 801,
      "Ġsame": 802,
      "Ġparameters": 803,
      "Ġtry": 804,
      "Ġtuple": 805,
      "Ġdiction": 806,
      "Ġover": 807,
      "Ġocc": 808,
      "ary": 809,
      "Ġfe": 810,
      "Ġfour": 811,
      "Ġever": 812,
      "Ġwors": 813,
      "Ġweigh": 814,
      "Ġlay": 815,
      "Ġanswer": 816,
      "Ġmachine": 817,
      "Ġexact": 818,
      "valid": 819,
      "Ġtoken": 820,
      "rate": 821,
      "radi": 822,
      "Ġ11": 823,
      "Ġwhile": 824,
      "Ġwhich": 825,
      "ates": 826,
      "tween": 827,
      "Ġonly": 828,
      "Ġlearns": 829,
      "Ġlearned": 830,
      "ive": 831,
      "Ġ40": 832,
      "Ġ42": 833,
      "Ġuse": 834,
      "Ġuses": 835,
      "Ġusing": 836,
      "Ġused": 837,
      "Ġnetworks": 838,
      "ize": 839,
      "Ġdatabase": 840,
      "Ġbetween": 841,
      "Ġlarger": 842,
      "ĠAPI": 843,
      "ĠÃ·": 844,
      "timization": 845,
      "Ġrecursion": 846,
      "plic": 847,
      "Ġorder": 848,
      "Ġattention": 849,
      "Ġstring": 850,
      "Ġtrained": 851,
      "duce": 852,
      "Ġtime": 853,
      "Ġtimes": 854,
      "Ġallow": 855,
      "Ġalso": 856,
      "Ġitself": 857,
      "Ġprint": 858,
      "Ġprime": 859,
      "Ġdivide": 860,
      "Ġdivision": 861,
      "Ġopen": 862,
      "Ġupdates": 863,
      "atical": 864,
      "Ġafter": 865,
      "Ġhandle": 866,
      "Ġpred": 867,
      "Ġtype": 868,
      "Ġdescent": 869,
      "Ġloop": 870,
      "Ġinclu": 871,
      "dexError": 872,
      "Ġmean": 873,
      "Ġmany": 874,
      "Ġprogramming": 875,
      "Ġrepresentation": 876,
      "Ġgroups": 877,
      "Ġfactorial": 878,
      "eep": 879,
      "fitting": 880,
      "hips": 881,
      "maller": 882,
      "nique": 883,
      "person": 884,
      "Ġrange": 885,
      "ĠIndexError": 886,
      "ĠNone": 887,
      "Ġvariable": 888,
      "Ġappro": 889,
      "Ġinteger": 890,
      "Ġrelationships": 891,
      "Ġcheck": 892,
      "Ġcalculates": 893,
      "Ġdictionary": 894,
      "Ġoccurs": 895,
      "Ġevery": 896,
      "Ġworse": 897,
      "Ġweights": 898,
      "Ġlayers": 899,
      "Ġexactly": 900,
      "radient": 901,
      "Ġordered": 902,
      "Ġallows": 903,
      "\"]": 904,
      "'s": 905,
      "144": 906,
      "50": 907,
      ":-": 908,
      ":]": 909,
      "::-": 910,
      "=\"": 911,
      "Ale": 912,
      "Add": 913,
      "Div": 914,
      "Deep": 915,
      "Gradient": 916,
      "Here": 917,
      "Mod": 918,
      "Machine": 919,
      "Norm": 920,
      "Over": 921,
      "Rec": 922,
      "Self": 923,
      "Tuple": 924,
      "Zero": 925,
      "[\"": 926,
      "[::-": 927,
      "]?": 928,
      "ab": 929,
      "af": 930,
      "ag": 931,
      "ax": 932,
      "ass": 933,
      "ath": 934,
      "ace": 935,
      "aus": 936,
      "ade": 937,
      "ares": 938,
      "app": 939,
      "ail": 940,
      "bec": 941,
      "bab": 942,
      "co": 943,
      "cod": 944,
      "com": 945,
      "create": 946,
      "do": 947,
      "ding": 948,
      "dds": 949,
      "div": 950,
      "ef": 951,
      "ection": 952,
      "ede": 953,
      "eve": 954,
      "ether": 955,
      "eating": 956,
      "even": 957,
      "ffic": 958,
      "fec": 959,
      "ftw": 960,
      "file": 961,
      "face": 962,
      "gi": 963,
      "gan": 964,
      "gum": 965,
      "gul": 966,
      "gradient": 967,
      "han": 968,
      "hes": 969,
      "im": 970,
      "ir": 971,
      "ix": 972,
      "int": 973,
      "ific": 974,
      "ili": 975,
      "ient": 976,
      "ible": 977,
      "iations": 978,
      "idu": 979,
      "los": 980,
      "ling": 981,
      "larg": 982,
      "ms": 983,
      "mpose": 984,
      "mec": 985,
      "mul": 986,
      "mains": 987,
      "mentation": 988,
      "matter": 989,
      "nic": 990,
      "ndef": 991,
      "not": 992,
      "nder": 993,
      "neg": 994,
      "nection": 995,
      "op": 996,
      "ox": 997,
      "oor": 998,
      "ops": 999,
      "other": 1000,
      "oint": 1001,
      "py": 1002,
      "pre": 1003,
      "ption": 1004,
      "pli": 1005,
      "pri": 1006,
      "pts": 1007,
      "put": 1008,
      "parameters": 1009,
      "pplic": 1010,
      "point": 1011,
      "ru": 1012,
      "rue": 1013,
      "sk": 1014,
      "sta": 1015,
      "stant": 1016,
      "smaller": 1017,
      "sible": 1018,
      "spli": 1019,
      "ty": 1020,
      "tis": 1021,
      "txt": 1022,
      "try": 1023,
      "utation": 1024,
      "uil": 1025,
      "utable": 1026,
      "under": 1027,
      "vent": 1028,
      "vid": 1029,
      "war": 1030,
      "with": 1031,
      "words": 1032,
      "xim": 1033,
      "Ġ%": 1034,
      "Ġ(": 1035,
      "Ġ/": 1036,
      "Ġ<": 1037,
      "Ġ>": 1038,
      "Ġ[": 1039,
      "Ġen": 1040,
      "Ġer": 1041,
      "Ġta": 1042,
      "Ġte": 1043,
      "Ġou": 1044,
      "Ġend": 1045,
      "Ġqu": 1046,
      "Ġvers": 1047,
      "Ġgre": 1048,
      "ĠZero": 1049,
      "Ġgradient": 1050,
      "Ġadds": 1051,
      "Ġapplic": 1052,
      "enting": 1053,
      "enom": 1054,
      "erate": 1055,
      "erations": 1056,
      "erface": 1057,
      "isors": 1058,
      "ishes": 1059,
      "isms": 1060,
      "ntax": 1061,
      "oss": 1062,
      "alit": 1063,
      "alization": 1064,
      "rection": 1065,
      "rect": 1066,
      "read": 1067,
      "reating": 1068,
      "remains": 1069,
      "ties": 1070,
      "tiple": 1071,
      "tical": 1072,
      "tive": 1073,
      "ell": 1074,
      "ical": 1075,
      "icting": 1076,
      "ssion": 1077,
      "ssive": 1078,
      "the": 1079,
      "thod": 1080,
      "cedu": 1081,
      "oring": 1082,
      "orrect": 1083,
      "out": 1084,
      "ust": 1085,
      "usable": 1086,
      "Ġthis": 1087,
      "inat": 1088,
      "inference": 1089,
      "ats": 1090,
      "ater": 1091,
      "Ġintend": 1092,
      "Ġinterface": 1093,
      "Ġnon": 1094,
      "Ġnorm": 1095,
      "Ġname": 1096,
      "Ġargum": 1097,
      "tempts": 1098,
      "syntax": 1099,
      "Ġgenerate": 1100,
      "Ġgenerally": 1101,
      "Ġgeneralize": 1102,
      "Ġreach": 1103,
      "Ġread": 1104,
      "Ġreduce": 1105,
      "Ġregul": 1106,
      "Ġreusable": 1107,
      "ance": 1108,
      "Ġcase": 1109,
      "Ġcall": 1110,
      "Ġcreate": 1111,
      "Ġclos": 1112,
      "Ġcreating": 1113,
      "Ġsum": 1114,
      "Ġself": 1115,
      "Ġspec": 1116,
      "Ġsize": 1117,
      "Ġsmaller": 1118,
      "Ġsaf": 1119,
      "Ġpatter": 1120,
      "Ġpoor": 1121,
      "Ġtransform": 1122,
      "Ġtrue": 1123,
      "Ġduring": 1124,
      "Ġdeep": 1125,
      "Ġdef": 1126,
      "Ġdenom": 1127,
      "umption": 1128,
      "Ġbran": 1129,
      "Ġbas": 1130,
      "Ġbut": 1131,
      "Ġbase": 1132,
      "Ġbox": 1133,
      "Ġbuil": 1134,
      "arization": 1135,
      "Ġform": 1136,
      "Ġfail": 1137,
      "Ġfix": 1138,
      "Ġtheir": 1139,
      "Ġemp": 1140,
      "Ġeven": 1141,
      "Ġeffic": 1142,
      "Ġwrite": 1143,
      "Ġwords": 1144,
      "Ġwell": 1145,
      "Ġlen": 1146,
      "Ġloss": 1147,
      "Ġinform": 1148,
      "Ġindex": 1149,
      "Ġinference": 1150,
      "Ġinade": 1151,
      "Ġinput": 1152,
      "Ġmigh": 1153,
      "Ġmath": 1154,
      "Ġmutable": 1155,
      "Ġmust": 1156,
      "Ġ==": 1157,
      "ecuting": 1158,
      "Ġneed": 1159,
      "Ġnever": 1160,
      "Ġneede": 1161,
      "Ġexpec": 1162,
      "Ġexplic": 1163,
      "Ġexpre": 1164,
      "Ġexecuting": 1165,
      "plementation": 1166,
      "value": 1167,
      "Ġcompose": 1168,
      "Ġcopy": 1169,
      "Ġtoo": 1170,
      "That": 1171,
      "Ġ144": 1172,
      "rieve": 1173,
      "Ġretrieve": 1174,
      "Ġproble": 1175,
      "Ġproduce": 1176,
      "Ġprobab": 1177,
      "Ġprovid": 1178,
      "Ġprocedu": 1179,
      "tside": 1180,
      "Ġwhether": 1181,
      "Ġcannot": 1182,
      "Ġmodif": 1183,
      "ores": 1184,
      "oregre": 1185,
      "Ġmodels": 1186,
      "mponents": 1187,
      "quately": 1188,
      "Ġiterate": 1189,
      "Ġseen": 1190,
      "Ġexamples": 1191,
      "izing": 1192,
      "rors": 1193,
      "ĠĠĠĠĠĠĠĠĠĠĠ": 1194,
      "Ġbeing": 1195,
      "Ġbefore": 1196,
      "Ġwithout": 1197,
      "ĠAn": 1198,
      "Ġunique": 1199,
      "Ġundef": 1200,
      "Ġrate": 1201,
      "Ġrather": 1202,
      "ursive": 1203,
      "cept": 1204,
      "cepts": 1205,
      "Ġrecursive": 1206,
      "Ġresulting": 1207,
      "Ġperforms": 1208,
      "Ġperforming": 1209,
      "Ġperformance": 1210,
      "chnique": 1211,
      "ematical": 1212,
      "ign": 1213,
      "igns": 1214,
      "utf": 1215,
      "Ġorgan": 1216,
      "Ġpossible": 1217,
      "Ġattempts": 1218,
      "residu": 1219,
      "Ġstrate": 1220,
      "Ġstoring": 1221,
      "Ġstores": 1222,
      "Ġobject": 1223,
      "Inference": 1224,
      "Invalid": 1225,
      "dition": 1226,
      "direction": 1227,
      "itly": 1228,
      "ociations": 1229,
      "Ġaccepts": 1230,
      "Ġrepeating": 1231,
      "Ġoptimization": 1232,
      "Ġoperations": 1233,
      "Ġlanguag": 1234,
      "Ġexcept": 1235,
      "Ġprocesses": 1236,
      "Ġsequences": 1237,
      "Examples": 1238,
      "Ġraises": 1239,
      "Ġpositive": 1240,
      "Ġcollections": 1241,
      "ative": 1242,
      "omatical": 1243,
      "Ġaffec": 1244,
      "isionError": 1245,
      "ictions": 1246,
      "Ġhandling": 1247,
      "Ġconnection": 1248,
      "Ġconstant": 1249,
      "Ġcondition": 1250,
      "Ġstated": 1251,
      "Ġstatement": 1252,
      "Ġstatis": 1253,
      "Ġprevent": 1254,
      "Ġtypical": 1255,
      "Ġdesigns": 1256,
      "Ġfind": 1257,
      "Ġfinds": 1258,
      "Ġfinishes": 1259,
      "Ġloops": 1260,
      "Ġincorrect": 1261,
      "Ġmethod": 1262,
      "Ġmanage": 1263,
      "Ġcomputing": 1264,
      "Ġcomponents": 1265,
      "Ġcomputation": 1266,
      "Ġprogrammed": 1267,
      "Ġaccessing": 1268,
      "Ġrepresenting": 1269,
      "Ġexceptions": 1270,
      "Ġpositions": 1271,
      "Ġgroup": 1272,
      "Ġblocks": 1273,
      "())": 1274,
      "exist": 1275,
      "except": 1276,
      "forwar": 1277,
      "mutable": 1278,
      "munic": 1279,
      "string": 1280,
      "stops": 1281,
      "Ġ*=": 1282,
      "ĠData": 1283,
      "ĠDuring": 1284,
      "ĠIf": 1285,
      "Ġsystems": 1286,
      "Ġassumption": 1287,
      "Ġassociations": 1288,
      "Ġautoregre": 1289,
      "Ġautomatical": 1290,
      "Ġimplementation": 1291,
      "Ġimmutable": 1292,
      "Ġreverse": 1293,
      "Ġreverses": 1294,
      "Ġcounts": 1295,
      "Ġsoftw": 1296,
      "Ġsquare": 1297,
      "Ġsquares": 1298,
      "Ġoverfitting": 1299,
      "Ġfeed": 1300,
      "Ġfewer": 1301,
      "Ġtokens": 1302,
      "Ġuseful": 1303,
      "Ġdivided": 1304,
      "Ġpredicting": 1305,
      "Ġpredictions": 1306,
      "Ġinclude": 1307,
      "Ġincluding": 1308,
      "Ġrepresentations": 1309,
      "Ġappropri": 1310,
      "Ġapproxim": 1311,
      "Ġchecks": 1312,
      "Ġchecking": 1313,
      ":]:": 1314,
      "Alex": 1315,
      "DivisionError": 1316,
      "Model": 1317,
      "Normally": 1318,
      "Overfitting": 1319,
      "Recursion": 1320,
      "Tuples": 1321,
      "assign": 1322,
      "ause": 1323,
      "append": 1324,
      "because": 1325,
      "components": 1326,
      "coding": 1327,
      "communic": 1328,
      "created": 1329,
      "does": 1330,
      "divisors": 1331,
      "gies": 1332,
      "hanisms": 1333,
      "ifically": 1334,
      "ilities": 1335,
      "iently": 1336,
      "largest": 1337,
      "mechanisms": 1338,
      "multiple": 1339,
      "negative": 1340,
      "optimization": 1341,
      "rule": 1342,
      "statement": 1343,
      "split": 1344,
      "Ġencoding": 1345,
      "Ġerrors": 1346,
      "Ġtask": 1347,
      "Ġtechnique": 1348,
      "Ġoutside": 1349,
      "Ġqualit": 1350,
      "Ġversion": 1351,
      "Ġgreater": 1352,
      "ĠZeroDivisionError": 1353,
      "Ġapplications": 1354,
      "inator": 1355,
      "Ġintended": 1356,
      "Ġnormalization": 1357,
      "Ġarguments": 1358,
      "Ġreaches": 1359,
      "Ġregularization": 1360,
      "Ġcalls": 1361,
      "Ġclosed": 1362,
      "Ġspecifically": 1363,
      "Ġsafely": 1364,
      "Ġpatterns": 1365,
      "Ġpoorly": 1366,
      "Ġdefined": 1367,
      "Ġdenominator": 1368,
      "Ġbranch": 1369,
      "Ġbased": 1370,
      "Ġbuilt": 1371,
      "Ġformats": 1372,
      "Ġfixed": 1373,
      "Ġempty": 1374,
      "Ġefficiently": 1375,
      "Ġinformation": 1376,
      "Ġinadequately": 1377,
      "Ġmight": 1378,
      "Ġmathematical": 1379,
      "Ġneeds": 1380,
      "Ġneeded": 1381,
      "Ġexpected": 1382,
      "Ġexplicitly": 1383,
      "Ġexpression": 1384,
      "Ġcomposed": 1385,
      "Ġproblem": 1386,
      "Ġprobabilities": 1387,
      "Ġprovides": 1388,
      "Ġprocedure": 1389,
      "Ġmodify": 1390,
      "Ġundefined": 1391,
      "Ġorganizing": 1392,
      "residual": 1393,
      "Ġstrategies": 1394,
      "Ġlanguages": 1395,
      "Ġaffecting": 1396,
      "Ġconnections": 1397,
      "Ġstatistical": 1398,
      "Ġcomputational": 1399,
      "forward": 1400,
      "Ġautoregressive": 1401,
      "Ġautomatically": 1402,
      "Ġsoftware": 1403,
      "Ġappropriately": 1404,
      "Ġapproximately": 1405,
      "communicate": 1406,
      "Ġquality": 1407
    },
    "merges": [
      [
        "Ġ",
        "a"
      ],
      [
        "e",
        "n"
      ],
      [
        "e",
        "r"
      ],
      [
        "i",
        "s"
      ],
      [
        "n",
        "t"
      ],
      [
        "o",
        "s"
      ],
      [
        "a",
        "l"
      ],
      [
        "r",
        "e"
      ],
      [
        "t",
        "i"
      ],
      [
        "o",
        "n"
      ],
      [
        "e",
        "l"
      ],
      [
        "t",
        "a"
      ],
      [
        "i",
        "c"
      ],
      [
        "s",
        "s"
      ],
      [
        "t",
        "h"
      ],
      [
        "Ġ",
        "i"
      ],
      [
        "g",
        "en"
      ],
      [
        "ta",
        "nt"
      ],
      [
        "is",
        "tant"
      ],
      [
        "ss",
        "istant"
      ],
      [
        "t",
        "e"
      ],
      [
        "Ġ",
        "Ġ"
      ],
      [
        "u",
        "r"
      ],
      [
        "c",
        "e"
      ],
      [
        "o",
        "r"
      ],
      [
        "f",
        "u"
      ],
      [
        "o",
        "u"
      ],
      [
        "u",
        "s"
      ],
      [
        "Ġ",
        "is"
      ],
      [
        "Ġ",
        "th"
      ],
      [
        "ti",
        "on"
      ],
      [
        "l",
        "e"
      ],
      [
        "i",
        "n"
      ],
      [
        "a",
        "t"
      ],
      [
        "Ġa",
        "re"
      ],
      [
        "p",
        "os"
      ],
      [
        "Ġi",
        "nt"
      ],
      [
        "Ġ",
        "h"
      ],
      [
        "Ġ",
        "n"
      ],
      [
        "Ġa",
        "r"
      ],
      [
        "te",
        "m"
      ],
      [
        "Y",
        "ou"
      ],
      [
        "f",
        "ic"
      ],
      [
        "i",
        "al"
      ],
      [
        "l",
        "i"
      ],
      [
        "s",
        "y"
      ],
      [
        "Ġ",
        "gen"
      ],
      [
        "en",
        "d"
      ],
      [
        "Ġgen",
        "er"
      ],
      [
        "s",
        "tem"
      ],
      [
        "sy",
        "stem"
      ],
      [
        "Ġgener",
        "al"
      ],
      [
        "ti",
        "fic"
      ],
      [
        "el",
        "li"
      ],
      [
        "gen",
        "ce"
      ],
      [
        "fu",
        "l"
      ],
      [
        "pos",
        "e"
      ],
      [
        "Ġint",
        "elli"
      ],
      [
        "Ġar",
        "tific"
      ],
      [
        "Ġintelli",
        "gence"
      ],
      [
        "Ġartific",
        "ial"
      ],
      [
        "M",
        "os"
      ],
      [
        "a",
        "ic"
      ],
      [
        "a",
        "ssistant"
      ],
      [
        "b",
        "os"
      ],
      [
        "p",
        "ur"
      ],
      [
        "p",
        "ful"
      ],
      [
        "Ġ",
        "re"
      ],
      [
        "Ġ",
        "Mos"
      ],
      [
        "Ġa",
        "ssistant"
      ],
      [
        "el",
        "pful"
      ],
      [
        "us",
        "er"
      ],
      [
        "Ġh",
        "elpful"
      ],
      [
        "pur",
        "pose"
      ],
      [
        "ĠMos",
        "aic"
      ],
      [
        "a",
        "n"
      ],
      [
        "Ġ",
        "c"
      ],
      [
        "Ġ",
        "s"
      ],
      [
        "Ġ",
        "p"
      ],
      [
        "Ġ",
        "t"
      ],
      [
        "e",
        "s"
      ],
      [
        "Ġ",
        "d"
      ],
      [
        "u",
        "m"
      ],
      [
        "Ġ",
        "b"
      ],
      [
        "Ġ",
        "o"
      ],
      [
        "a",
        "r"
      ],
      [
        "Ġ",
        "f"
      ],
      [
        "Ġth",
        "e"
      ],
      [
        "P",
        "y"
      ],
      [
        "Ġ",
        "e"
      ],
      [
        "Ġ",
        "w"
      ],
      [
        "th",
        "on"
      ],
      [
        "ĠĠ",
        "Ġ"
      ],
      [
        "in",
        "g"
      ],
      [
        "Py",
        "thon"
      ],
      [
        "a",
        "m"
      ],
      [
        "b",
        "er"
      ],
      [
        "Ġ",
        "l"
      ],
      [
        "um",
        "ber"
      ],
      [
        "Ġa",
        "n"
      ],
      [
        "Ġi",
        "n"
      ],
      [
        "W",
        "h"
      ],
      [
        "c",
        "tion"
      ],
      [
        "d",
        "e"
      ],
      [
        "Ġ",
        "m"
      ],
      [
        "Ġ",
        "Python"
      ],
      [
        "en",
        "t"
      ],
      [
        "Ġ",
        "="
      ],
      [
        "e",
        "c"
      ],
      [
        "r",
        "o"
      ],
      [
        "Wh",
        "at"
      ],
      [
        "Ġth",
        "at"
      ],
      [
        "Ġn",
        "e"
      ],
      [
        "Ġe",
        "x"
      ],
      [
        "e",
        "d"
      ],
      [
        "p",
        "le"
      ],
      [
        "u",
        "e"
      ],
      [
        "Ġ",
        "2"
      ],
      [
        "Ġn",
        "umber"
      ],
      [
        "n",
        "ction"
      ],
      [
        "v",
        "al"
      ],
      [
        "Ġ",
        "fu"
      ],
      [
        "Ġc",
        "o"
      ],
      [
        "Ġt",
        "o"
      ],
      [
        "Ġfu",
        "nction"
      ],
      [
        "T",
        "h"
      ],
      [
        "r",
        "a"
      ],
      [
        "Ġ",
        "1"
      ],
      [
        "or",
        "m"
      ],
      [
        "Ġo",
        "f"
      ],
      [
        "l",
        "y"
      ],
      [
        "r",
        "i"
      ],
      [
        "Ġre",
        "t"
      ],
      [
        "Ġp",
        "ro"
      ],
      [
        "Ġan",
        "d"
      ],
      [
        "o",
        "d"
      ],
      [
        "t",
        "s"
      ],
      [
        "Ġ",
        "val"
      ],
      [
        "ur",
        "n"
      ],
      [
        "Ġret",
        "urn"
      ],
      [
        "a",
        "c"
      ],
      [
        "d",
        "s"
      ],
      [
        "f",
        "orm"
      ],
      [
        "er",
        "s"
      ],
      [
        "Ġw",
        "h"
      ],
      [
        "am",
        "ple"
      ],
      [
        "a",
        "te"
      ],
      [
        "t",
        "w"
      ],
      [
        "er",
        "e"
      ],
      [
        ")",
        ":"
      ],
      [
        "a",
        "tion"
      ],
      [
        "n",
        "g"
      ],
      [
        "u",
        "l"
      ],
      [
        "ti",
        "ng"
      ],
      [
        "le",
        "ar"
      ],
      [
        "Ġc",
        "an"
      ],
      [
        "de",
        "f"
      ],
      [
        "Ġm",
        "od"
      ],
      [
        "Ġval",
        "ue"
      ],
      [
        "lear",
        "n"
      ],
      [
        "o",
        "re"
      ],
      [
        "Ġ",
        "5"
      ],
      [
        "Ġ",
        "on"
      ],
      [
        "Ġ",
        "learn"
      ],
      [
        "Ġp",
        "er"
      ],
      [
        "Ġ2",
        "0"
      ],
      [
        "Ġmod",
        "el"
      ],
      [
        "a",
        "ta"
      ],
      [
        "a",
        "in"
      ],
      [
        "g",
        "r"
      ],
      [
        "i",
        "v"
      ],
      [
        "i",
        "on"
      ],
      [
        "i",
        "th"
      ],
      [
        "i",
        "le"
      ],
      [
        "m",
        "p"
      ],
      [
        "n",
        "umber"
      ],
      [
        "q",
        "u"
      ],
      [
        "r",
        "an"
      ],
      [
        "x",
        "t"
      ],
      [
        "Ġ",
        "4"
      ],
      [
        "Ġ",
        "us"
      ],
      [
        "is",
        "t"
      ],
      [
        "Ġi",
        "t"
      ],
      [
        "or",
        "k"
      ],
      [
        "Ġs",
        "e"
      ],
      [
        "Ġd",
        "o"
      ],
      [
        "ar",
        "g"
      ],
      [
        "am",
        "e"
      ],
      [
        "Ġne",
        "tw"
      ],
      [
        "Ġex",
        "ample"
      ],
      [
        "Th",
        "ere"
      ],
      [
        "ri",
        "te"
      ],
      [
        "Ġnetw",
        "ork"
      ],
      [
        "E",
        "x"
      ],
      [
        "F",
        "or"
      ],
      [
        "W",
        "rite"
      ],
      [
        "a",
        "s"
      ],
      [
        "b",
        "le"
      ],
      [
        "f",
        "ore"
      ],
      [
        "g",
        "e"
      ],
      [
        "i",
        "z"
      ],
      [
        "o",
        "t"
      ],
      [
        "o",
        "w"
      ],
      [
        "r",
        "or"
      ],
      [
        "Ġ",
        "+"
      ],
      [
        "en",
        "ce"
      ],
      [
        "te",
        "xt"
      ],
      [
        "ĠĠ",
        "ĠĠ"
      ],
      [
        "ur",
        "al"
      ],
      [
        "ce",
        "ss"
      ],
      [
        "Ġd",
        "ata"
      ],
      [
        "Ġb",
        "e"
      ],
      [
        "Ġw",
        "ith"
      ],
      [
        "Ġl",
        "ist"
      ],
      [
        "Ġl",
        "arg"
      ],
      [
        "ent",
        "s"
      ],
      [
        "Ġne",
        "ural"
      ],
      [
        "ac",
        "h"
      ],
      [
        "Ġwh",
        "en"
      ],
      [
        "E",
        "r"
      ],
      [
        "f",
        "er"
      ],
      [
        "p",
        "s"
      ],
      [
        "s",
        "ul"
      ],
      [
        "v",
        "er"
      ],
      [
        "Ġ",
        "A"
      ],
      [
        "Ġ",
        "u"
      ],
      [
        "Ġ",
        "Ã"
      ],
      [
        "Ġ",
        "ra"
      ],
      [
        "ti",
        "m"
      ],
      [
        "ur",
        "s"
      ],
      [
        "ce",
        "p"
      ],
      [
        "Ġn",
        "ot"
      ],
      [
        "Ġre",
        "c"
      ],
      [
        "Ġre",
        "sul"
      ],
      [
        "es",
        "t"
      ],
      [
        "Ġb",
        "y"
      ],
      [
        "Ġf",
        "or"
      ],
      [
        "Th",
        "e"
      ],
      [
        "Ġper",
        "form"
      ],
      [
        "There",
        "fore"
      ],
      [
        "Er",
        "ror"
      ],
      [
        "H",
        "ow"
      ],
      [
        "a",
        "ge"
      ],
      [
        "b",
        "j"
      ],
      [
        "c",
        "h"
      ],
      [
        "c",
        "ent"
      ],
      [
        "e",
        "m"
      ],
      [
        "i",
        "g"
      ],
      [
        "p",
        "l"
      ],
      [
        "s",
        "form"
      ],
      [
        "u",
        "t"
      ],
      [
        "Ġ",
        "or"
      ],
      [
        "Ġ",
        "pos"
      ],
      [
        "Ġa",
        "t"
      ],
      [
        "re",
        "s"
      ],
      [
        "on",
        "ds"
      ],
      [
        "or",
        "ds"
      ],
      [
        "Ġs",
        "t"
      ],
      [
        "Ġs",
        "ec"
      ],
      [
        "Ġt",
        "ra"
      ],
      [
        "Ġo",
        "bj"
      ],
      [
        "Ġf",
        "ile"
      ],
      [
        "Ġnumber",
        "s"
      ],
      [
        "Ġpro",
        "gr"
      ],
      [
        "ac",
        "t"
      ],
      [
        "ation",
        "s"
      ],
      [
        "Ġlearn",
        "ing"
      ],
      [
        "Ġ20",
        "0"
      ],
      [
        "ain",
        "s"
      ],
      [
        "number",
        "s"
      ],
      [
        "ran",
        "sform"
      ],
      [
        "Ġdo",
        "es"
      ],
      [
        "ĠĠĠĠ",
        "ĠĠĠ"
      ],
      [
        "Ġlarg",
        "est"
      ],
      [
        "Ġresul",
        "t"
      ],
      [
        "Ġsec",
        "onds"
      ],
      [
        "Ġtra",
        "in"
      ],
      [
        "Ġobj",
        "ec"
      ],
      [
        "Ġprogr",
        "am"
      ],
      [
        "\"",
        ")"
      ],
      [
        "(",
        "\""
      ],
      [
        "I",
        "n"
      ],
      [
        "T",
        "ransform"
      ],
      [
        "c",
        "t"
      ],
      [
        "d",
        "d"
      ],
      [
        "d",
        "i"
      ],
      [
        "d",
        "u"
      ],
      [
        "d",
        "ate"
      ],
      [
        "g",
        "u"
      ],
      [
        "i",
        "f"
      ],
      [
        "i",
        "t"
      ],
      [
        "l",
        "le"
      ],
      [
        "o",
        "c"
      ],
      [
        "p",
        "date"
      ],
      [
        "t",
        "en"
      ],
      [
        "t",
        "er"
      ],
      [
        "y",
        "ou"
      ],
      [
        "Ġ",
        "\""
      ],
      [
        "Ġ",
        "0"
      ],
      [
        "Ġ",
        "3"
      ],
      [
        "Ġ",
        "6"
      ],
      [
        "Ġ",
        "7"
      ],
      [
        "Ġ",
        "8"
      ],
      [
        "Ġ",
        "el"
      ],
      [
        "Ġ",
        "tim"
      ],
      [
        "Ġ",
        "Transform"
      ],
      [
        "Ġ",
        "you"
      ],
      [
        "Ġa",
        "c"
      ],
      [
        "Ġa",
        "l"
      ],
      [
        "nt",
        "ains"
      ],
      [
        "el",
        "f"
      ],
      [
        "el",
        "y"
      ],
      [
        "ta",
        "tion"
      ],
      [
        "Ġi",
        "f"
      ],
      [
        "Ġi",
        "ts"
      ],
      [
        "Ġth",
        "an"
      ],
      [
        "Ġre",
        "p"
      ],
      [
        "an",
        "d"
      ],
      [
        "an",
        "gu"
      ],
      [
        "Ġp",
        "ri"
      ],
      [
        "Ġd",
        "iv"
      ],
      [
        "Ġo",
        "p"
      ],
      [
        "Ġl",
        "angu"
      ],
      [
        "Wh",
        "y"
      ],
      [
        "Ġex",
        "cep"
      ],
      [
        "Ġco",
        "lle"
      ],
      [
        "Ġco",
        "ntains"
      ],
      [
        "Ġ1",
        "0"
      ],
      [
        "Ġ1",
        "2"
      ],
      [
        "Ġpro",
        "cess"
      ],
      [
        "Ġon",
        "e"
      ],
      [
        "qu",
        "ence"
      ],
      [
        "Ġse",
        "quence"
      ],
      [
        "Ex",
        "ample"
      ],
      [
        "as",
        "e"
      ],
      [
        "iz",
        "ation"
      ],
      [
        "Ġu",
        "pdate"
      ],
      [
        "ĠÃ",
        "Ĺ"
      ],
      [
        "Ġra",
        "is"
      ],
      [
        "em",
        "ents"
      ],
      [
        "Ġpos",
        "i"
      ],
      [
        "Ġobjec",
        "ts"
      ],
      [
        "ten",
        "tion"
      ],
      [
        "Ġel",
        "ements"
      ],
      [
        "ĠTransform",
        "er"
      ],
      [
        "Ġcolle",
        "ction"
      ],
      [
        "\"",
        ","
      ],
      [
        "2",
        "5"
      ],
      [
        "V",
        "al"
      ],
      [
        "a",
        "ti"
      ],
      [
        "a",
        "ble"
      ],
      [
        "c",
        "al"
      ],
      [
        "d",
        "er"
      ],
      [
        "e",
        "g"
      ],
      [
        "i",
        "d"
      ],
      [
        "i",
        "te"
      ],
      [
        "i",
        "de"
      ],
      [
        "i",
        "mp"
      ],
      [
        "l",
        "oc"
      ],
      [
        "o",
        "m"
      ],
      [
        "o",
        "o"
      ],
      [
        "p",
        "p"
      ],
      [
        "r",
        "y"
      ],
      [
        "r",
        "ing"
      ],
      [
        "t",
        "ers"
      ],
      [
        "u",
        "re"
      ],
      [
        "u",
        "es"
      ],
      [
        "u",
        "ple"
      ],
      [
        "v",
        "e"
      ],
      [
        "v",
        "ers"
      ],
      [
        "w",
        "o"
      ],
      [
        "w",
        "er"
      ],
      [
        "y",
        "p"
      ],
      [
        "Ġ",
        "gr"
      ],
      [
        "Ġ",
        "text"
      ],
      [
        "Ġ",
        "Val"
      ],
      [
        "Ġa",
        "f"
      ],
      [
        "Ġa",
        "dd"
      ],
      [
        "en",
        "tation"
      ],
      [
        "er",
        "o"
      ],
      [
        "is",
        "ion"
      ],
      [
        "al",
        "l"
      ],
      [
        "ic",
        "tion"
      ],
      [
        "th",
        "er"
      ],
      [
        "or",
        "s"
      ],
      [
        "in",
        "e"
      ],
      [
        "at",
        "ely"
      ],
      [
        "Ġh",
        "and"
      ],
      [
        "Ġar",
        "ch"
      ],
      [
        "Ġc",
        "on"
      ],
      [
        "Ġs",
        "ta"
      ],
      [
        "Ġs",
        "imp"
      ],
      [
        "Ġp",
        "re"
      ],
      [
        "Ġt",
        "wo"
      ],
      [
        "Ġt",
        "yp"
      ],
      [
        "Ġd",
        "es"
      ],
      [
        "Ġd",
        "if"
      ],
      [
        "Ġb",
        "loc"
      ],
      [
        "ar",
        "ame"
      ],
      [
        "Ġf",
        "in"
      ],
      [
        "Ġf",
        "ro"
      ],
      [
        "Ġf",
        "act"
      ],
      [
        "Ġe",
        "ach"
      ],
      [
        "Ġl",
        "oo"
      ],
      [
        "Ġin",
        "c"
      ],
      [
        "de",
        "x"
      ],
      [
        "Ġm",
        "e"
      ],
      [
        "Ġm",
        "an"
      ],
      [
        "ue",
        "Error"
      ],
      [
        "Ġ2",
        "5"
      ],
      [
        "Ġco",
        "de"
      ],
      [
        "Ġco",
        "mp"
      ],
      [
        "Ġval",
        "ues"
      ],
      [
        "Ġreturn",
        "s"
      ],
      [
        "Ġ5",
        "0"
      ],
      [
        "Ġper",
        "cent"
      ],
      [
        "Ġse",
        "t"
      ],
      [
        "Ex",
        "pl"
      ],
      [
        "ach",
        "ine"
      ],
      [
        "fer",
        "ent"
      ],
      [
        "fer",
        "ence"
      ],
      [
        "urs",
        "ion"
      ],
      [
        "Ġrec",
        "ords"
      ],
      [
        "ig",
        "h"
      ],
      [
        "Ġtrain",
        "ing"
      ],
      [
        "Ġprogram",
        "m"
      ],
      [
        "ct",
        "ure"
      ],
      [
        "Ġac",
        "cess"
      ],
      [
        "Ġrep",
        "res"
      ],
      [
        "Ġlangu",
        "age"
      ],
      [
        "Ġexcep",
        "tion"
      ],
      [
        "Ġrais",
        "e"
      ],
      [
        "Ġposi",
        "tion"
      ],
      [
        "ite",
        "cture"
      ],
      [
        "Ġgr",
        "ou"
      ],
      [
        "ĠVal",
        "ueError"
      ],
      [
        "Ġarch",
        "itecture"
      ],
      [
        "Ġsimp",
        "ly"
      ],
      [
        "Ġdif",
        "ferent"
      ],
      [
        "Ġbloc",
        "k"
      ],
      [
        "arame",
        "ters"
      ],
      [
        "Ġfro",
        "m"
      ],
      [
        "Ġfact",
        "or"
      ],
      [
        "Expl",
        "ain"
      ],
      [
        "\"",
        ":"
      ],
      [
        "(",
        ")"
      ],
      [
        "1",
        "0"
      ],
      [
        "2",
        "0"
      ],
      [
        "4",
        "4"
      ],
      [
        "A",
        "n"
      ],
      [
        "N",
        "on"
      ],
      [
        "P",
        "I"
      ],
      [
        "a",
        "d"
      ],
      [
        "a",
        "y"
      ],
      [
        "a",
        "re"
      ],
      [
        "a",
        "ting"
      ],
      [
        "b",
        "ase"
      ],
      [
        "c",
        "c"
      ],
      [
        "c",
        "an"
      ],
      [
        "c",
        "ul"
      ],
      [
        "e",
        "e"
      ],
      [
        "e",
        "x"
      ],
      [
        "e",
        "y"
      ],
      [
        "e",
        "en"
      ],
      [
        "e",
        "igh"
      ],
      [
        "f",
        "or"
      ],
      [
        "f",
        "ers"
      ],
      [
        "f",
        "it"
      ],
      [
        "g",
        "re"
      ],
      [
        "h",
        "i"
      ],
      [
        "h",
        "ec"
      ],
      [
        "i",
        "l"
      ],
      [
        "i",
        "q"
      ],
      [
        "i",
        "able"
      ],
      [
        "k",
        "en"
      ],
      [
        "k",
        "ey"
      ],
      [
        "l",
        "u"
      ],
      [
        "l",
        "ow"
      ],
      [
        "l",
        "ations"
      ],
      [
        "m",
        "e"
      ],
      [
        "m",
        "u"
      ],
      [
        "m",
        "all"
      ],
      [
        "n",
        "s"
      ],
      [
        "n",
        "ame"
      ],
      [
        "n",
        "iq"
      ],
      [
        "o",
        "ur"
      ],
      [
        "p",
        "ec"
      ],
      [
        "p",
        "ers"
      ],
      [
        "s",
        "o"
      ],
      [
        "s",
        "t"
      ],
      [
        "s",
        "wer"
      ],
      [
        "u",
        "ting"
      ],
      [
        "v",
        "en"
      ],
      [
        "v",
        "ar"
      ],
      [
        "z",
        "ero"
      ],
      [
        "Ġ",
        "*"
      ],
      [
        "Ġ",
        "C"
      ],
      [
        "Ġ",
        "D"
      ],
      [
        "Ġ",
        "I"
      ],
      [
        "Ġ",
        "x"
      ],
      [
        "Ġ",
        "{"
      ],
      [
        "Ġ",
        "system"
      ],
      [
        "Ġ",
        "ran"
      ],
      [
        "Ġ",
        "How"
      ],
      [
        "Ġ",
        "In"
      ],
      [
        "Ġ",
        "Non"
      ],
      [
        "Ġ",
        "key"
      ],
      [
        "Ġ",
        "var"
      ],
      [
        "Ġ",
        "zero"
      ],
      [
        "Ġa",
        "s"
      ],
      [
        "Ġa",
        "ss"
      ],
      [
        "Ġa",
        "ut"
      ],
      [
        "Ġa",
        "pp"
      ],
      [
        "al",
        "ly"
      ],
      [
        "al",
        "cul"
      ],
      [
        "re",
        "ate"
      ],
      [
        "on",
        "ents"
      ],
      [
        "ta",
        "ble"
      ],
      [
        "ic",
        "h"
      ],
      [
        "Ġi",
        "m"
      ],
      [
        "te",
        "d"
      ],
      [
        "ur",
        "ing"
      ],
      [
        "ou",
        "nt"
      ],
      [
        "Ġth",
        "ere"
      ],
      [
        "in",
        "ed"
      ],
      [
        "at",
        "ter"
      ],
      [
        "at",
        "tention"
      ],
      [
        "Ġint",
        "eg"
      ],
      [
        "Ġh",
        "as"
      ],
      [
        "tem",
        "ent"
      ],
      [
        "Ġre",
        "vers"
      ],
      [
        "Ġre",
        "fers"
      ],
      [
        "Ġre",
        "lations"
      ],
      [
        "Ġc",
        "hec"
      ],
      [
        "Ġc",
        "alcul"
      ],
      [
        "Ġc",
        "ount"
      ],
      [
        "Ġs",
        "o"
      ],
      [
        "Ġs",
        "qu"
      ],
      [
        "Ġs",
        "ame"
      ],
      [
        "Ġp",
        "arameters"
      ],
      [
        "Ġt",
        "ry"
      ],
      [
        "Ġt",
        "uple"
      ],
      [
        "Ġd",
        "iction"
      ],
      [
        "Ġo",
        "ver"
      ],
      [
        "Ġo",
        "cc"
      ],
      [
        "ar",
        "y"
      ],
      [
        "Ġf",
        "e"
      ],
      [
        "Ġf",
        "our"
      ],
      [
        "Ġe",
        "ver"
      ],
      [
        "Ġw",
        "ors"
      ],
      [
        "Ġw",
        "eigh"
      ],
      [
        "Ġl",
        "ay"
      ],
      [
        "Ġan",
        "swer"
      ],
      [
        "Ġm",
        "achine"
      ],
      [
        "Ġex",
        "act"
      ],
      [
        "val",
        "id"
      ],
      [
        "Ġto",
        "ken"
      ],
      [
        "ra",
        "te"
      ],
      [
        "ra",
        "di"
      ],
      [
        "Ġ1",
        "1"
      ],
      [
        "Ġwh",
        "ile"
      ],
      [
        "Ġwh",
        "ich"
      ],
      [
        "ate",
        "s"
      ],
      [
        "tw",
        "een"
      ],
      [
        "Ġon",
        "ly"
      ],
      [
        "Ġlearn",
        "s"
      ],
      [
        "Ġlearn",
        "ed"
      ],
      [
        "iv",
        "e"
      ],
      [
        "Ġ4",
        "0"
      ],
      [
        "Ġ4",
        "2"
      ],
      [
        "Ġus",
        "e"
      ],
      [
        "Ġus",
        "es"
      ],
      [
        "Ġus",
        "ing"
      ],
      [
        "Ġus",
        "ed"
      ],
      [
        "Ġnetwork",
        "s"
      ],
      [
        "iz",
        "e"
      ],
      [
        "Ġdata",
        "base"
      ],
      [
        "Ġbe",
        "tween"
      ],
      [
        "Ġlarg",
        "er"
      ],
      [
        "ĠA",
        "PI"
      ],
      [
        "ĠÃ",
        "·"
      ],
      [
        "tim",
        "ization"
      ],
      [
        "Ġrec",
        "ursion"
      ],
      [
        "pl",
        "ic"
      ],
      [
        "Ġor",
        "der"
      ],
      [
        "Ġat",
        "tention"
      ],
      [
        "Ġst",
        "ring"
      ],
      [
        "Ġtrain",
        "ed"
      ],
      [
        "du",
        "ce"
      ],
      [
        "Ġtim",
        "e"
      ],
      [
        "Ġtim",
        "es"
      ],
      [
        "Ġal",
        "low"
      ],
      [
        "Ġal",
        "so"
      ],
      [
        "Ġits",
        "elf"
      ],
      [
        "Ġpri",
        "nt"
      ],
      [
        "Ġpri",
        "me"
      ],
      [
        "Ġdiv",
        "ide"
      ],
      [
        "Ġdiv",
        "ision"
      ],
      [
        "Ġop",
        "en"
      ],
      [
        "Ġupdate",
        "s"
      ],
      [
        "ati",
        "cal"
      ],
      [
        "Ġaf",
        "ter"
      ],
      [
        "Ġhand",
        "le"
      ],
      [
        "Ġpre",
        "d"
      ],
      [
        "Ġtyp",
        "e"
      ],
      [
        "Ġdes",
        "cent"
      ],
      [
        "Ġloo",
        "p"
      ],
      [
        "Ġinc",
        "lu"
      ],
      [
        "dex",
        "Error"
      ],
      [
        "Ġme",
        "an"
      ],
      [
        "Ġman",
        "y"
      ],
      [
        "Ġprogramm",
        "ing"
      ],
      [
        "Ġrepres",
        "entation"
      ],
      [
        "Ġgrou",
        "ps"
      ],
      [
        "Ġfactor",
        "ial"
      ],
      [
        "ee",
        "p"
      ],
      [
        "fit",
        "ting"
      ],
      [
        "hi",
        "ps"
      ],
      [
        "mall",
        "er"
      ],
      [
        "niq",
        "ue"
      ],
      [
        "pers",
        "on"
      ],
      [
        "Ġran",
        "ge"
      ],
      [
        "ĠIn",
        "dexError"
      ],
      [
        "ĠNon",
        "e"
      ],
      [
        "Ġvar",
        "iable"
      ],
      [
        "Ġapp",
        "ro"
      ],
      [
        "Ġinteg",
        "er"
      ],
      [
        "Ġrelations",
        "hips"
      ],
      [
        "Ġchec",
        "k"
      ],
      [
        "Ġcalcul",
        "ates"
      ],
      [
        "Ġdiction",
        "ary"
      ],
      [
        "Ġocc",
        "urs"
      ],
      [
        "Ġever",
        "y"
      ],
      [
        "Ġwors",
        "e"
      ],
      [
        "Ġweigh",
        "ts"
      ],
      [
        "Ġlay",
        "ers"
      ],
      [
        "Ġexact",
        "ly"
      ],
      [
        "radi",
        "ent"
      ],
      [
        "Ġorder",
        "ed"
      ],
      [
        "Ġallow",
        "s"
      ],
      [
        "\"",
        "]"
      ],
      [
        "'",
        "s"
      ],
      [
        "1",
        "44"
      ],
      [
        "5",
        "0"
      ],
      [
        ":",
        "-"
      ],
      [
        ":",
        "]"
      ],
      [
        ":",
        ":-"
      ],
      [
        "=",
        "\""
      ],
      [
        "A",
        "le"
      ],
      [
        "A",
        "dd"
      ],
      [
        "D",
        "iv"
      ],
      [
        "D",
        "eep"
      ],
      [
        "G",
        "radient"
      ],
      [
        "H",
        "ere"
      ],
      [
        "M",
        "od"
      ],
      [
        "M",
        "achine"
      ],
      [
        "N",
        "orm"
      ],
      [
        "O",
        "ver"
      ],
      [
        "R",
        "ec"
      ],
      [
        "S",
        "elf"
      ],
      [
        "T",
        "uple"
      ],
      [
        "Z",
        "ero"
      ],
      [
        "[",
        "\""
      ],
      [
        "[",
        "::-"
      ],
      [
        "]",
        "?"
      ],
      [
        "a",
        "b"
      ],
      [
        "a",
        "f"
      ],
      [
        "a",
        "g"
      ],
      [
        "a",
        "x"
      ],
      [
        "a",
        "ss"
      ],
      [
        "a",
        "th"
      ],
      [
        "a",
        "ce"
      ],
      [
        "a",
        "us"
      ],
      [
        "a",
        "de"
      ],
      [
        "a",
        "res"
      ],
      [
        "a",
        "pp"
      ],
      [
        "a",
        "il"
      ],
      [
        "b",
        "ec"
      ],
      [
        "b",
        "ab"
      ],
      [
        "c",
        "o"
      ],
      [
        "c",
        "od"
      ],
      [
        "c",
        "om"
      ],
      [
        "c",
        "reate"
      ],
      [
        "d",
        "o"
      ],
      [
        "d",
        "ing"
      ],
      [
        "d",
        "ds"
      ],
      [
        "d",
        "iv"
      ],
      [
        "e",
        "f"
      ],
      [
        "e",
        "ction"
      ],
      [
        "e",
        "de"
      ],
      [
        "e",
        "ve"
      ],
      [
        "e",
        "ther"
      ],
      [
        "e",
        "ating"
      ],
      [
        "e",
        "ven"
      ],
      [
        "f",
        "fic"
      ],
      [
        "f",
        "ec"
      ],
      [
        "f",
        "tw"
      ],
      [
        "f",
        "ile"
      ],
      [
        "f",
        "ace"
      ],
      [
        "g",
        "i"
      ],
      [
        "g",
        "an"
      ],
      [
        "g",
        "um"
      ],
      [
        "g",
        "ul"
      ],
      [
        "g",
        "radient"
      ],
      [
        "h",
        "an"
      ],
      [
        "h",
        "es"
      ],
      [
        "i",
        "m"
      ],
      [
        "i",
        "r"
      ],
      [
        "i",
        "x"
      ],
      [
        "i",
        "nt"
      ],
      [
        "i",
        "fic"
      ],
      [
        "i",
        "li"
      ],
      [
        "i",
        "ent"
      ],
      [
        "i",
        "ble"
      ],
      [
        "i",
        "ations"
      ],
      [
        "i",
        "du"
      ],
      [
        "l",
        "os"
      ],
      [
        "l",
        "ing"
      ],
      [
        "l",
        "arg"
      ],
      [
        "m",
        "s"
      ],
      [
        "m",
        "pose"
      ],
      [
        "m",
        "ec"
      ],
      [
        "m",
        "ul"
      ],
      [
        "m",
        "ains"
      ],
      [
        "m",
        "entation"
      ],
      [
        "m",
        "atter"
      ],
      [
        "n",
        "ic"
      ],
      [
        "n",
        "def"
      ],
      [
        "n",
        "ot"
      ],
      [
        "n",
        "der"
      ],
      [
        "n",
        "eg"
      ],
      [
        "n",
        "ection"
      ],
      [
        "o",
        "p"
      ],
      [
        "o",
        "x"
      ],
      [
        "o",
        "or"
      ],
      [
        "o",
        "ps"
      ],
      [
        "o",
        "ther"
      ],
      [
        "o",
        "int"
      ],
      [
        "p",
        "y"
      ],
      [
        "p",
        "re"
      ],
      [
        "p",
        "tion"
      ],
      [
        "p",
        "li"
      ],
      [
        "p",
        "ri"
      ],
      [
        "p",
        "ts"
      ],
      [
        "p",
        "ut"
      ],
      [
        "p",
        "arameters"
      ],
      [
        "p",
        "plic"
      ],
      [
        "p",
        "oint"
      ],
      [
        "r",
        "u"
      ],
      [
        "r",
        "ue"
      ],
      [
        "s",
        "k"
      ],
      [
        "s",
        "ta"
      ],
      [
        "s",
        "tant"
      ],
      [
        "s",
        "maller"
      ],
      [
        "s",
        "ible"
      ],
      [
        "s",
        "pli"
      ],
      [
        "t",
        "y"
      ],
      [
        "t",
        "is"
      ],
      [
        "t",
        "xt"
      ],
      [
        "t",
        "ry"
      ],
      [
        "u",
        "tation"
      ],
      [
        "u",
        "il"
      ],
      [
        "u",
        "table"
      ],
      [
        "u",
        "nder"
      ],
      [
        "v",
        "ent"
      ],
      [
        "v",
        "id"
      ],
      [
        "w",
        "ar"
      ],
      [
        "w",
        "ith"
      ],
      [
        "w",
        "ords"
      ],
      [
        "x",
        "im"
      ],
      [
        "Ġ",
        "%"
      ],
      [
        "Ġ",
        "("
      ],
      [
        "Ġ",
        "/"
      ],
      [
        "Ġ",
        "<"
      ],
      [
        "Ġ",
        ">"
      ],
      [
        "Ġ",
        "["
      ],
      [
        "Ġ",
        "en"
      ],
      [
        "Ġ",
        "er"
      ],
      [
        "Ġ",
        "ta"
      ],
      [
        "Ġ",
        "te"
      ],
      [
        "Ġ",
        "ou"
      ],
      [
        "Ġ",
        "end"
      ],
      [
        "Ġ",
        "qu"
      ],
      [
        "Ġ",
        "vers"
      ],
      [
        "Ġ",
        "gre"
      ],
      [
        "Ġ",
        "Zero"
      ],
      [
        "Ġ",
        "gradient"
      ],
      [
        "Ġa",
        "dds"
      ],
      [
        "Ġa",
        "pplic"
      ],
      [
        "en",
        "ting"
      ],
      [
        "en",
        "om"
      ],
      [
        "er",
        "ate"
      ],
      [
        "er",
        "ations"
      ],
      [
        "er",
        "face"
      ],
      [
        "is",
        "ors"
      ],
      [
        "is",
        "hes"
      ],
      [
        "is",
        "ms"
      ],
      [
        "nt",
        "ax"
      ],
      [
        "os",
        "s"
      ],
      [
        "al",
        "it"
      ],
      [
        "al",
        "ization"
      ],
      [
        "re",
        "ction"
      ],
      [
        "re",
        "ct"
      ],
      [
        "re",
        "ad"
      ],
      [
        "re",
        "ating"
      ],
      [
        "re",
        "mains"
      ],
      [
        "ti",
        "es"
      ],
      [
        "ti",
        "ple"
      ],
      [
        "ti",
        "cal"
      ],
      [
        "ti",
        "ve"
      ],
      [
        "el",
        "l"
      ],
      [
        "ic",
        "al"
      ],
      [
        "ic",
        "ting"
      ],
      [
        "ss",
        "ion"
      ],
      [
        "ss",
        "ive"
      ],
      [
        "th",
        "e"
      ],
      [
        "th",
        "od"
      ],
      [
        "ce",
        "du"
      ],
      [
        "or",
        "ing"
      ],
      [
        "or",
        "rect"
      ],
      [
        "ou",
        "t"
      ],
      [
        "us",
        "t"
      ],
      [
        "us",
        "able"
      ],
      [
        "Ġth",
        "is"
      ],
      [
        "in",
        "at"
      ],
      [
        "in",
        "ference"
      ],
      [
        "at",
        "s"
      ],
      [
        "at",
        "er"
      ],
      [
        "Ġint",
        "end"
      ],
      [
        "Ġint",
        "erface"
      ],
      [
        "Ġn",
        "on"
      ],
      [
        "Ġn",
        "orm"
      ],
      [
        "Ġn",
        "ame"
      ],
      [
        "Ġar",
        "gum"
      ],
      [
        "tem",
        "pts"
      ],
      [
        "sy",
        "ntax"
      ],
      [
        "Ġgener",
        "ate"
      ],
      [
        "Ġgeneral",
        "ly"
      ],
      [
        "Ġgeneral",
        "ize"
      ],
      [
        "Ġre",
        "ach"
      ],
      [
        "Ġre",
        "ad"
      ],
      [
        "Ġre",
        "duce"
      ],
      [
        "Ġre",
        "gul"
      ],
      [
        "Ġre",
        "usable"
      ],
      [
        "an",
        "ce"
      ],
      [
        "Ġc",
        "ase"
      ],
      [
        "Ġc",
        "all"
      ],
      [
        "Ġc",
        "reate"
      ],
      [
        "Ġc",
        "los"
      ],
      [
        "Ġc",
        "reating"
      ],
      [
        "Ġs",
        "um"
      ],
      [
        "Ġs",
        "elf"
      ],
      [
        "Ġs",
        "pec"
      ],
      [
        "Ġs",
        "ize"
      ],
      [
        "Ġs",
        "maller"
      ],
      [
        "Ġs",
        "af"
      ],
      [
        "Ġp",
        "atter"
      ],
      [
        "Ġp",
        "oor"
      ],
      [
        "Ġt",
        "ransform"
      ],
      [
        "Ġt",
        "rue"
      ],
      [
        "Ġd",
        "uring"
      ],
      [
        "Ġd",
        "eep"
      ],
      [
        "Ġd",
        "ef"
      ],
      [
        "Ġd",
        "enom"
      ],
      [
        "um",
        "ption"
      ],
      [
        "Ġb",
        "ran"
      ],
      [
        "Ġb",
        "as"
      ],
      [
        "Ġb",
        "ut"
      ],
      [
        "Ġb",
        "ase"
      ],
      [
        "Ġb",
        "ox"
      ],
      [
        "Ġb",
        "uil"
      ],
      [
        "ar",
        "ization"
      ],
      [
        "Ġf",
        "orm"
      ],
      [
        "Ġf",
        "ail"
      ],
      [
        "Ġf",
        "ix"
      ],
      [
        "Ġthe",
        "ir"
      ],
      [
        "Ġe",
        "mp"
      ],
      [
        "Ġe",
        "ven"
      ],
      [
        "Ġe",
        "ffic"
      ],
      [
        "Ġw",
        "rite"
      ],
      [
        "Ġw",
        "ords"
      ],
      [
        "Ġw",
        "ell"
      ],
      [
        "Ġl",
        "en"
      ],
      [
        "Ġl",
        "oss"
      ],
      [
        "Ġin",
        "form"
      ],
      [
        "Ġin",
        "dex"
      ],
      [
        "Ġin",
        "ference"
      ],
      [
        "Ġin",
        "ade"
      ],
      [
        "Ġin",
        "put"
      ],
      [
        "Ġm",
        "igh"
      ],
      [
        "Ġm",
        "ath"
      ],
      [
        "Ġm",
        "utable"
      ],
      [
        "Ġm",
        "ust"
      ],
      [
        "Ġ=",
        "="
      ],
      [
        "ec",
        "uting"
      ],
      [
        "Ġne",
        "ed"
      ],
      [
        "Ġne",
        "ver"
      ],
      [
        "Ġne",
        "ede"
      ],
      [
        "Ġex",
        "pec"
      ],
      [
        "Ġex",
        "plic"
      ],
      [
        "Ġex",
        "pre"
      ],
      [
        "Ġex",
        "ecuting"
      ],
      [
        "ple",
        "mentation"
      ],
      [
        "val",
        "ue"
      ],
      [
        "Ġco",
        "mpose"
      ],
      [
        "Ġco",
        "py"
      ],
      [
        "Ġto",
        "o"
      ],
      [
        "Th",
        "at"
      ],
      [
        "Ġ1",
        "44"
      ],
      [
        "ri",
        "eve"
      ],
      [
        "Ġret",
        "rieve"
      ],
      [
        "Ġpro",
        "ble"
      ],
      [
        "Ġpro",
        "duce"
      ],
      [
        "Ġpro",
        "bab"
      ],
      [
        "Ġpro",
        "vid"
      ],
      [
        "Ġpro",
        "cedu"
      ],
      [
        "ts",
        "ide"
      ],
      [
        "Ġwh",
        "ether"
      ],
      [
        "Ġcan",
        "not"
      ],
      [
        "Ġmod",
        "if"
      ],
      [
        "ore",
        "s"
      ],
      [
        "ore",
        "gre"
      ],
      [
        "Ġmodel",
        "s"
      ],
      [
        "mp",
        "onents"
      ],
      [
        "qu",
        "ately"
      ],
      [
        "Ġit",
        "erate"
      ],
      [
        "Ġse",
        "en"
      ],
      [
        "Ġexample",
        "s"
      ],
      [
        "iz",
        "ing"
      ],
      [
        "ror",
        "s"
      ],
      [
        "ĠĠĠĠ",
        "ĠĠĠĠĠĠĠ"
      ],
      [
        "Ġbe",
        "ing"
      ],
      [
        "Ġbe",
        "fore"
      ],
      [
        "Ġwith",
        "out"
      ],
      [
        "ĠA",
        "n"
      ],
      [
        "Ġu",
        "nique"
      ],
      [
        "Ġu",
        "ndef"
      ],
      [
        "Ġra",
        "te"
      ],
      [
        "Ġra",
        "ther"
      ],
      [
        "urs",
        "ive"
      ],
      [
        "cep",
        "t"
      ],
      [
        "cep",
        "ts"
      ],
      [
        "Ġrec",
        "ursive"
      ],
      [
        "Ġresul",
        "ting"
      ],
      [
        "Ġperform",
        "s"
      ],
      [
        "Ġperform",
        "ing"
      ],
      [
        "Ġperform",
        "ance"
      ],
      [
        "ch",
        "nique"
      ],
      [
        "em",
        "atical"
      ],
      [
        "ig",
        "n"
      ],
      [
        "ig",
        "ns"
      ],
      [
        "ut",
        "f"
      ],
      [
        "Ġor",
        "gan"
      ],
      [
        "Ġpos",
        "sible"
      ],
      [
        "Ġat",
        "tempts"
      ],
      [
        "res",
        "idu"
      ],
      [
        "Ġst",
        "rate"
      ],
      [
        "Ġst",
        "oring"
      ],
      [
        "Ġst",
        "ores"
      ],
      [
        "Ġobjec",
        "t"
      ],
      [
        "In",
        "ference"
      ],
      [
        "In",
        "valid"
      ],
      [
        "di",
        "tion"
      ],
      [
        "di",
        "rection"
      ],
      [
        "it",
        "ly"
      ],
      [
        "oc",
        "iations"
      ],
      [
        "Ġac",
        "cepts"
      ],
      [
        "Ġrep",
        "eating"
      ],
      [
        "Ġop",
        "timization"
      ],
      [
        "Ġop",
        "erations"
      ],
      [
        "Ġlangu",
        "ag"
      ],
      [
        "Ġexcep",
        "t"
      ],
      [
        "Ġprocess",
        "es"
      ],
      [
        "Ġsequence",
        "s"
      ],
      [
        "Example",
        "s"
      ],
      [
        "Ġrais",
        "es"
      ],
      [
        "Ġposi",
        "tive"
      ],
      [
        "Ġcollection",
        "s"
      ],
      [
        "ati",
        "ve"
      ],
      [
        "om",
        "atical"
      ],
      [
        "Ġaf",
        "fec"
      ],
      [
        "ision",
        "Error"
      ],
      [
        "iction",
        "s"
      ],
      [
        "Ġhand",
        "ling"
      ],
      [
        "Ġcon",
        "nection"
      ],
      [
        "Ġcon",
        "stant"
      ],
      [
        "Ġcon",
        "dition"
      ],
      [
        "Ġsta",
        "ted"
      ],
      [
        "Ġsta",
        "tement"
      ],
      [
        "Ġsta",
        "tis"
      ],
      [
        "Ġpre",
        "vent"
      ],
      [
        "Ġtyp",
        "ical"
      ],
      [
        "Ġdes",
        "igns"
      ],
      [
        "Ġfin",
        "d"
      ],
      [
        "Ġfin",
        "ds"
      ],
      [
        "Ġfin",
        "ishes"
      ],
      [
        "Ġloo",
        "ps"
      ],
      [
        "Ġinc",
        "orrect"
      ],
      [
        "Ġme",
        "thod"
      ],
      [
        "Ġman",
        "age"
      ],
      [
        "Ġcomp",
        "uting"
      ],
      [
        "Ġcomp",
        "onents"
      ],
      [
        "Ġcomp",
        "utation"
      ],
      [
        "Ġprogramm",
        "ed"
      ],
      [
        "Ġaccess",
        "ing"
      ],
      [
        "Ġrepres",
        "enting"
      ],
      [
        "Ġexception",
        "s"
      ],
      [
        "Ġposition",
        "s"
      ],
      [
        "Ġgrou",
        "p"
      ],
      [
        "Ġblock",
        "s"
      ],
      [
        "()",
        ")"
      ],
      [
        "ex",
        "ist"
      ],
      [
        "ex",
        "cept"
      ],
      [
        "for",
        "war"
      ],
      [
        "mu",
        "table"
      ],
      [
        "mu",
        "nic"
      ],
      [
        "st",
        "ring"
      ],
      [
        "st",
        "ops"
      ],
      [
        "Ġ*",
        "="
      ],
      [
        "ĠD",
        "ata"
      ],
      [
        "ĠD",
        "uring"
      ],
      [
        "ĠI",
        "f"
      ],
      [
        "Ġsystem",
        "s"
      ],
      [
        "Ġass",
        "umption"
      ],
      [
        "Ġass",
        "ociations"
      ],
      [
        "Ġaut",
        "oregre"
      ],
      [
        "Ġaut",
        "omatical"
      ],
      [
        "Ġim",
        "plementation"
      ],
      [
        "Ġim",
        "mutable"
      ],
      [
        "Ġrevers",
        "e"
      ],
      [
        "Ġrevers",
        "es"
      ],
      [
        "Ġcount",
        "s"
      ],
      [
        "Ġso",
        "ftw"
      ],
      [
        "Ġsqu",
        "are"
      ],
      [
        "Ġsqu",
        "ares"
      ],
      [
        "Ġover",
        "fitting"
      ],
      [
        "Ġfe",
        "ed"
      ],
      [
        "Ġfe",
        "wer"
      ],
      [
        "Ġtoken",
        "s"
      ],
      [
        "Ġuse",
        "ful"
      ],
      [
        "Ġdivide",
        "d"
      ],
      [
        "Ġpred",
        "icting"
      ],
      [
        "Ġpred",
        "ictions"
      ],
      [
        "Ġinclu",
        "de"
      ],
      [
        "Ġinclu",
        "ding"
      ],
      [
        "Ġrepresentation",
        "s"
      ],
      [
        "Ġappro",
        "pri"
      ],
      [
        "Ġappro",
        "xim"
      ],
      [
        "Ġcheck",
        "s"
      ],
      [
        "Ġcheck",
        "ing"
      ],
      [
        ":]",
        ":"
      ],
      [
        "Ale",
        "x"
      ],
      [
        "Div",
        "isionError"
      ],
      [
        "Mod",
        "el"
      ],
      [
        "Norm",
        "ally"
      ],
      [
        "Over",
        "fitting"
      ],
      [
        "Rec",
        "ursion"
      ],
      [
        "Tuple",
        "s"
      ],
      [
        "ass",
        "ign"
      ],
      [
        "aus",
        "e"
      ],
      [
        "app",
        "end"
      ],
      [
        "bec",
        "ause"
      ],
      [
        "co",
        "mponents"
      ],
      [
        "cod",
        "ing"
      ],
      [
        "com",
        "munic"
      ],
      [
        "create",
        "d"
      ],
      [
        "do",
        "es"
      ],
      [
        "div",
        "isors"
      ],
      [
        "gi",
        "es"
      ],
      [
        "han",
        "isms"
      ],
      [
        "ific",
        "ally"
      ],
      [
        "ili",
        "ties"
      ],
      [
        "ient",
        "ly"
      ],
      [
        "larg",
        "est"
      ],
      [
        "mec",
        "hanisms"
      ],
      [
        "mul",
        "tiple"
      ],
      [
        "neg",
        "ative"
      ],
      [
        "op",
        "timization"
      ],
      [
        "ru",
        "le"
      ],
      [
        "sta",
        "tement"
      ],
      [
        "spli",
        "t"
      ],
      [
        "Ġen",
        "coding"
      ],
      [
        "Ġer",
        "rors"
      ],
      [
        "Ġta",
        "sk"
      ],
      [
        "Ġte",
        "chnique"
      ],
      [
        "Ġou",
        "tside"
      ],
      [
        "Ġqu",
        "alit"
      ],
      [
        "Ġvers",
        "ion"
      ],
      [
        "Ġgre",
        "ater"
      ],
      [
        "ĠZero",
        "DivisionError"
      ],
      [
        "Ġapplic",
        "ations"
      ],
      [
        "inat",
        "or"
      ],
      [
        "Ġintend",
        "ed"
      ],
      [
        "Ġnorm",
        "alization"
      ],
      [
        "Ġargum",
        "ents"
      ],
      [
        "Ġreach",
        "es"
      ],
      [
        "Ġregul",
        "arization"
      ],
      [
        "Ġcall",
        "s"
      ],
      [
        "Ġclos",
        "ed"
      ],
      [
        "Ġspec",
        "ifically"
      ],
      [
        "Ġsaf",
        "ely"
      ],
      [
        "Ġpatter",
        "ns"
      ],
      [
        "Ġpoor",
        "ly"
      ],
      [
        "Ġdef",
        "ined"
      ],
      [
        "Ġdenom",
        "inator"
      ],
      [
        "Ġbran",
        "ch"
      ],
      [
        "Ġbas",
        "ed"
      ],
      [
        "Ġbuil",
        "t"
      ],
      [
        "Ġform",
        "ats"
      ],
      [
        "Ġfix",
        "ed"
      ],
      [
        "Ġemp",
        "ty"
      ],
      [
        "Ġeffic",
        "iently"
      ],
      [
        "Ġinform",
        "ation"
      ],
      [
        "Ġinade",
        "quately"
      ],
      [
        "Ġmigh",
        "t"
      ],
      [
        "Ġmath",
        "ematical"
      ],
      [
        "Ġneed",
        "s"
      ],
      [
        "Ġneede",
        "d"
      ],
      [
        "Ġexpec",
        "ted"
      ],
      [
        "Ġexplic",
        "itly"
      ],
      [
        "Ġexpre",
        "ssion"
      ],
      [
        "Ġcompose",
        "d"
      ],
      [
        "Ġproble",
        "m"
      ],
      [
        "Ġprobab",
        "ilities"
      ],
      [
        "Ġprovid",
        "es"
      ],
      [
        "Ġprocedu",
        "re"
      ],
      [
        "Ġmodif",
        "y"
      ],
      [
        "Ġundef",
        "ined"
      ],
      [
        "Ġorgan",
        "izing"
      ],
      [
        "residu",
        "al"
      ],
      [
        "Ġstrate",
        "gies"
      ],
      [
        "Ġlanguag",
        "es"
      ],
      [
        "Ġaffec",
        "ting"
      ],
      [
        "Ġconnection",
        "s"
      ],
      [
        "Ġstatis",
        "tical"
      ],
      [
        "Ġcomputation",
        "al"
      ],
      [
        "forwar",
        "d"
      ],
      [
        "Ġautoregre",
        "ssive"
      ],
      [
        "Ġautomatical",
        "ly"
      ],
      [
        "Ġsoftw",
        "are"
      ],
      [
        "Ġappropri",
        "ately"
      ],
      [
        "Ġapproxim",
        "ately"
      ],
      [
        "communic",
        "ate"
      ],
      [
        "Ġqualit",
        "y"
      ]
    ]
  }
}