{
  "version": "1.0",
  "truncation": null,
  "padding": null,
  "added_tokens": [
    {
      "id": 0,
      "content": "<pad>",
      "single_word": false,
      "lstrip": false,
      "rstrip": false,
      "normalized": false,
      "special": true
    },
    {
      "id": 1,
      "content": "<unk>",
      "single_word": false,
      "lstrip": false,
      "rstrip": false,
      "normalized": false,
      "special": true
    },
    {
      "id": 2,
      "content": "<bos>",
      "single_word": false,
      "lstrip": false,
      "rstrip": false,
      "normalized": false,
      "special": true
    },
    {
      "id": 3,
      "content": "<eos>",
      "single_word": false,
      "lstrip": false,
      "rstrip": false,
      "normalized": false,
      "special": true
    },
    {
      "id": 4,
      "content": "<system>",
      "single_word": false,
      "lstrip": false,
      "rstrip": false,
      "normalized": false,
      "special": true
    },
    {
      "id": 5,
      "content": "<user>",
      "single_word": false,
      "lstrip": false,
      "rstrip": false,
      "normalized": false,
      "special": true
    },
    {
      "id": 6,
      "content": "<assistant>",
      "single_word": false,
      "lstrip": false,
      "rstrip": false,
      "normalized": false,
      "special": true
    },
    {
      "id": 7,
      "content": "<end>",
      "single_word": false,
      "lstrip": false,
      "rstrip": false,
      "normalized": false,
      "special": true
    }
  ],
  "normalizer": null,
  "pre_tokenizer": {
    "type": "ByteLevel",
    "add_prefix_space": false,
    "trim_offsets": true,
    "use_regex": true
  },
  "post_processor": null,
  "decoder": null,
  "model": {
    "type": "BPE",
    "dropout": null,
    "unk_token": "<unk>",
    "continuing_subword_prefix": null,
    "end_of_word_suffix": null,
    "fuse_unk": false,
    "byte_fallback": false,
    "ignore_merges": false,
    "vocab": {
      "<pad>": 0,
      "<unk>": 1,
      "<bos>": 2,
      "<eos>": 3,
      "<system>": 4,
      "<user>": 5,
      "<assistant>": 6,
      "<end>": 7,
      "\"": 8,
      "%": 9,
      "(": 10,
      ")": 11,
      "*": 12,
      "+": 13,
      ",": 14,
      "-": 15,
      ".": 16,
      "0": 17,
      "1": 18,
      "2": 19,
      "3": 20,
      "4": 21,
      "5": 22,
      "6": 23,
      "7": 24,
      "8": 25,
      "9": 26,
      ":": 27,
      "<": 28,
      "=": 29,
      ">": 30,
      "?": 31,
      "A": 32,
      "C": 33,
      "D": 34,
      "E": 35,
      "F": 36,
      "G": 37,
      "H": 38,
      "I": 39,
      "L": 40,
      "M": 41,
      "N": 42,
      "O": 43,
      "P": 44,
      "R": 45,
      "T": 46,
      "V": 47,
      "W": 48,
      "Y": 49,
      "[": 50,
      "]": 51,
      "_": 52,
      "a": 53,
      "b": 54,
      "c": 55,
      "d": 56,
      "e": 57,
      "f": 58,
      "g": 59,
      "h": 60,
      "i": 61,
      "j": 62,
      "k": 63,
      "l": 64,
      "m": 65,
      "n": 66,
      "o": 67,
      "p": 68,
      "q": 69,
      "r": 70,
      "s": 71,
      "t": 72,
      "u": 73,
      "v": 74,
      "w": 75,
      "x": 76,
      "y": 77,
      "z": 78,
      "{": 79,
      "}": 80,
      "·": 81,
      "Ã": 82,
      "Ċ": 83,
      "Ġ": 84,
      "Ĺ": 85,
      "Ġa": 86,
      "en": 87,
      "er": 88,
      "in": 89,
      "st": 90,
      "al": 91,
      "an": 92,
      "re": 93,
      "os": 94,
      "at": 95,
      "el": 96,
      "ic": 97,
      "on": 98,
      "th": 99,
      "gen": 100,
      "ss": 101,
      "ist": 102,
      "ti": 103,
      "ant": 104,
      "ssist": 105,
      "ssistant": 106,
      "ĠĠ": 107,
      "Ġin": 108,
      "ce": 109,
      "Ġn": 110,
      "Ġi": 111,
      "or": 112,
      "ur": 113,
      "us": 114,
      "le": 115,
      "Ġth": 116,
      "ul": 117,
      "Ġare": 118,
      "ing": 119,
      "li": 120,
      "Ġis": 121,
      "Ġh": 122,
      "em": 123,
      "Ġc": 124,
      "Ġint": 125,
      "ed": 126,
      "ial": 127,
      "ou": 128,
      "Ġgen": 129,
      "Ġgener": 130,
      "ar": 131,
      "Ġm": 132,
      "Ġar": 133,
      "tif": 134,
      "elli": 135,
      "gence": 136,
      "Ġgeneral": 137,
      "tific": 138,
      "elligence": 139,
      "pos": 140,
      "Ġb": 141,
      "Ġintelligence": 142,
      "tificial": 143,
      "Ġartificial": 144,
      "sy": 145,
      "end": 146,
      "stem": 147,
      "elp": 148,
      "Ġhelp": 149,
      "You": 150,
      "ful": 151,
      "pur": 152,
      "ĠM": 153,
      "pose": 154,
      "system": 155,
      "purpose": 156,
      "aic": 157,
      "assistant": 158,
      "bos": 159,
      "Ġf": 160,
      "Ġassistant": 161,
      "osaic": 162,
      "user": 163,
      "Ġhelpful": 164,
      "ĠMosaic": 165,
      "es": 166,
      "Ġo": 167,
      "Ġt": 168,
      "Ġre": 169,
      "Ġp": 170,
      "et": 171,
      "Ġd": 172,
      "am": 173,
      "Ġan": 174,
      "Ġl": 175,
      "ent": 176,
      "ati": 177,
      "Ġthe": 178,
      "ation": 179,
      "ex": 180,
      "od": 181,
      "Wh": 182,
      "Ġw": 183,
      "ers": 184,
      "om": 185,
      "um": 186,
      "ĠĠĠ": 187,
      "Py": 188,
      "thon": 189,
      "tion": 190,
      "Ġmod": 191,
      "What": 192,
      "umb": 193,
      "Python": 194,
      "ct": 195,
      "ge": 196,
      "ra": 197,
      "Ġand": 198,
      "ut": 199,
      "Ġmodel": 200,
      "ple": 201,
      "ĠPython": 202,
      "orm": 203,
      "etw": 204,
      "it": 205,
      "ly": 206,
      "val": 207,
      "Ġthat": 208,
      "Ġof": 209,
      "Ġnumb": 210,
      "form": 211,
      "iz": 212,
      "Ġ=": 213,
      "Ġs": 214,
      "Ġus": 215,
      "id": 216,
      "ata": 217,
      "Ġne": 218,
      "Ġnetw": 219,
      "ork": 220,
      "Ġcan": 221,
      "Ġto": 222,
      "ext": 223,
      "Ġnetwork": 224,
      "Ġ1": 225,
      "Ġval": 226,
      "Ġpr": 227,
      "Ġdata": 228,
      "Ġnumber": 229,
      "ch": 230,
      "gu": 231,
      "Ġst": 232,
      "Ġex": 233,
      "ural": 234,
      "Ġcom": 235,
      "rain": 236,
      "age": 237,
      "ect": 238,
      "put": 239,
      "angu": 240,
      "Ġbe": 241,
      "ample": 242,
      "Ġlangu": 243,
      "Ġneural": 244,
      "raining": 245,
      "Th": 246,
      "ction": 247,
      "Ġle": 248,
      "arn": 249,
      "Ġby": 250,
      "Ġfor": 251,
      "Ġlar": 252,
      "Ġwh": 253,
      "Ġlanguage": 254,
      "as": 255,
      "is": 256,
      "ith": 257,
      "ile": 258,
      "ot": 259,
      "pre": 260,
      "ran": 261,
      "ue": 262,
      "un": 263,
      "ĠI": 264,
      "Ġon": 265,
      "aram": 266,
      "Ġop": 267,
      "ents": 268,
      "entation": 269,
      "Ġpro": 270,
      "Ġlearn": 271,
      "aramet": 272,
      "ab": 273,
      "de": 274,
      "di": 275,
      "ow": 276,
      "ts": 277,
      "Ġg": 278,
      "erform": 279,
      "ates": 280,
      "ĠĠĠĠ": 281,
      "Ġnot": 282,
      "Ġfun": 283,
      "Ġtraining": 284,
      "Ġdi": 285,
      "Ġlarge": 286,
      "Ġfunction": 287,
      "):": 288,
      "Ex": 289,
      "bj": 290,
      "ep": 291,
      "fer": 292,
      "ore": 293,
      "pd": 294,
      "sform": 295,
      "ter": 296,
      "text": 297,
      "upd": 298,
      "ver": 299,
      "Ġe": 300,
      "ence": 301,
      "ere": 302,
      "ate": 303,
      "Ġobj": 304,
      "ame": 305,
      "Ġwith": 306,
      "radi": 307,
      "Ġstat": 308,
      "pres": 309,
      "ransform": 310,
      "arameters": 311,
      "able": 312,
      "Example": 313,
      "Ġobject": 314,
      "Transform": 315,
      "act": 316,
      "ger": 317,
      "ken": 318,
      "miz": 319,
      "numb": 320,
      "oc": 321,
      "qu": 322,
      "rom": 323,
      "tur": 324,
      "ues": 325,
      "ve": 326,
      "Ġ\"": 327,
      "Ġ8": 328,
      "ĠA": 329,
      "Ġk": 330,
      "Ġupd": 331,
      "Ġal": 332,
      "Ġas": 333,
      "and": 334,
      "ated": 335,
      "timiz": 336,
      "cep": 337,
      "cess": 338,
      "Ġcon": 339,
      "Ġfile": 340,
      "Ġfrom": 341,
      "Ġtext": 342,
      "Ġres": 343,
      "Ġrepres": 344,
      "Ġretur": 345,
      "Ġperform": 346,
      "Ġusing": 347,
      "Ġused": 348,
      "idation": 349,
      "Ġnetworks": 350,
      "Ġvalue": 351,
      "Ġcomput": 352,
      "Ġoptimiz": 353,
      "Ġlearning": 354,
      "def": 355,
      "ĠĠĠĠĠĠĠ": 356,
      "Ġlargest": 357,
      "Ġreturn": 358,
      "\")": 359,
      "(\"": 360,
      "Val": 361,
      "Wr": 362,
      "ad": 363,
      "ay": 364,
      "ach": 365,
      "een": 366,
      "me": 367,
      "nt": 368,
      "ps": 369,
      "ring": 370,
      "tt": 371,
      "ting": 372,
      "vid": 373,
      "Ġ2": 374,
      "ĠTransform": 375,
      "ention": 376,
      "ine": 377,
      "ally": 378,
      "iction": 379,
      "Ġim": 380,
      "ulti": 381,
      "ement": 382,
      "Ġbetw": 383,
      "Ġparameters": 384,
      "ite": 385,
      "Ġ12": 386,
      "Ġvalidation": 387,
      "Ġexample": 388,
      "The": 389,
      "ĠIt": 390,
      "entations": 391,
      "Ġgradi": 392,
      "ference": 393,
      "Ġstatement": 394,
      "Ġobjects": 395,
      "numbers": 396,
      "Ġupdates": 397,
      "Ġresul": 398,
      "Write": 399,
      "ttention": 400,
      "ĠTransformer": 401,
      "Ġbetween": 402,
      "\",": 403,
      "Dur": 404,
      "Er": 405,
      "How": 406,
      "ap": 407,
      "com": 408,
      "ec": 409,
      "ean": 410,
      "eger": 411,
      "fit": 412,
      "gn": 413,
      "ian": 414,
      "ks": 415,
      "lation": 416,
      "loc": 417,
      "pli": 418,
      "ror": 419,
      "to": 420,
      "ure": 421,
      "Ġ5": 422,
      "ĠC": 423,
      "ĠÃ": 424,
      "Ġor": 425,
      "ĠVal": 426,
      "ĠDur": 427,
      "Ġac": 428,
      "Ġad": 429,
      "Ġaf": 430,
      "Ġattention": 431,
      "rect": 432,
      "ical": 433,
      "Ġinc": 434,
      "Ġinference": 435,
      "Ġnorm": 436,
      "Ġif": 437,
      "Ġits": 438,
      "ements": 439,
      "Ġinteger": 440,
      "edian": 441,
      "ount": 442,
      "ari": 443,
      "Ġmulti": 444,
      "Ġmean": 445,
      "Ġmedian": 446,
      "Ġarch": 447,
      "Ġbut": 448,
      "Ġbloc": 449,
      "Ġfin": 450,
      "Ġref": 451,
      "Ġpre": 452,
      "Ġdo": 453,
      "Ġlist": 454,
      "Why": 455,
      "Ġmodels": 456,
      "plem": 457,
      "itect": 458,
      "Ġnumbers": 459,
      "ization": 460,
      "Ġuses": 461,
      "Ġtoken": 462,
      "Ġvalues": 463,
      "Ġstring": 464,
      "Ġexact": 465,
      "Ġexcep": 466,
      "Ġwhen": 467,
      "ueEr": 468,
      "Ġprocess": 469,
      "Ġdif": 470,
      "verfit": 471,
      "Ġoptimizer": 472,
      "achine": 473,
      "Ġimplem": 474,
      "Ġexamples": 475,
      "Ġgradients": 476,
      "Ġresult": 477,
      "ĠValueEr": 478,
      "ĠDuring": 479,
      "Ġarchitect": 480,
      "Ġexactly": 481,
      "verfitting": 482,
      "ĠValueError": 483,
      "Ġarchitecture": 484,
      "\":": 485,
      "()": 486,
      "40": 487,
      "44": 488,
      "Training": 489,
      "ain": 490,
      "aus": 491,
      "cur": 492,
      "cul": 493,
      "ds": 494,
      "ding": 495,
      "des": 496,
      "dam": 497,
      "diction": 498,
      "ev": 499,
      "ey": 500,
      "eth": 501,
      "eep": 502,
      "equ": 503,
      "fore": 504,
      "gh": 505,
      "gr": 506,
      "hi": 507,
      "ime": 508,
      "igh": 509,
      "ms": 510,
      "mon": 511,
      "ne": 512,
      "ns": 513,
      "name": 514,
      "ol": 515,
      "pp": 516,
      "pr": 517,
      "pers": 518,
      "perform": 519,
      "parameters": 520,
      "ry": 521,
      "rou": 522,
      "so": 523,
      "shi": 524,
      "ty": 525,
      "tain": 526,
      "ust": 527,
      "uce": 528,
      "uch": 529,
      "ude": 530,
      "vers": 531,
      "vari": 532,
      "with": 533,
      "Ġ+": 534,
      "Ġ0": 535,
      "Ġ3": 536,
      "Ġel": 537,
      "Ġli": 538,
      "Ġra": 539,
      "Ġqu": 540,
      "ĠThe": 541,
      "Ġ40": 542,
      "Ġvari": 543,
      "Ġass": 544,
      "Ġaut": 545,
      "ern": 546,
      "int": 547,
      "alcul": 548,
      "any": 549,
      "ance": 550,
      "reat": 551,
      "oss": 552,
      "atter": 553,
      "ell": 554,
      "ich": 555,
      "the": 556,
      "istical": 557,
      "Ġinput": 558,
      "Ġname": 559,
      "orial": 560,
      "lev": 561,
      "Ġthan": 562,
      "Ġthere": 563,
      "ular": 564,
      "lipp": 565,
      "Ġhas": 566,
      "Ġhow": 567,
      "Ġhand": 568,
      "Ġcap": 569,
      "Ġcount": 570,
      "Ġcalcul": 571,
      "Ġclipp": 572,
      "ary": 573,
      "Ġma": 574,
      "Ġmore": 575,
      "Ġmachine": 576,
      "Ġgenerally": 577,
      "posi": 578,
      "Ġbo": 579,
      "Ġbet": 580,
      "Ġbas": 581,
      "Ġfi": 582,
      "Ġfact": 583,
      "Ġoverfitting": 584,
      "Ġtas": 585,
      "Ġread": 586,
      "Ġrelation": 587,
      "Ġrevers": 588,
      "Ġpar": 589,
      "Ġpatter": 590,
      "Ġdiction": 591,
      "amm": 592,
      "Ġlay": 593,
      "Ġloss": 594,
      "ational": 595,
      "ode": 596,
      "Ġwor": 597,
      "ity": 598,
      "values": 599,
      "izer": 600,
      "Ġset": 601,
      "Ġsame": 602,
      "Ġsuch": 603,
      "Ġneed": 604,
      "Ġ10": 605,
      "Ġprime": 606,
      "Ġcomp": 607,
      "Ġcommon": 608,
      "That": 609,
      "There": 610,
      "Ġlarger": 611,
      "Ġwheth": 612,
      "Ġwhich": 613,
      "ise": 614,
      "prediction": 615,
      "Ġopen": 616,
      "Ġprovid": 617,
      "Ġprogr": 618,
      "arameter": 619,
      "Ġgrou": 620,
      "Ġdivid": 621,
      "Ġdirect": 622,
      "ept": 623,
      "ferent": 624,
      "very": 625,
      "Ġstatistical": 626,
      "oci": 627,
      "ĠAdam": 628,
      "Ġkey": 629,
      "Ġkept": 630,
      "Ġalso": 631,
      "cept": 632,
      "cessed": 633,
      "Ġcontain": 634,
      "Ġrepresentation": 635,
      "Ġrepresentations": 636,
      "Ġcomputing": 637,
      "Ġcomputational": 638,
      "plit": 639,
      "token": 640,
      "ĠÃĹ": 641,
      "Ġafter": 642,
      "Ġnormally": 643,
      "Ġmultiple": 644,
      "Ġblock": 645,
      "Ġrefers": 646,
      "Ġtokenizer": 647,
      "Ġexception": 648,
      "Ġdifferent": 649,
      "Ġimplementation": 650,
      "equence": 651,
      "pro": 652,
      "person": 653,
      "ships": 654,
      "Ġelements": 655,
      "Ġraise": 656,
      "Ġvariable": 657,
      "Ġassoci": 658,
      "Ġhandle": 659,
      "Ġclipping": 660,
      "Ġbetter": 661,
      "Ġbased": 662,
      "Ġfactorial": 663,
      "Ġrelationships": 664,
      "Ġpatterns": 665,
      "Ġdictionary": 666,
      "Ġlayers": 667,
      "Ġcommonly": 668,
      "Ġwhether": 669,
      "predictions": 670,
      "Ġprovides": 671,
      "Ġprogramm": 672,
      "Ġgroups": 673,
      "Ġdirectly": 674
    },
    "merges": [
      [
        "Ġ",
        "a"
      ],
      [
        "e",
        "n"
      ],
      [
        "e",
        "r"
      ],
      [
        "i",
        "n"
      ],
      [
        "s",
        "t"
      ],
      [
        "a",
        "l"
      ],
      [
        "a",
        "n"
      ],
      [
        "r",
        "e"
      ],
      [
        "o",
        "s"
      ],
      [
        "a",
        "t"
      ],
      [
        "e",
        "l"
      ],
      [
        "i",
        "c"
      ],
      [
        "o",
        "n"
      ],
      [
        "t",
        "h"
      ],
      [
        "g",
        "en"
      ],
      [
        "s",
        "s"
      ],
      [
        "i",
        "st"
      ],
      [
        "t",
        "i"
      ],
      [
        "an",
        "t"
      ],
      [
        "ss",
        "ist"
      ],
      [
        "ssist",
        "ant"
      ],
      [
        "Ġ",
        "Ġ"
      ],
      [
        "Ġ",
        "in"
      ],
      [
        "c",
        "e"
      ],
      [
        "Ġ",
        "n"
      ],
      [
        "Ġ",
        "i"
      ],
      [
        "o",
        "r"
      ],
      [
        "u",
        "r"
      ],
      [
        "u",
        "s"
      ],
      [
        "l",
        "e"
      ],
      [
        "Ġ",
        "th"
      ],
      [
        "u",
        "l"
      ],
      [
        "Ġa",
        "re"
      ],
      [
        "in",
        "g"
      ],
      [
        "l",
        "i"
      ],
      [
        "Ġi",
        "s"
      ],
      [
        "Ġ",
        "h"
      ],
      [
        "e",
        "m"
      ],
      [
        "Ġ",
        "c"
      ],
      [
        "Ġin",
        "t"
      ],
      [
        "e",
        "d"
      ],
      [
        "i",
        "al"
      ],
      [
        "o",
        "u"
      ],
      [
        "Ġ",
        "gen"
      ],
      [
        "Ġgen",
        "er"
      ],
      [
        "a",
        "r"
      ],
      [
        "Ġ",
        "m"
      ],
      [
        "Ġa",
        "r"
      ],
      [
        "ti",
        "f"
      ],
      [
        "el",
        "li"
      ],
      [
        "gen",
        "ce"
      ],
      [
        "Ġgener",
        "al"
      ],
      [
        "tif",
        "ic"
      ],
      [
        "elli",
        "gence"
      ],
      [
        "p",
        "os"
      ],
      [
        "Ġ",
        "b"
      ],
      [
        "Ġint",
        "elligence"
      ],
      [
        "tific",
        "ial"
      ],
      [
        "Ġar",
        "tificial"
      ],
      [
        "s",
        "y"
      ],
      [
        "en",
        "d"
      ],
      [
        "st",
        "em"
      ],
      [
        "el",
        "p"
      ],
      [
        "Ġh",
        "elp"
      ],
      [
        "Y",
        "ou"
      ],
      [
        "f",
        "ul"
      ],
      [
        "p",
        "ur"
      ],
      [
        "Ġ",
        "M"
      ],
      [
        "pos",
        "e"
      ],
      [
        "sy",
        "stem"
      ],
      [
        "pur",
        "pose"
      ],
      [
        "a",
        "ic"
      ],
      [
        "a",
        "ssistant"
      ],
      [
        "b",
        "os"
      ],
      [
        "Ġ",
        "f"
      ],
      [
        "Ġa",
        "ssistant"
      ],
      [
        "os",
        "aic"
      ],
      [
        "us",
        "er"
      ],
      [
        "Ġhelp",
        "ful"
      ],
      [
        "ĠM",
        "osaic"
      ],
      [
        "e",
        "s"
      ],
      [
        "Ġ",
        "o"
      ],
      [
        "Ġ",
        "t"
      ],
      [
        "Ġ",
        "re"
      ],
      [
        "Ġ",
        "p"
      ],
      [
        "e",
        "t"
      ],
      [
        "Ġ",
        "d"
      ],
      [
        "a",
        "m"
      ],
      [
        "Ġa",
        "n"
      ],
      [
        "Ġ",
        "l"
      ],
      [
        "en",
        "t"
      ],
      [
        "at",
        "i"
      ],
      [
        "Ġth",
        "e"
      ],
      [
        "ati",
        "on"
      ],
      [
        "e",
        "x"
      ],
      [
        "o",
        "d"
      ],
      [
        "W",
        "h"
      ],
      [
        "Ġ",
        "w"
      ],
      [
        "er",
        "s"
      ],
      [
        "o",
        "m"
      ],
      [
        "u",
        "m"
      ],
      [
        "ĠĠ",
        "Ġ"
      ],
      [
        "P",
        "y"
      ],
      [
        "th",
        "on"
      ],
      [
        "ti",
        "on"
      ],
      [
        "Ġm",
        "od"
      ],
      [
        "Wh",
        "at"
      ],
      [
        "um",
        "b"
      ],
      [
        "Py",
        "thon"
      ],
      [
        "c",
        "t"
      ],
      [
        "g",
        "e"
      ],
      [
        "r",
        "a"
      ],
      [
        "Ġan",
        "d"
      ],
      [
        "u",
        "t"
      ],
      [
        "Ġmod",
        "el"
      ],
      [
        "p",
        "le"
      ],
      [
        "Ġ",
        "Python"
      ],
      [
        "or",
        "m"
      ],
      [
        "et",
        "w"
      ],
      [
        "i",
        "t"
      ],
      [
        "l",
        "y"
      ],
      [
        "v",
        "al"
      ],
      [
        "Ġth",
        "at"
      ],
      [
        "Ġo",
        "f"
      ],
      [
        "Ġn",
        "umb"
      ],
      [
        "f",
        "orm"
      ],
      [
        "i",
        "z"
      ],
      [
        "Ġ",
        "="
      ],
      [
        "Ġ",
        "s"
      ],
      [
        "Ġ",
        "us"
      ],
      [
        "i",
        "d"
      ],
      [
        "at",
        "a"
      ],
      [
        "Ġn",
        "e"
      ],
      [
        "Ġn",
        "etw"
      ],
      [
        "or",
        "k"
      ],
      [
        "Ġc",
        "an"
      ],
      [
        "Ġt",
        "o"
      ],
      [
        "ex",
        "t"
      ],
      [
        "Ġnetw",
        "ork"
      ],
      [
        "Ġ",
        "1"
      ],
      [
        "Ġ",
        "val"
      ],
      [
        "Ġp",
        "r"
      ],
      [
        "Ġd",
        "ata"
      ],
      [
        "Ġnumb",
        "er"
      ],
      [
        "c",
        "h"
      ],
      [
        "g",
        "u"
      ],
      [
        "Ġ",
        "st"
      ],
      [
        "Ġ",
        "ex"
      ],
      [
        "ur",
        "al"
      ],
      [
        "Ġc",
        "om"
      ],
      [
        "ra",
        "in"
      ],
      [
        "a",
        "ge"
      ],
      [
        "e",
        "ct"
      ],
      [
        "p",
        "ut"
      ],
      [
        "an",
        "gu"
      ],
      [
        "Ġb",
        "e"
      ],
      [
        "am",
        "ple"
      ],
      [
        "Ġl",
        "angu"
      ],
      [
        "Ġne",
        "ural"
      ],
      [
        "rain",
        "ing"
      ],
      [
        "T",
        "h"
      ],
      [
        "c",
        "tion"
      ],
      [
        "Ġ",
        "le"
      ],
      [
        "ar",
        "n"
      ],
      [
        "Ġb",
        "y"
      ],
      [
        "Ġf",
        "or"
      ],
      [
        "Ġl",
        "ar"
      ],
      [
        "Ġw",
        "h"
      ],
      [
        "Ġlangu",
        "age"
      ],
      [
        "a",
        "s"
      ],
      [
        "i",
        "s"
      ],
      [
        "i",
        "th"
      ],
      [
        "i",
        "le"
      ],
      [
        "o",
        "t"
      ],
      [
        "p",
        "re"
      ],
      [
        "r",
        "an"
      ],
      [
        "u",
        "e"
      ],
      [
        "u",
        "n"
      ],
      [
        "Ġ",
        "I"
      ],
      [
        "Ġ",
        "on"
      ],
      [
        "ar",
        "am"
      ],
      [
        "Ġo",
        "p"
      ],
      [
        "ent",
        "s"
      ],
      [
        "ent",
        "ation"
      ],
      [
        "Ġpr",
        "o"
      ],
      [
        "Ġle",
        "arn"
      ],
      [
        "aram",
        "et"
      ],
      [
        "a",
        "b"
      ],
      [
        "d",
        "e"
      ],
      [
        "d",
        "i"
      ],
      [
        "o",
        "w"
      ],
      [
        "t",
        "s"
      ],
      [
        "Ġ",
        "g"
      ],
      [
        "er",
        "form"
      ],
      [
        "at",
        "es"
      ],
      [
        "ĠĠ",
        "ĠĠ"
      ],
      [
        "Ġn",
        "ot"
      ],
      [
        "Ġf",
        "un"
      ],
      [
        "Ġt",
        "raining"
      ],
      [
        "Ġd",
        "i"
      ],
      [
        "Ġlar",
        "ge"
      ],
      [
        "Ġfun",
        "ction"
      ],
      [
        ")",
        ":"
      ],
      [
        "E",
        "x"
      ],
      [
        "b",
        "j"
      ],
      [
        "e",
        "p"
      ],
      [
        "f",
        "er"
      ],
      [
        "o",
        "re"
      ],
      [
        "p",
        "d"
      ],
      [
        "s",
        "form"
      ],
      [
        "t",
        "er"
      ],
      [
        "t",
        "ext"
      ],
      [
        "u",
        "pd"
      ],
      [
        "v",
        "er"
      ],
      [
        "Ġ",
        "e"
      ],
      [
        "en",
        "ce"
      ],
      [
        "er",
        "e"
      ],
      [
        "at",
        "e"
      ],
      [
        "Ġo",
        "bj"
      ],
      [
        "am",
        "e"
      ],
      [
        "Ġw",
        "ith"
      ],
      [
        "ra",
        "di"
      ],
      [
        "Ġst",
        "at"
      ],
      [
        "pre",
        "s"
      ],
      [
        "ran",
        "sform"
      ],
      [
        "aramet",
        "ers"
      ],
      [
        "ab",
        "le"
      ],
      [
        "Ex",
        "ample"
      ],
      [
        "Ġobj",
        "ect"
      ],
      [
        "T",
        "ransform"
      ],
      [
        "a",
        "ct"
      ],
      [
        "g",
        "er"
      ],
      [
        "k",
        "en"
      ],
      [
        "m",
        "iz"
      ],
      [
        "n",
        "umb"
      ],
      [
        "o",
        "c"
      ],
      [
        "q",
        "u"
      ],
      [
        "r",
        "om"
      ],
      [
        "t",
        "ur"
      ],
      [
        "u",
        "es"
      ],
      [
        "v",
        "e"
      ],
      [
        "Ġ",
        "\""
      ],
      [
        "Ġ",
        "8"
      ],
      [
        "Ġ",
        "A"
      ],
      [
        "Ġ",
        "k"
      ],
      [
        "Ġ",
        "upd"
      ],
      [
        "Ġa",
        "l"
      ],
      [
        "Ġa",
        "s"
      ],
      [
        "an",
        "d"
      ],
      [
        "at",
        "ed"
      ],
      [
        "ti",
        "miz"
      ],
      [
        "ce",
        "p"
      ],
      [
        "ce",
        "ss"
      ],
      [
        "Ġc",
        "on"
      ],
      [
        "Ġf",
        "ile"
      ],
      [
        "Ġf",
        "rom"
      ],
      [
        "Ġt",
        "ext"
      ],
      [
        "Ġre",
        "s"
      ],
      [
        "Ġre",
        "pres"
      ],
      [
        "Ġre",
        "tur"
      ],
      [
        "Ġp",
        "erform"
      ],
      [
        "Ġus",
        "ing"
      ],
      [
        "Ġus",
        "ed"
      ],
      [
        "id",
        "ation"
      ],
      [
        "Ġnetwork",
        "s"
      ],
      [
        "Ġval",
        "ue"
      ],
      [
        "Ġcom",
        "put"
      ],
      [
        "Ġop",
        "timiz"
      ],
      [
        "Ġlearn",
        "ing"
      ],
      [
        "de",
        "f"
      ],
      [
        "ĠĠĠĠ",
        "ĠĠĠ"
      ],
      [
        "Ġlarge",
        "st"
      ],
      [
        "Ġretur",
        "n"
      ],
      [
        "\"",
        ")"
      ],
      [
        "(",
        "\""
      ],
      [
        "V",
        "al"
      ],
      [
        "W",
        "r"
      ],
      [
        "a",
        "d"
      ],
      [
        "a",
        "y"
      ],
      [
        "a",
        "ch"
      ],
      [
        "e",
        "en"
      ],
      [
        "m",
        "e"
      ],
      [
        "n",
        "t"
      ],
      [
        "p",
        "s"
      ],
      [
        "r",
        "ing"
      ],
      [
        "t",
        "t"
      ],
      [
        "t",
        "ing"
      ],
      [
        "v",
        "id"
      ],
      [
        "Ġ",
        "2"
      ],
      [
        "Ġ",
        "Transform"
      ],
      [
        "en",
        "tion"
      ],
      [
        "in",
        "e"
      ],
      [
        "al",
        "ly"
      ],
      [
        "ic",
        "tion"
      ],
      [
        "Ġi",
        "m"
      ],
      [
        "ul",
        "ti"
      ],
      [
        "em",
        "ent"
      ],
      [
        "Ġb",
        "etw"
      ],
      [
        "Ġp",
        "arameters"
      ],
      [
        "it",
        "e"
      ],
      [
        "Ġ1",
        "2"
      ],
      [
        "Ġval",
        "idation"
      ],
      [
        "Ġex",
        "ample"
      ],
      [
        "Th",
        "e"
      ],
      [
        "ĠI",
        "t"
      ],
      [
        "entation",
        "s"
      ],
      [
        "Ġg",
        "radi"
      ],
      [
        "fer",
        "ence"
      ],
      [
        "Ġstat",
        "ement"
      ],
      [
        "Ġobject",
        "s"
      ],
      [
        "numb",
        "ers"
      ],
      [
        "Ġupd",
        "ates"
      ],
      [
        "Ġres",
        "ul"
      ],
      [
        "Wr",
        "ite"
      ],
      [
        "tt",
        "ention"
      ],
      [
        "ĠTransform",
        "er"
      ],
      [
        "Ġbetw",
        "een"
      ],
      [
        "\"",
        ","
      ],
      [
        "D",
        "ur"
      ],
      [
        "E",
        "r"
      ],
      [
        "H",
        "ow"
      ],
      [
        "a",
        "p"
      ],
      [
        "c",
        "om"
      ],
      [
        "e",
        "c"
      ],
      [
        "e",
        "an"
      ],
      [
        "e",
        "ger"
      ],
      [
        "f",
        "it"
      ],
      [
        "g",
        "n"
      ],
      [
        "i",
        "an"
      ],
      [
        "k",
        "s"
      ],
      [
        "l",
        "ation"
      ],
      [
        "l",
        "oc"
      ],
      [
        "p",
        "li"
      ],
      [
        "r",
        "or"
      ],
      [
        "t",
        "o"
      ],
      [
        "u",
        "re"
      ],
      [
        "Ġ",
        "5"
      ],
      [
        "Ġ",
        "C"
      ],
      [
        "Ġ",
        "Ã"
      ],
      [
        "Ġ",
        "or"
      ],
      [
        "Ġ",
        "Val"
      ],
      [
        "Ġ",
        "Dur"
      ],
      [
        "Ġa",
        "c"
      ],
      [
        "Ġa",
        "d"
      ],
      [
        "Ġa",
        "f"
      ],
      [
        "Ġa",
        "ttention"
      ],
      [
        "re",
        "ct"
      ],
      [
        "ic",
        "al"
      ],
      [
        "Ġin",
        "c"
      ],
      [
        "Ġin",
        "ference"
      ],
      [
        "Ġn",
        "orm"
      ],
      [
        "Ġi",
        "f"
      ],
      [
        "Ġi",
        "ts"
      ],
      [
        "em",
        "ents"
      ],
      [
        "Ġint",
        "eger"
      ],
      [
        "ed",
        "ian"
      ],
      [
        "ou",
        "nt"
      ],
      [
        "ar",
        "i"
      ],
      [
        "Ġm",
        "ulti"
      ],
      [
        "Ġm",
        "ean"
      ],
      [
        "Ġm",
        "edian"
      ],
      [
        "Ġar",
        "ch"
      ],
      [
        "Ġb",
        "ut"
      ],
      [
        "Ġb",
        "loc"
      ],
      [
        "Ġf",
        "in"
      ],
      [
        "Ġre",
        "f"
      ],
      [
        "Ġp",
        "re"
      ],
      [
        "Ġd",
        "o"
      ],
      [
        "Ġl",
        "ist"
      ],
      [
        "Wh",
        "y"
      ],
      [
        "Ġmodel",
        "s"
      ],
      [
        "ple",
        "m"
      ],
      [
        "it",
        "ect"
      ],
      [
        "Ġnumb",
        "ers"
      ],
      [
        "iz",
        "ation"
      ],
      [
        "Ġus",
        "es"
      ],
      [
        "Ġto",
        "ken"
      ],
      [
        "Ġval",
        "ues"
      ],
      [
        "Ġst",
        "ring"
      ],
      [
        "Ġex",
        "act"
      ],
      [
        "Ġex",
        "cep"
      ],
      [
        "Ġwh",
        "en"
      ],
      [
        "ue",
        "Er"
      ],
      [
        "Ġpro",
        "cess"
      ],
      [
        "Ġdi",
        "f"
      ],
      [
        "ver",
        "fit"
      ],
      [
        "Ġoptimiz",
        "er"
      ],
      [
        "ach",
        "ine"
      ],
      [
        "Ġim",
        "plem"
      ],
      [
        "Ġexample",
        "s"
      ],
      [
        "Ġgradi",
        "ents"
      ],
      [
        "Ġresul",
        "t"
      ],
      [
        "ĠVal",
        "ueEr"
      ],
      [
        "ĠDur",
        "ing"
      ],
      [
        "Ġarch",
        "itect"
      ],
      [
        "Ġexact",
        "ly"
      ],
      [
        "verfit",
        "ting"
      ],
      [
        "ĠValueEr",
        "ror"
      ],
      [
        "Ġarchitect",
        "ure"
      ],
      [
        "\"",
        ":"
      ],
      [
        "(",
        ")"
      ],
      [
        "4",
        "0"
      ],
      [
        "4",
        "4"
      ],
      [
        "T",
        "raining"
      ],
      [
        "a",
        "in"
      ],
      [
        "a",
        "us"
      ],
      [
        "c",
        "ur"
      ],
      [
        "c",
        "ul"
      ],
      [
        "d",
        "s"
      ],
      [
        "d",
        "ing"
      ],
      [
        "d",
        "es"
      ],
      [
        "d",
        "am"
      ],
      [
        "d",
        "iction"
      ],
      [
        "e",
        "v"
      ],
      [
        "e",
        "y"
      ],
      [
        "e",
        "th"
      ],
      [
        "e",
        "ep"
      ],
      [
        "e",
        "qu"
      ],
      [
        "f",
        "ore"
      ],
      [
        "g",
        "h"
      ],
      [
        "g",
        "r"
      ],
      [
        "h",
        "i"
      ],
      [
        "i",
        "me"
      ],
      [
        "i",
        "gh"
      ],
      [
        "m",
        "s"
      ],
      [
        "m",
        "on"
      ],
      [
        "n",
        "e"
      ],
      [
        "n",
        "s"
      ],
      [
        "n",
        "ame"
      ],
      [
        "o",
        "l"
      ],
      [
        "p",
        "p"
      ],
      [
        "p",
        "r"
      ],
      [
        "p",
        "ers"
      ],
      [
        "p",
        "erform"
      ],
      [
        "p",
        "arameters"
      ],
      [
        "r",
        "y"
      ],
      [
        "r",
        "ou"
      ],
      [
        "s",
        "o"
      ],
      [
        "s",
        "hi"
      ],
      [
        "t",
        "y"
      ],
      [
        "t",
        "ain"
      ],
      [
        "u",
        "st"
      ],
      [
        "u",
        "ce"
      ],
      [
        "u",
        "ch"
      ],
      [
        "u",
        "de"
      ],
      [
        "v",
        "ers"
      ],
      [
        "v",
        "ari"
      ],
      [
        "w",
        "ith"
      ],
      [
        "Ġ",
        "+"
      ],
      [
        "Ġ",
        "0"
      ],
      [
        "Ġ",
        "3"
      ],
      [
        "Ġ",
        "el"
      ],
      [
        "Ġ",
        "li"
      ],
      [
        "Ġ",
        "ra"
      ],
      [
        "Ġ",
        "qu"
      ],
      [
        "Ġ",
        "The"
      ],
      [
        "Ġ",
        "40"
      ],
      [
        "Ġ",
        "vari"
      ],
      [
        "Ġa",
        "ss"
      ],
      [
        "Ġa",
        "ut"
      ],
      [
        "er",
        "n"
      ],
      [
        "in",
        "t"
      ],
      [
        "al",
        "cul"
      ],
      [
        "an",
        "y"
      ],
      [
        "an",
        "ce"
      ],
      [
        "re",
        "at"
      ],
      [
        "os",
        "s"
      ],
      [
        "at",
        "ter"
      ],
      [
        "el",
        "l"
      ],
      [
        "ic",
        "h"
      ],
      [
        "th",
        "e"
      ],
      [
        "ist",
        "ical"
      ],
      [
        "Ġin",
        "put"
      ],
      [
        "Ġn",
        "ame"
      ],
      [
        "or",
        "ial"
      ],
      [
        "le",
        "v"
      ],
      [
        "Ġth",
        "an"
      ],
      [
        "Ġth",
        "ere"
      ],
      [
        "ul",
        "ar"
      ],
      [
        "li",
        "pp"
      ],
      [
        "Ġh",
        "as"
      ],
      [
        "Ġh",
        "ow"
      ],
      [
        "Ġh",
        "and"
      ],
      [
        "Ġc",
        "ap"
      ],
      [
        "Ġc",
        "ount"
      ],
      [
        "Ġc",
        "alcul"
      ],
      [
        "Ġc",
        "lipp"
      ],
      [
        "ar",
        "y"
      ],
      [
        "Ġm",
        "a"
      ],
      [
        "Ġm",
        "ore"
      ],
      [
        "Ġm",
        "achine"
      ],
      [
        "Ġgeneral",
        "ly"
      ],
      [
        "pos",
        "i"
      ],
      [
        "Ġb",
        "o"
      ],
      [
        "Ġb",
        "et"
      ],
      [
        "Ġb",
        "as"
      ],
      [
        "Ġf",
        "i"
      ],
      [
        "Ġf",
        "act"
      ],
      [
        "Ġo",
        "verfitting"
      ],
      [
        "Ġt",
        "as"
      ],
      [
        "Ġre",
        "ad"
      ],
      [
        "Ġre",
        "lation"
      ],
      [
        "Ġre",
        "vers"
      ],
      [
        "Ġp",
        "ar"
      ],
      [
        "Ġp",
        "atter"
      ],
      [
        "Ġd",
        "iction"
      ],
      [
        "am",
        "m"
      ],
      [
        "Ġl",
        "ay"
      ],
      [
        "Ġl",
        "oss"
      ],
      [
        "ation",
        "al"
      ],
      [
        "od",
        "e"
      ],
      [
        "Ġw",
        "or"
      ],
      [
        "it",
        "y"
      ],
      [
        "val",
        "ues"
      ],
      [
        "iz",
        "er"
      ],
      [
        "Ġs",
        "et"
      ],
      [
        "Ġs",
        "ame"
      ],
      [
        "Ġs",
        "uch"
      ],
      [
        "Ġne",
        "ed"
      ],
      [
        "Ġ1",
        "0"
      ],
      [
        "Ġpr",
        "ime"
      ],
      [
        "Ġcom",
        "p"
      ],
      [
        "Ġcom",
        "mon"
      ],
      [
        "Th",
        "at"
      ],
      [
        "Th",
        "ere"
      ],
      [
        "Ġlar",
        "ger"
      ],
      [
        "Ġwh",
        "eth"
      ],
      [
        "Ġwh",
        "ich"
      ],
      [
        "is",
        "e"
      ],
      [
        "pre",
        "diction"
      ],
      [
        "Ġop",
        "en"
      ],
      [
        "Ġpro",
        "vid"
      ],
      [
        "Ġpro",
        "gr"
      ],
      [
        "aramet",
        "er"
      ],
      [
        "Ġg",
        "rou"
      ],
      [
        "Ġdi",
        "vid"
      ],
      [
        "Ġdi",
        "rect"
      ],
      [
        "ep",
        "t"
      ],
      [
        "fer",
        "ent"
      ],
      [
        "ver",
        "y"
      ],
      [
        "Ġstat",
        "istical"
      ],
      [
        "oc",
        "i"
      ],
      [
        "ĠA",
        "dam"
      ],
      [
        "Ġk",
        "ey"
      ],
      [
        "Ġk",
        "ept"
      ],
      [
        "Ġal",
        "so"
      ],
      [
        "cep",
        "t"
      ],
      [
        "cess",
        "ed"
      ],
      [
        "Ġcon",
        "tain"
      ],
      [
        "Ġrepres",
        "entation"
      ],
      [
        "Ġrepres",
        "entations"
      ],
      [
        "Ġcomput",
        "ing"
      ],
      [
        "Ġcomput",
        "ational"
      ],
      [
        "pli",
        "t"
      ],
      [
        "to",
        "ken"
      ],
      [
        "ĠÃ",
        "Ĺ"
      ],
      [
        "Ġaf",
        "ter"
      ],
      [
        "Ġnorm",
        "ally"
      ],
      [
        "Ġmulti",
        "ple"
      ],
      [
        "Ġbloc",
        "k"
      ],
      [
        "Ġref",
        "ers"
      ],
      [
        "Ġtoken",
        "izer"
      ],
      [
        "Ġexcep",
        "tion"
      ],
      [
        "Ġdif",
        "ferent"
      ],
      [
        "Ġimplem",
        "entation"
      ],
      [
        "equ",
        "ence"
      ],
      [
        "pr",
        "o"
      ],
      [
        "pers",
        "on"
      ],
      [
        "shi",
        "ps"
      ],
      [
        "Ġel",
        "ements"
      ],
      [
        "Ġra",
        "ise"
      ],
      [
        "Ġvari",
        "able"
      ],
      [
        "Ġass",
        "oci"
      ],
      [
        "Ġhand",
        "le"
      ],
      [
        "Ġclipp",
        "ing"
      ],
      [
        "Ġbet",
        "ter"
      ],
      [
        "Ġbas",
        "ed"
      ],
      [
        "Ġfact",
        "orial"
      ],
      [
        "Ġrelation",
        "ships"
      ],
      [
        "Ġpatter",
        "ns"
      ],
      [
        "Ġdiction",
        "ary"
      ],
      [
        "Ġlay",
        "ers"
      ],
      [
        "Ġcommon",
        "ly"
      ],
      [
        "Ġwheth",
        "er"
      ],
      [
        "prediction",
        "s"
      ],
      [
        "Ġprovid",
        "es"
      ],
      [
        "Ġprogr",
        "amm"
      ],
      [
        "Ġgrou",
        "ps"
      ],
      [
        "Ġdirect",
        "ly"
      ]
    ]
  }
}