{
  "version": "1.0",
  "truncation": null,
  "padding": null,
  "added_tokens": [
    {
      "id": 0,
      "content": "<pad>",
      "single_word": false,
      "lstrip": false,
      "rstrip": false,
      "normalized": false,
      "special": true
    },
    {
      "id": 1,
      "content": "<unk>",
      "single_word": false,
      "lstrip": false,
      "rstrip": false,
      "normalized": false,
      "special": true
    },
    {
      "id": 2,
      "content": "<bos>",
      "single_word": false,
      "lstrip": false,
      "rstrip": false,
      "normalized": false,
      "special": true
    },
    {
      "id": 3,
      "content": "<eos>",
      "single_word": false,
      "lstrip": false,
      "rstrip": false,
      "normalized": false,
      "special": true
    },
    {
      "id": 4,
      "content": "<system>",
      "single_word": false,
      "lstrip": false,
      "rstrip": false,
      "normalized": false,
      "special": true
    },
    {
      "id": 5,
      "content": "<user>",
      "single_word": false,
      "lstrip": false,
      "rstrip": false,
      "normalized": false,
      "special": true
    },
    {
      "id": 6,
      "content": "<assistant>",
      "single_word": false,
      "lstrip": false,
      "rstrip": false,
      "normalized": false,
      "special": true
    },
    {
      "id": 7,
      "content": "<end>",
      "single_word": false,
      "lstrip": false,
      "rstrip": false,
      "normalized": false,
      "special": true
    }
  ],
  "normalizer": null,
  "pre_tokenizer": {
    "type": "ByteLevel",
    "add_prefix_space": false,
    "trim_offsets": true,
    "use_regex": true
  },
  "post_processor": null,
  "decoder": {
    "type": "ByteLevel",
    "add_prefix_space": true,
    "trim_offsets": true,
    "use_regex": true
  },
  "model": {
    "type": "BPE",
    "dropout": null,
    "unk_token": "<unk>",
    "continuing_subword_prefix": null,
    "end_of_word_suffix": null,
    "fuse_unk": false,
    "byte_fallback": true,
    "ignore_merges": false,
    "vocab": {
      "<pad>": 0,
      "<unk>": 1,
      "<bos>": 2,
      "<eos>": 3,
      "<system>": 4,
      "<user>": 5,
      "<assistant>": 6,
      "<end>": 7,
      "!": 8,
      "\"": 9,
      "#": 10,
      "$": 11,
      "%": 12,
      "&": 13,
      "'": 14,
      "(": 15,
      ")": 16,
      "*": 17,
      "+": 18,
      ",": 19,
      "-": 20,
      ".": 21,
      "/": 22,
      "0": 23,
      "1": 24,
      "2": 25,
      "3": 26,
      "4": 27,
      "5": 28,
      "6": 29,
      "7": 30,
      "8": 31,
      "9": 32,
      ":": 33,
      ";": 34,
      "<": 35,
      "=": 36,
      ">": 37,
      "?": 38,
      "@": 39,
      "A": 40,
      "B": 41,
      "C": 42,
      "D": 43,
      "E": 44,
      "F": 45,
      "G": 46,
      "H": 47,
      "I": 48,
      "J": 49,
      "K": 50,
      "L": 51,
      "M": 52,
      "N": 53,
      "O": 54,
      "P": 55,
      "Q": 56,
      "R": 57,
      "S": 58,
      "T": 59,
      "U": 60,
      "V": 61,
      "W": 62,
      "X": 63,
      "Y": 64,
      "Z": 65,
      "[": 66,
      "\\": 67,
      "]": 68,
      "^": 69,
      "_": 70,
      "`": 71,
      "a": 72,
      "b": 73,
      "c": 74,
      "d": 75,
      "e": 76,
      "f": 77,
      "g": 78,
      "h": 79,
      "i": 80,
      "j": 81,
      "k": 82,
      "l": 83,
      "m": 84,
      "n": 85,
      "o": 86,
      "p": 87,
      "q": 88,
      "r": 89,
      "s": 90,
      "t": 91,
      "u": 92,
      "v": 93,
      "w": 94,
      "x": 95,
      "y": 96,
      "z": 97,
      "{": 98,
      "|": 99,
      "}": 100,
      "~": 101,
      "¡": 102,
      "¢": 103,
      "£": 104,
      "¤": 105,
      "¥": 106,
      "¦": 107,
      "§": 108,
      "¨": 109,
      "©": 110,
      "ª": 111,
      "«": 112,
      "¬": 113,
      "®": 114,
      "¯": 115,
      "°": 116,
      "±": 117,
      "²": 118,
      "³": 119,
      "´": 120,
      "µ": 121,
      "¶": 122,
      "·": 123,
      "¸": 124,
      "¹": 125,
      "º": 126,
      "»": 127,
      "¼": 128,
      "½": 129,
      "¾": 130,
      "¿": 131,
      "À": 132,
      "Á": 133,
      "Â": 134,
      "Ã": 135,
      "Ä": 136,
      "Å": 137,
      "Æ": 138,
      "Ç": 139,
      "È": 140,
      "É": 141,
      "Ê": 142,
      "Ë": 143,
      "Ì": 144,
      "Í": 145,
      "Î": 146,
      "Ï": 147,
      "Ð": 148,
      "Ñ": 149,
      "Ò": 150,
      "Ó": 151,
      "Ô": 152,
      "Õ": 153,
      "Ö": 154,
      "×": 155,
      "Ø": 156,
      "Ù": 157,
      "Ú": 158,
      "Û": 159,
      "Ü": 160,
      "Ý": 161,
      "Þ": 162,
      "ß": 163,
      "à": 164,
      "á": 165,
      "â": 166,
      "ã": 167,
      "ä": 168,
      "å": 169,
      "æ": 170,
      "ç": 171,
      "è": 172,
      "é": 173,
      "ê": 174,
      "ë": 175,
      "ì": 176,
      "í": 177,
      "î": 178,
      "ï": 179,
      "ð": 180,
      "ñ": 181,
      "ò": 182,
      "ó": 183,
      "ô": 184,
      "õ": 185,
      "ö": 186,
      "÷": 187,
      "ø": 188,
      "ù": 189,
      "ú": 190,
      "û": 191,
      "ü": 192,
      "ý": 193,
      "þ": 194,
      "ÿ": 195,
      "Ā": 196,
      "ā": 197,
      "Ă": 198,
      "ă": 199,
      "Ą": 200,
      "ą": 201,
      "Ć": 202,
      "ć": 203,
      "Ĉ": 204,
      "ĉ": 205,
      "Ċ": 206,
      "ċ": 207,
      "Č": 208,
      "č": 209,
      "Ď": 210,
      "ď": 211,
      "Đ": 212,
      "đ": 213,
      "Ē": 214,
      "ē": 215,
      "Ĕ": 216,
      "ĕ": 217,
      "Ė": 218,
      "ė": 219,
      "Ę": 220,
      "ę": 221,
      "Ě": 222,
      "ě": 223,
      "Ĝ": 224,
      "ĝ": 225,
      "Ğ": 226,
      "ğ": 227,
      "Ġ": 228,
      "ġ": 229,
      "Ģ": 230,
      "ģ": 231,
      "Ĥ": 232,
      "ĥ": 233,
      "Ħ": 234,
      "ħ": 235,
      "Ĩ": 236,
      "ĩ": 237,
      "Ī": 238,
      "ī": 239,
      "Ĭ": 240,
      "ĭ": 241,
      "Į": 242,
      "į": 243,
      "İ": 244,
      "ı": 245,
      "Ĳ": 246,
      "ĳ": 247,
      "Ĵ": 248,
      "ĵ": 249,
      "Ķ": 250,
      "ķ": 251,
      "ĸ": 252,
      "Ĺ": 253,
      "ĺ": 254,
      "Ļ": 255,
      "ļ": 256,
      "Ľ": 257,
      "ľ": 258,
      "Ŀ": 259,
      "ŀ": 260,
      "Ł": 261,
      "ł": 262,
      "Ń": 263,
      "Ġa": 264,
      "en": 265,
      "er": 266,
      "Ġi": 267,
      "st": 268,
      "nt": 269,
      "re": 270,
      "os": 271,
      "al": 272,
      "th": 273,
      "el": 274,
      "ti": 275,
      "on": 276,
      "si": 277,
      "ic": 278,
      "sta": 279,
      "ssi": 280,
      "gen": 281,
      "stant": 282,
      "ssistant": 283,
      "Ġc": 284,
      "le": 285,
      "Ġth": 286,
      "ce": 287,
      "or": 288,
      "ur": 289,
      "li": 290,
      "at": 291,
      "Ġis": 292,
      "in": 293,
      "ul": 294,
      "ĠĠ": 295,
      "Ġare": 296,
      "em": 297,
      "us": 298,
      "ou": 299,
      "Ġh": 300,
      "Ġint": 301,
      "Ġthe": 302,
      "Ġt": 303,
      "an": 304,
      "tion": 305,
      "Ġp": 306,
      "end": 307,
      "Ġar": 308,
      "Ġgen": 309,
      "Ġgener": 310,
      "ful": 311,
      "ose": 312,
      "Ġgeneral": 313,
      "fic": 314,
      "ial": 315,
      "elp": 316,
      "Ġhelp": 317,
      "You": 318,
      "sy": 319,
      "Mos": 320,
      "aic": 321,
      "Ġf": 322,
      "stem": 323,
      "system": 324,
      "Mosaic": 325,
      "pose": 326,
      "elli": 327,
      "tific": 328,
      "gence": 329,
      "Ġintelli": 330,
      "Ġartific": 331,
      "Ġintelligence": 332,
      "Ġartificial": 333,
      "assistant": 334,
      "bos": 335,
      "pur": 336,
      "ĠMosaic": 337,
      "Ġassistant": 338,
      "user": 339,
      "Ġhelpful": 340,
      "purpose": 341,
      "Ġd": 342,
      "Ġre": 343,
      "es": 344,
      "Ġan": 345,
      "Ġn": 346,
      "am": 347,
      "Ġw": 348,
      "ex": 349,
      "Ġb": 350,
      "ed": 351,
      "Ġ=": 352,
      "Ġin": 353,
      "ent": 354,
      "Ġco": 355,
      "ar": 356,
      "ro": 357,
      "Ġo": 358,
      "Ġm": 359,
      "Ġs": 360,
      "Py": 361,
      "thon": 362,
      "Python": 363,
      "Wh": 364,
      "Ġv": 365,
      "Th": 366,
      "ple": 367,
      "Ġex": 368,
      "Ġand": 369,
      "ing": 370,
      "um": 371,
      "ef": 372,
      "What": 373,
      "ct": 374,
      "ĠPython": 375,
      "ers": 376,
      "alu": 377,
      "Ġto": 378,
      "ab": 379,
      "et": 380,
      "Ġ1": 381,
      "ĠĠĠ": 382,
      "Ġof": 383,
      "Ġvalu": 384,
      "Ġit": 385,
      "Ġ2": 386,
      "ain": 387,
      "umb": 388,
      "Ġpro": 389,
      "ample": 390,
      "ly": 391,
      "un": 392,
      "Ġwh": 393,
      "ation": 394,
      "Ġl": 395,
      "Ġcan": 396,
      "able": 397,
      "mp": 398,
      "as": 399,
      "ction": 400,
      "it": 401,
      "Ġper": 402,
      "Ġexample": 403,
      "ge": 404,
      "Ġ5": 405,
      "Ġli": 406,
      "od": 407,
      "For": 408,
      "Ġwi": 409,
      "Ġvalue": 410,
      "ore": 411,
      "Ġtr": 412,
      "ame": 413,
      "qu": 414,
      "Ġlist": 415,
      "de": 416,
      "is": 417,
      "ng": 418,
      "Ġthat": 419,
      "Ġdo": 420,
      "The": 421,
      "Ther": 422,
      "Ġr": 423,
      "Ġus": 424,
      "Ġfun": 425,
      "Ġnumb": 426,
      "efore": 427,
      "Ġfunction": 428,
      "Ġ7": 429,
      "orm": 430,
      "Ġmod": 431,
      "Ġwhen": 432,
      "Ġor": 433,
      "Ġret": 434,
      "ch": 435,
      "pe": 436,
      "ut": 437,
      "Ġ3": 438,
      "urn": 439,
      "Ġcont": 440,
      "Therefore": 441,
      "Ġreturn": 442,
      "Ġ+": 443,
      "ĠÃ": 444,
      "res": 445,
      "ate": 446,
      "ang": 447,
      "Ġbe": 448,
      "rom": 449,
      "):": 450,
      "cent": 451,
      "ds": 452,
      "lo": 453,
      "Ġx": 454,
      "Ġne": 455,
      "ect": 456,
      "oo": 457,
      "ri": 458,
      "Ġfrom": 459,
      "Ġby": 460,
      "Ġcomp": 461,
      "ari": 462,
      "Ġwith": 463,
      "fer": 464,
      "form": 465,
      "Ġ4": 466,
      "ting": 467,
      "sion": 468,
      "Ġcon": 469,
      "Ġdi": 470,
      "Ġres": 471,
      "ents": 472,
      "Ġpercent": 473,
      "Ġdoes": 474,
      "Ġmodel": 475,
      "ĠÃĹ": 476,
      "Ex": 477,
      "dex": 478,
      "numb": 479,
      "ot": 480,
      "ver": 481,
      "Ġst": 482,
      "Ġpri": 483,
      "Ġfi": 484,
      "Ġrep": 485,
      "Ġse": 486,
      "Ġnumber": 487,
      "Ġresul": 488,
      "id": 489,
      "oth": 490,
      "se": 491,
      "Ġ0": 492,
      "Ġ8": 493,
      "Ġe": 494,
      "Ġsi": 495,
      "ence": 496,
      "Ġcre": 497,
      "Ġty": 498,
      "Ġfor": 499,
      "Ġname": 500,
      "Ġcode": 501,
      "etw": 502,
      "Ġ12": 503,
      "aining": 504,
      "ai": 505,
      "du": 506,
      "gr": 507,
      "uple": 508,
      "elf": 509,
      "ine": 510,
      "Ġdat": 511,
      "Ġdef": 512,
      "Ġvalues": 513,
      "Ġprint": 514,
      "act": 515,
      "age": 516,
      "bj": 517,
      "ck": 518,
      "di": 519,
      "om": 520,
      "ow": 521,
      "ror": 522,
      "ss": 523,
      "ts": 524,
      "Ġon": 525,
      "Ġad": 526,
      "ork": 527,
      "Ġinc": 528,
      "Ġma": 529,
      "ass": 530,
      "qua": 531,
      "Ġrepres": 532,
      "bject": 533,
      "Tr": 534,
      "def": 535,
      "ffer": 536,
      "iz": 537,
      "met": 538,
      "pl": 539,
      "ve": 540,
      "Ġif": 541,
      "iction": 542,
      "Ġch": 543,
      "lear": 544,
      "cep": 545,
      "ĠĠĠĠ": 546,
      "ext": 547,
      "Ġ20": 548,
      "Ġran": 549,
      "ariable": 550,
      "Ġtype": 551,
      "Ġdata": 552,
      "An": 553,
      "How": 554,
      "eg": 555,
      "lass": 556,
      "ring": 557,
      "ter": 558,
      "Ġ\"": 559,
      "Ġu": 560,
      "cess": 561,
      "ates": 562,
      "Ġtuple": 563,
      "Ġdiction": 564,
      "Ġnot": 565,
      "Ġnetw": 566,
      "ary": 567,
      "Ġobject": 568,
      "Ġits": 569,
      "Ġprob": 570,
      "utable": 571,
      "Ġdiffer": 572,
      "numbers": 573,
      "Ġadd": 574,
      "learn": 575,
      "Ġdictionary": 576,
      "Ġnetwork": 577,
      "Er": 578,
      "In": 579,
      "av": 580,
      "gth": 581,
      "ls": 582,
      "name": 583,
      "ps": 584,
      "ue": 585,
      "ĠTr": 586,
      "Ġlearn": 587,
      "Ġaf": 588,
      "Ġat": 589,
      "ength": 590,
      "ural": 591,
      "Ġinteg": 592,
      "Ġindex": 593,
      "Why": 594,
      "Ġvariable": 595,
      "Ġexcep": 596,
      "ains": 597,
      "Ġprogr": 598,
      "Ġlar": 599,
      "mply": 600,
      "Ġused": 601,
      "Ġneural": 602,
      "Expl": 603,
      "Ġfile": 604,
      "Ġresult": 605,
      "Ġsimply": 606,
      "duce": 607,
      "Ġrepresent": 608,
      "ĠĠĠĠĠĠĠ": 609,
      "Error": 610,
      "Ġprogram": 611,
      "Explain": 612,
      "\")": 613,
      "(\"": 614,
      "ad": 615,
      "cur": 616,
      "dth": 617,
      "hen": 618,
      "ir": 619,
      "ili": 620,
      "ken": 621,
      "lle": 622,
      "our": 623,
      "rit": 624,
      "tem": 625,
      "you": 626,
      "Ġ/": 627,
      "Ġg": 628,
      "Ġsta": 629,
      "Ġun": 630,
      "Ġyou": 631,
      "rehen": 632,
      "ally": 633,
      "alid": 634,
      "elem": 635,
      "tim": 636,
      "Ġcal": 637,
      "Ġclass": 638,
      "Ġpos": 639,
      "Ġrect": 640,
      "Ġblo": 641,
      "Ġboth": 642,
      "Ġsqua": 643,
      "Ġtoken": 644,
      "Ġloo": 645,
      "ase": 646,
      "Ġperform": 647,
      "Ġ50": 648,
      "Ġwidth": 649,
      "Ġra": 650,
      "Ġnumbers": 651,
      "Ġcontains": 652,
      "angle": 653,
      "Ġcomprehen": 654,
      "Ġdifferent": 655,
      "rite": 656,
      "Ġrectangle": 657,
      "Ġblock": 658,
      "Ġcomprehension": 659,
      "\",": 660,
      "15": 661,
      "Write": 662,
      "ay": 663,
      "ach": 664,
      "der": 665,
      "gh": 666,
      "mm": 667,
      "ol": 668,
      "pd": 669,
      "ty": 670,
      "ten": 671,
      "ule": 672,
      "vi": 673,
      "Ġ(": 674,
      "Ġ-": 675,
      "Ġ6": 676,
      "Ġ[": 677,
      "Ġk": 678,
      "Ġelem": 679,
      "Ġal": 680,
      "Ġas": 681,
      "erate": 682,
      "ely": 683,
      "out": 684,
      "tions": 685,
      "Ġpar": 686,
      "Ġfai": 687,
      "amet": 688,
      "Ġso": 689,
      "abili": 690,
      "Ġ10": 691,
      "Ġ15": 692,
      "Ġprocess": 693,
      "ations": 694,
      "Ġlength": 695,
      "Ġtraining": 696,
      "quence": 697,
      "Ġuse": 698,
      "Ġuses": 699,
      "Ġcondi": 700,
      "Ġstring": 701,
      "Ġsequence": 702,
      "Ġrange": 703,
      "Ġprobabili": 704,
      "Ġafter": 705,
      "Ġinteger": 706,
      "Ġlarge": 707,
      "Ġloop": 708,
      "tention": 709,
      "Ġelements": 710,
      "Boo": 711,
      "If": 712,
      "ads": 713,
      "eads": 714,
      "imet": 715,
      "pp": 716,
      "pre": 717,
      "self": 718,
      "wo": 719,
      "Ġ*": 720,
      "Ġ{": 721,
      "enum": 722,
      "erable": 723,
      "alse": 724,
      "lean": 725,
      "Ġarea": 726,
      "Ġheads": 727,
      "Ġtwo": 728,
      "and": 729,
      "Ġde": 730,
      "Ġcolle": 731,
      "Ġop": 732,
      "Ġsu": 733,
      "Ġiterable": 734,
      "Ġproduce": 735,
      "Ġlang": 736,
      "Ġperimet": 737,
      "Ġorder": 738,
      "Ġ40": 739,
      "Example": 740,
      "Ġ80": 741,
      "Ġupd": 742,
      "Ġobjects": 743,
      "tement": 744,
      "Ġposi": 745,
      "Ġrais": 746,
      "Ġparamet": 747,
      "Ġprobability": 748,
      "Boolean": 749,
      "enumerate": 750,
      "Ġcollection": 751,
      "Ġlangu": 752,
      "Ġperimeter": 753,
      "Ġordered": 754,
      "are": 755,
      "ati": 756,
      "ble": 757,
      "ci": 758,
      "con": 759,
      "for": 760,
      "ilo": 761,
      "lu": 762,
      "mb": 763,
      "sform": 764,
      "ĠA": 765,
      "Ġout": 766,
      "Ġac": 767,
      "ere": 768,
      "Ġimp": 769,
      "Ġimm": 770,
      "rect": 771,
      "read": 772,
      "Ġthan": 773,
      "Ġthis": 774,
      "ort": 775,
      "ords": 776,
      "Ġhas": 777,
      "Ġhour": 778,
      "ansform": 779,
      "Ġmutable": 780,
      "Ġvalid": 781,
      "Ġitem": 782,
      "its": 783,
      "Ġtrain": 784,
      "Ġtrav": 785,
      "Ġtrue": 786,
      "Ġlists": 787,
      "Ġreturns": 788,
      "Ġneed": 789,
      "ference": 790,
      "number": 791,
      "Ġsecon": 792,
      "Ġeach": 793,
      "Ġincre": 794,
      "Ġinclu": 795,
      "Ġmath": 796,
      "ization": 797,
      "meters": 798,
      "Ġchang": 799,
      "Ġ200": 800,
      "Ġlearning": 801,
      "Ġexception": 802,
      "Ġstatement": 803,
      "Ġunits": 804,
      "Ġsquare": 805,
      "Ġtokens": 806,
      "Ġkilo": 807,
      "Ġcondition": 808,
      "Ġlargest": 809,
      "Ġparameters": 810,
      "Ġlanguage": 811,
      "Ġimport": 812,
      "Ġimmutable": 813,
      "Ġtravel": 814,
      "Ġseconds": 815,
      "Ġkilometers": 816,
      "10": 817,
      "Di": 818,
      "False": 819,
      "Mod": 820,
      "Sol": 821,
      "__": 822,
      "can": 823,
      "des": 824,
      "dom": 825,
      "ec": 826,
      "een": 827,
      "eth": 828,
      "fers": 829,
      "if": 830,
      "ist": 831,
      "ile": 832,
      "ian": 833,
      "igh": 834,
      "ll": 835,
      "ler": 836,
      "lable": 837,
      "mal": 838,
      "not": 839,
      "ole": 840,
      "squa": 841,
      "text": 842,
      "ure": 843,
      "uti": 844,
      "vid": 845,
      "wer": 846,
      "ĠV": 847,
      "Ġgr": 848,
      "Ġtim": 849,
      "ĠBoolean": 850,
      "Ġenumerate": 851,
      "ĠFalse": 852,
      "onents": 853,
      "sing": 854,
      "ssion": 855,
      "ated": 856,
      "Ġhand": 857,
      "Ġinto": 858,
      "Ġintend": 859,
      "Ġtext": 860,
      "Ġarch": 861,
      "Ġfact": 862,
      "Ġrefers": 863,
      "Ġbetw": 864,
      "edian": 865,
      "Ġcoin": 866,
      "Ġman": 867,
      "Ġmedian": 868,
      "Ġset": 869,
      "This": 870,
      "Ġexpre": 871,
      "erson": 872,
      "alue": 873,
      "Ġ21": 874,
      "Ġ26": 875,
      "Ġwhole": 876,
      "Ġcannot": 877,
      "itect": 878,
      "There": 879,
      "Ġmodule": 880,
      "Ġcontaining": 881,
      "very": 882,
      "other": 883,
      "Ġevery": 884,
      "Ġsides": 885,
      "Ġcreation": 886,
      "Ġcreates": 887,
      "ailable": 888,
      "Ġdefin": 889,
      "Ġdefine": 890,
      "Ġone": 891,
      "Ġrandom": 892,
      "Ġusing": 893,
      "Index": 894,
      "ĠTrue": 895,
      "ĠTransform": 896,
      "Ġattention": 897,
      "Ġrepresented": 898,
      "Ġprogramm": 899,
      "vide": 900,
      "Ġfair": 901,
      "Ġuseful": 902,
      "Ġsuch": 903,
      "Ġposition": 904,
      "ready": 905,
      "Ġhours": 906,
      "Ġneeds": 907,
      "Ġincrease": 908,
      "Solve": 909,
      "squares": 910,
      "utils": 911,
      "Ġintended": 912,
      "Ġarchitect": 913,
      "Ġfactor": 914,
      "Ġbetween": 915,
      "Ġexpression": 916,
      "ĠTransformer": 917,
      "Ġarchitecture": 918,
      "\"]": 919,
      "25": 920,
      "Ad": 921,
      "St": 922,
      "Tuple": 923,
      "[\"": 924,
      "ace": 925,
      "com": 926,
      "ccur": 927,
      "cords": 928,
      "ep": 929,
      "ean": 930,
      "eck": 931,
      "eigh": 932,
      "fit": 933,
      "gn": 934,
      "gan": 935,
      "ig": 936,
      "int": 937,
      "me": 938,
      "op": 939,
      "oint": 940,
      "py": 941,
      "par": 942,
      "put": 943,
      "point": 944,
      "ru": 945,
      "rou": 946,
      "swer": 947,
      "tr": 948,
      "uting": 949,
      "ven": 950,
      "ved": 951,
      "ws": 952,
      "xed": 953,
      "Ġ>": 954,
      "ĠN": 955,
      "Ġer": 956,
      "ĠIndex": 957,
      "Ġage": 958,
      "Ġaut": 959,
      "ero": 960,
      "stru": 961,
      "red": 962,
      "tiple": 963,
      "ong": 964,
      "ich": 965,
      "ical": 966,
      "led": 967,
      "lem": 968,
      "Ġthen": 969,
      "Ġthrou": 970,
      "orrect": 971,
      "ator": 972,
      "ately": 973,
      "inis": 974,
      "ultiple": 975,
      "usable": 976,
      "Ġinter": 977,
      "Ġtheir": 978,
      "Ġgenerally": 979,
      "Ġfour": 980,
      "Ġrecur": 981,
      "Ġrecords": 982,
      "Ġreusable": 983,
      "Ġanswer": 984,
      "Ġweigh": 985,
      "Ġbefore": 986,
      "Ġind": 987,
      "Ġinform": 988,
      "entation": 989,
      "Ġcomb": 990,
      "Ġoccur": 991,
      "Ġmean": 992,
      "Ġsame": 993,
      "Ġspe": 994,
      "Ġself": 995,
      "Ġsmal": 996,
      "ump": 997,
      "Ġ25": 998,
      "Ġprovid": 999,
      "Ġwhile": 1000,
      "Ġwhich": 1001,
      "ity": 1002,
      "Ġwill": 1003,
      "Ġtry": 1004,
      "que": 1005,
      "Ġrun": 1006,
      "ormally": 1007,
      "Ġorgan": 1008,
      "Ġ30": 1009,
      "Ġcontext": 1010,
      "ĠÃ·": 1011,
      "lows": 1012,
      "Ġcomponents": 1013,
      "arily": 1014,
      "Ġconstru": 1015,
      "Ġpercentage": 1016,
      "vert": 1017,
      "verfit": 1018,
      "Ġstr": 1019,
      "Ġfixed": 1020,
      "Ġresulting": 1021,
      "Ġresults": 1022,
      "Ġcreated": 1023,
      "Ġtyp": 1024,
      "ize": 1025,
      "Ġcheck": 1026,
      "Ġitself": 1027,
      "Ġproblem": 1028,
      "irst": 1029,
      "Ġgre": 1030,
      "timization": 1031,
      "Ġcalled": 1032,
      "Ġsquares": 1033,
      "Ġblocks": 1034,
      "olved": 1035,
      "vision": 1036,
      "Ġallows": 1037,
      "Ġfail": 1038,
      "Ġoper": 1039,
      "Examples": 1040,
      "Ġupdate": 1041,
      "Ġupdates": 1042,
      "Ġraise": 1043,
      "Ġraises": 1044,
      "Ġcollections": 1045,
      "atic": 1046,
      "Ġtrained": 1047,
      "Ġinclude": 1048,
      "Ġchanged": 1049,
      "Divide": 1050,
      "ĠValue": 1051,
      "Ġgrou": 1052,
      "Ġhandle": 1053,
      "Ġmany": 1054,
      "Ġprogramming": 1055,
      "Tuples": 1056,
      "Ġerror": 1057,
      "ĠIndexError": 1058,
      "Ġthrough": 1059,
      "inish": 1060,
      "Ġweights": 1061,
      "Ġinformation": 1062,
      "Ġcombine": 1063,
      "Ġprovides": 1064,
      "Ġconstruct": 1065,
      "verfitting": 1066,
      "ĠValueError": 1067,
      "\":": 1068,
      "'s": 1069,
      "()": 1070,
      "([\"": 1071,
      ")]": 1072,
      ")}": 1073,
      "20": 1074,
      "44": 1075,
      "Both": 1076,
      "Con": 1077,
      "Hel": 1078,
      "Here": 1079,
      "List": 1080,
      "Min": 1081,
      "Normally": 1082,
      "PI": 1083,
      "Person": 1084,
      "Su": 1085,
      "ant": 1086,
      "aus": 1087,
      "ating": 1088,
      "adi": 1089,
      "app": 1090,
      "bit": 1091,
      "btr": 1092,
      "co": 1093,
      "cul": 1094,
      "class": 1095,
      "den": 1096,
      "dle": 1097,
      "ding": 1098,
      "ey": 1099,
      "fy": 1100,
      "from": 1101,
      "first": 1102,
      "finish": 1103,
      "ger": 1104,
      "gul": 1105,
      "hi": 1106,
      "ho": 1107,
      "hav": 1108,
      "ior": 1109,
      "ique": 1110,
      "kely": 1111,
      "lic": 1112,
      "length": 1113,
      "lations": 1114,
      "mple": 1115,
      "mine": 1116,
      "ne": 1117,
      "pend": 1118,
      "pts": 1119,
      "person": 1120,
      "rong": 1121,
      "rarily": 1122,
      "ui": 1123,
      "ust": 1124,
      "uity": 1125,
      "vent": 1126,
      "vers": 1127,
      "variable": 1128,
      "valid": 1129,
      "vailable": 1130,
      "volved": 1131,
      "way": 1132,
      "zation": 1133,
      "zero": 1134,
      "}\"": 1135,
      "Ġ9": 1136,
      "ĠC": 1137,
      "ĠD": 1138,
      "ĠI": 1139,
      "Ġsystem": 1140,
      "ĠHow": 1141,
      "Ġ__": 1142,
      "ĠPerson": 1143,
      "Ġzero": 1144,
      "Ġass": 1145,
      "Ġals": 1146,
      "Ġapp": 1147,
      "Ġamb": 1148,
      "Ġavailable": 1149,
      "ermine": 1150,
      "oss": 1151,
      "the": 1152,
      "ther": 1153,
      "else": 1154,
      "tify": 1155,
      "one": 1156,
      "only": 1157,
      "side": 1158,
      "sible": 1159,
      "ssing": 1160,
      "ssign": 1161,
      "Ġcl": 1162,
      "Ġcou": 1163,
      "Ġthose": 1164,
      "Ġthir": 1165,
      "Ġthere": 1166,
      "cessing": 1167,
      "ory": 1168,
      "orse": 1169,
      "uring": 1170,
      "ling": 1171,
      "lipp": 1172,
      "ats": 1173,
      "ater": 1174,
      "atter": 1175,
      "attention": 1176,
      "init": 1177,
      "index": 1178,
      "uld": 1179,
      "ult": 1180,
      "emory": 1181,
      "Ġtai": 1182,
      "ance": 1183,
      "Ġpred": 1184,
      "Ġarbit": 1185,
      "Ġfe": 1186,
      "Ġfin": 1187,
      "Ġfalse": 1188,
      "Ġflipp": 1189,
      "Ġdes": 1190,
      "Ġdet": 1191,
      "Ġrepe": 1192,
      "Ġreduce": 1193,
      "Ġread": 1194,
      "Ġregul": 1195,
      "Ġrelations": 1196,
      "Ġrevers": 1197,
      "ess": 1198,
      "Ġanother": 1199,
      "Ġwas": 1200,
      "Ġwork": 1201,
      "Ġway": 1202,
      "Ġwrong": 1203,
      "Ġworse": 1204,
      "Ġbut": 1205,
      "Ġboo": 1206,
      "Ġinference": 1207,
      "Ġinvolved": 1208,
      "Ġcomm": 1209,
      "aract": 1210,
      "rodu": 1211,
      "rolle": 1212,
      "Ġmid": 1213,
      "Ġmultiple": 1214,
      "Ġmemory": 1215,
      "Ġsho": 1216,
      "Ġslic": 1217,
      "Then": 1218,
      "That": 1219,
      "Ġexpe": 1220,
      "Ġexact": 1221,
      "Ġexec": 1222,
      "Ġtoo": 1223,
      "abase": 1224,
      "etting": 1225,
      "Ġ11": 1226,
      "Ġ13": 1227,
      "Ġ18": 1228,
      "Ġproce": 1229,
      "Ġwheth": 1230,
      "Ġlay": 1231,
      "ased": 1232,
      "Ġexamples": 1233,
      "Ġlikely": 1234,
      "qually": 1235,
      "Ġfunctions": 1236,
      "ormal": 1237,
      "Ġmodif": 1238,
      "chine": 1239,
      "Ġcontents": 1240,
      "Ġcontrolle": 1241,
      "Ġbehav": 1242,
      "Ġnever": 1243,
      "Ġcompact": 1244,
      "Ġcomputing": 1245,
      "arization": 1246,
      "Ġwithout": 1247,
      "Ġ42": 1248,
      "Ġconstant": 1249,
      "Ġdirect": 1250,
      "Ġdivision": 1251,
      "Ġstore": 1252,
      "Ġprime": 1253,
      "Ġfive": 1254,
      "Ġreprodu": 1255,
      "Ġseed": 1256,
      "Ġequally": 1257,
      "Ġcreate": 1258,
      "Ġdatabase": 1259,
      "omatic": 1260,
      "Ġonly": 1261,
      "Ġincorrect": 1262,
      "Ġmak": 1263,
      "Ġmaps": 1264,
      "Ġmachine": 1265,
      "assump": 1266,
      "Ġrepresents": 1267,
      "Training": 1268,
      "izer": 1269,
      "plic": 1270,
      "Ġcharact": 1271,
      "rings": 1272,
      "Ġtuples": 1273,
      "Ġdifference": 1274,
      "Ġnetworks": 1275,
      "Inference": 1276,
      "available": 1277,
      "Ġlearns": 1278,
      "Ġlearned": 1279,
      "Ġaff": 1280,
      "Ġattem": 1281,
      "Ġintegers": 1282,
      "Ġindexed": 1283,
      "Ġexcept": 1284,
      "Ġexceptions": 1285,
      "Ġlarger": 1286,
      "Ġrepresentation": 1287,
      "Ġgetting": 1288,
      "Ġstat": 1289,
      "Ġcalcul": 1290,
      "Ġclasses": 1291,
      "Ġpossible": 1292,
      "Ġtokenizer": 1293,
      "Ġperformance": 1294,
      "Ġrather": 1295,
      "ules": 1296,
      "Ġ60": 1297,
      "Ġkey": 1298,
      "Ġalready": 1299,
      "Ġalway": 1300,
      "Ġ150": 1301,
      "Ġprocesses": 1302,
      "Ġconditions": 1303,
      "Ġsequences": 1304,
      "pret": 1305,
      "Ġdepend": 1306,
      "Ġopen": 1307,
      "Ġsubject": 1308,
      "area": 1309,
      "cible": 1310,
      "ĠAPI": 1311,
      "Ġoutcom": 1312,
      "Ġoutside": 1313,
      "Ġaccess": 1314,
      "Ġaccessing": 1315,
      "Ġvalidation": 1316,
      "Ġincluding": 1317,
      "Ġtravels": 1318,
      "Model": 1319,
      "Modules": 1320,
      "__(": 1321,
      "Ġtime": 1322,
      "Ġtimes": 1323,
      "Ġdefines": 1324,
      "Ġdefined": 1325,
      "Ġfactorial": 1326,
      "Ġexpressions": 1327,
      "\"]):": 1328,
      "Adult": 1329,
      "Strings": 1330,
      "iguity": 1331,
      "optimization": 1332,
      "part": 1333,
      "puts": 1334,
      "Ġ>=": 1335,
      "ĠNone": 1336,
      "Ġautomatic": 1337,
      "Ġinterpret": 1338,
      "Ġrecursion": 1339,
      "Ġindentation": 1340,
      "Ġoccurs": 1341,
      "Ġspeed": 1342,
      "Ġsmaller": 1343,
      "Ġruns": 1344,
      "Ġorganize": 1345,
      "Ġtypes": 1346,
      "Ġgreet": 1347,
      "Ġoperation": 1348,
      "Ġgroups": 1349,
      "Convert": 1350,
      "Hello": 1351,
      "Lists": 1352,
      "Minor": 1353,
      "Subtr": 1354,
      "ause": 1355,
      "adient": 1356,
      "append": 1357,
      "dentify": 1358,
      "finished": 1359,
      "hips": 1360,
      "variables": 1361,
      "Ġalso": 1362,
      "Ġappro": 1363,
      "Ġambiguity": 1364,
      "Ġcount": 1365,
      "Ġthird": 1366,
      "Ġtails": 1367,
      "Ġarbitrarily": 1368,
      "Ġflipping": 1369,
      "Ġdescent": 1370,
      "Ġdetermine": 1371,
      "Ġregularization": 1372,
      "Ġrelationships": 1373,
      "Ġbool": 1374,
      "Ġcommonly": 1375,
      "Ġmiddle": 1376,
      "Ġshould": 1377,
      "Ġsliced": 1378,
      "Ġexpect": 1379,
      "Ġexactly": 1380,
      "Ġwhether": 1381,
      "Ġlayers": 1382,
      "Ġcontrolled": 1383,
      "Ġbehavior": 1384,
      "Ġdirectly": 1385,
      "Ġreproducible": 1386,
      "Ġcharacters": 1387,
      "Ġattempts": 1388,
      "Ġcalculates": 1389,
      "Ġalways": 1390,
      "Ġoutcomes": 1391,
      "Ġautomatically": 1392,
      "Subtract": 1393,
      "144": 1394,
      "30": 1395,
      "50": 1396,
      "60": 1397,
      "65": 1398,
      ":-": 1399,
      ":]": 1400,
      "::-": 1401,
      "=\"": 1402,
      "At": 1403,
      "Ale": 1404,
      "De": 1405,
      "Ds": 1406,
      "Def": 1407,
      "First": 1408,
      "Gr": 1409,
      "Its": 1410,
      "Identify": 1411,
      "Loo": 1412,
      "More": 1413,
      "Mach": 1414,
      "Not": 1415,
      "Overfitting": 1416,
      "Re": 1417,
      "Self": 1418,
      "Ty": 1419,
      "Use": 1420,
      "Zero": 1421,
      "[::-": 1422,
      "])": 1423,
      "];": 1424,
      "]?": 1425,
      "af": 1426,
      "ag": 1427,
      "ax": 1428,
      "ade": 1429,
      "ack": 1430,
      "assign": 1431,
      "bu": 1432,
      "bec": 1433,
      "back": 1434,
      "cre": 1435,
      "cod": 1436,
      "cis": 1437,
      "cause": 1438,
      "do": 1439,
      "dor": 1440,
      "ech": 1441,
      "ever": 1442,
      "eve": 1443,
      "even": 1444,
      "ft": 1445,
      "fam": 1446,
      "file": 1447,
      "face": 1448,
      "gg": 1449,
      "gi": 1450,
      "gre": 1451,
      "gum": 1452,
      "im": 1453,
      "ith": 1454,
      "ion": 1455,
      "ied": 1456,
      "ient": 1457,
      "ill": 1458,
      "iven": 1459,
      "just": 1460,
      "lt": 1461,
      "lar": 1462,
      "lace": 1463,
      "loss": 1464,
      "ms": 1465,
      "mon": 1466,
      "mpose": 1467,
      "ment": 1468,
      "mun": 1469,
      "mit": 1470,
      "mains": 1471,
      "may": 1472,
      "multiple": 1473,
      "mentation": 1474,
      "matter": 1475,
      "ns": 1476,
      "ning": 1477,
      "neg": 1478,
      "nique": 1479,
      "ness": 1480,
      "normal": 1481,
      "ox": 1482,
      "oic": 1483,
      "oor": 1484,
      "ood": 1485,
      "ops": 1486,
      "oci": 1487,
      "overfitting": 1488,
      "pli": 1489,
      "pro": 1490,
      "pri": 1491,
      "pty": 1492,
      "pplic": 1493,
      "rst": 1494,
      "ran": 1495,
      "rent": 1496,
      "rate": 1497,
      "rule": 1498,
      "smal": 1499,
      "spli": 1500,
      "tx": 1501,
      "tely": 1502,
      "upd": 1503,
      "utions": 1504,
      "udor": 1505,
      "valu": 1506,
      "vis": 1507,
      "value": 1508,
      "vant": 1509,
      "war": 1510,
      "was": 1511,
      "ware": 1512,
      "words": 1513,
      "with": 1514,
      "xim": 1515,
      "ze": 1516,
      "Ġ%": 1517,
      "Ġ'": 1518,
      "Ġ<": 1519,
      "Ġen": 1520,
      "Ġle": 1521,
      "Ġem": 1522,
      "Ġend": 1523,
      "Ġef": 1524,
      "ĠWhat": 1525,
      "Ġqu": 1526,
      "ĠAn": 1527,
      "ĠIf": 1528,
      "Ġque": 1529,
      "ĠTy": 1530,
      "ĠZero": 1531,
      "Ġassign": 1532,
      "Ġapplic": 1533,
      "enting": 1534,
      "ense": 1535,
      "enom": 1536,
      "ersion": 1537,
      "erical": 1538,
      "erator": 1539,
      "Ġimple": 1540,
      "Ġidentify": 1541,
      "string": 1542,
      "stical": 1543,
      "stion": 1544,
      "stops": 1545,
      "ntax": 1546,
      "ree": 1547,
      "resi": 1548,
      "rection": 1549,
      "revent": 1550,
      "remains": 1551,
      "ality": 1552,
      "them": 1553,
      "ell": 1554,
      "ties": 1555,
      "tive": 1556,
      "tistical": 1557,
      "sive": 1558,
      "sign": 1559,
      "icate": 1560,
      "icting": 1561,
      "icates": 1562,
      "statement": 1563,
      "ssive": 1564,
      "Ġclear": 1565,
      "Ġcase": 1566,
      "Ġcare": 1567,
      "Ġcorrect": 1568,
      "lest": 1569,
      "levant": 1570,
      "Ġthree": 1571,
      "ors": 1572,
      "oring": 1573,
      "uration": 1574,
      "ata": 1575,
      "inal": 1576,
      "ined": 1577,
      "inference": 1578,
      "inator": 1579,
      "inputs": 1580,
      "ematic": 1581,
      "Ġhow": 1582,
      "Ġthey": 1583,
      "Ġthese": 1584,
      "Ġtas": 1585,
      "Ġtech": 1586,
      "anis": 1587,
      "Ġpse": 1588,
      "Ġpatter": 1589,
      "Ġpoor": 1590,
      "Ġprevent": 1591,
      "Ġargum": 1592,
      "Ġgenerate": 1593,
      "Ġgenerator": 1594,
      "fully": 1595,
      "osed": 1596,
      "Ġgeneralization": 1597,
      "Ġgeneralize": 1598,
      "fication": 1599,
      "fically": 1600,
      "ficient": 1601,
      "ially": 1602,
      "Ġhelps": 1603,
      "syntax": 1604,
      "Ġfar": 1605,
      "Ġform": 1606,
      "Ġfinish": 1607,
      "Ġduring": 1608,
      "Ġdenom": 1609,
      "Ġduration": 1610,
      "Ġreach": 1611,
      "Ġrelevant": 1612,
      "Ġnon": 1613,
      "Ġnum": 1614,
      "Ġnow": 1615,
      "Ġnormally": 1616,
      "Ġnormal": 1617,
      "Ġwent": 1618,
      "Ġwrite": 1619,
      "Ġwords": 1620,
      "Ġwell": 1621,
      "excep": 1622,
      "exist": 1623,
      "Ġbet": 1624,
      "Ġbase": 1625,
      "Ġbui": 1626,
      "Ġbased": 1627,
      "Ġbox": 1628,
      "Ġbran": 1629,
      "Ġ==": 1630,
      "Ġinput": 1631,
      "Ġinade": 1632,
      "Ġcopy": 1633,
      "Ġcomple": 1634,
      "Ġcompose": 1635,
      "art": 1636,
      "Ġover": 1637,
      "Ġoverfitting": 1638,
      "Ġmeth": 1639,
      "Ġmigh": 1640,
      "Ġmust": 1641,
      "Ġmater": 1642,
      "Ġmess": 1643,
      "Ġsum": 1644,
      "Ġsom": 1645,
      "Ġsco": 1646,
      "Ġsaf": 1647,
      "Ġsense": 1648,
      "Ġvers": 1649,
      "Ġversion": 1650,
      "Ġexist": 1651,
      "Ġexplic": 1652,
      "Ġ144": 1653,
      "Ġiterate": 1654,
      "under": 1655,
      "Ġwhose": 1656,
      "Ġwhere": 1657,
      "ational": 1658,
      "Ġlen": 1659,
      "Ġlong": 1660,
      "Ġloss": 1661,
      "mponents": 1662,
      "ctions": 1663,
      "itor": 1664,
      "item": 1665,
      "itly": 1666,
      "gest": 1667,
      "Ġline": 1668,
      "Ġlimit": 1669,
      "oregre": 1670,
      "Ġtransform": 1671,
      "Ġtrace": 1672,
      "ameError": 1673,
      "quately": 1674,
      "Ġrate": 1675,
      "Ġorig": 1676,
      "Ġretri": 1677,
      "chanis": 1678,
      "peError": 1679,
      "utf": 1680,
      "utational": 1681,
      "Ġcontain": 1682,
      "ategi": 1683,
      "Ġbeing": 1684,
      "Ġbecause": 1685,
      "Ġnew": 1686,
      "Ġnecess": 1687,
      "ects": 1688,
      "Ġcompati": 1689,
      "Ġcomputational": 1690,
      "arification": 1691,
      "sions": 1692,
      "Ġconver": 1693,
      "Ġconvert": 1694,
      "Ġconne": 1695,
      "Ġconcis": 1696,
      "Ġdivid": 1697,
      "Ġdivide": 1698,
      "Ġresolved": 1699,
      "Ġmodels": 1700,
      "Ġstep": 1701,
      "Ġstill": 1702,
      "Ġstoring": 1703,
      "Ġfirst": 1704,
      "Ġreplace": 1705,
      "Ġseen": 1706,
      "Ġeven": 1707,
      "Ġevent": 1708,
      "Ġevalu": 1709,
      "Ġsize": 1710,
      "Ġcreating": 1711,
      "dure": 1712,
      "dual": 1713,
      "Ġprints": 1714,
      "differ": 1715,
      "divis": 1716,
      "direction": 1717,
      "Ġadds": 1718,
      "Ġadjust": 1719,
      "Ġmay": 1720,
      "Ġrepresenting": 1721,
      "defined": 1722,
      "izing": 1723,
      "ictions": 1724,
      "Ġchoic": 1725,
      "cepts": 1726,
      "ĠĠĠĠĠĠĠĠĠĠĠ": 1727,
      "However": 1728,
      "Invalid": 1729,
      "ĠTraining": 1730,
      "Ġindexes": 1731,
      "Ġrepresentations": 1732,
      "cursion": 1733,
      "current": 1734,
      "iliar": 1735,
      "Ġgui": 1736,
      "Ġgiven": 1737,
      "Ġgood": 1738,
      "Ġstatistical": 1739,
      "Ġunique": 1740,
      "Ġunfam": 1741,
      "Ġundefined": 1742,
      "alidation": 1743,
      "element": 1744,
      "times": 1745,
      "Ġcalls": 1746,
      "Ġcaller": 1747,
      "Ġcalling": 1748,
      "Ġloops": 1749,
      "Ġperforms": 1750,
      "Ġperformed": 1751,
      "Ġperforming": 1752,
      "Ġ65": 1753,
      "Ġask": 1754,
      "Ġparts": 1755,
      "ameters": 1756,
      "Ġsoft": 1757,
      "Ġ100": 1758,
      "Ġprobabilities": 1759,
      "Ġ*=": 1760,
      "andom": 1761,
      "Ġdeci": 1762,
      "Ġdeep": 1763,
      "Ġdebu": 1764,
      "Ġdesign": 1765,
      "Ġoptimization": 1766,
      "Ġpositions": 1767,
      "Ġpositive": 1768,
      "Ġparameter": 1769,
      "Ġlanguag": 1770,
      "ative": 1771,
      "cifically": 1772,
      "forwar": 1773,
      "Ġoutputs": 1774,
      "Ġaccepts": 1775,
      "Ġitems": 1776,
      "Ġneeded": 1777,
      "Ġincreased": 1778,
      "Ġmathematic": 1779,
      "Ġchanges": 1780,
      "Ġchanging": 1781,
      "Ġimportant": 1782,
      "Division": 1783,
      "ecting": 1784,
      "ething": 1785,
      "ĠValidation": 1786,
      "Ġgradient": 1787,
      "Ġhandling": 1788,
      "Ġmanage": 1789,
      "Ġrandomness": 1790,
      "Ġprogrammed": 1791,
      "Ġfactors": 1792,
      "Add": 1793,
      "Start": 1794,
      "commun": 1795,
      "mechanis": 1796,
      "operator": 1797,
      "parameters": 1798,
      "try": 1799,
      "ĠNameError": 1800,
      "Ġautoregre": 1801,
      "Ġinterface": 1802,
      "Ġrecursive": 1803,
      "Ġindicates": 1804,
      "Ġoccurred": 1805,
      "Ġmeaning": 1806,
      "Ġspecifically": 1807,
      "Ġsmallest": 1808,
      "umption": 1809,
      "Ġrunning": 1810,
      "Ġorganizing": 1811,
      "Ġstrategi": 1812,
      "Ġtypical": 1813,
      "Ġchecks": 1814,
      "Ġchecking": 1815,
      "Ġgreater": 1816,
      "Ġoperations": 1817,
      "Ġgroup": 1818,
      "Ġerrors": 1819,
      "Ġconstructs": 1820,
      "())": 1821,
      "components": 1822,
      "ĠDuring": 1823,
      "ĠData": 1824,
      "ĠIDs": 1825,
      "Ġsystems": 1826,
      "Ġassoci": 1827,
      "Ġassumption": 1828,
      "Ġclosed": 1829,
      "Ġclarification": 1830,
      "Ġpredicting": 1831,
      "Ġpredictions": 1832,
      "Ġfeed": 1833,
      "Ġfewer": 1834,
      "Ġfind": 1835,
      "Ġfinds": 1836,
      "Ġrepeating": 1837,
      "Ġrepeats": 1838,
      "Ġreading": 1839,
      "Ġreverse": 1840,
      "Ġreverses": 1841,
      "Ġexecuting": 1842,
      "Ġexecutions": 1843,
      "Ġproceed": 1844,
      "Ġprocedure": 1845,
      "Ġmodify": 1846,
      "Ġmodified": 1847,
      "Ġstored": 1848,
      "Ġstores": 1849,
      "Ġmake": 1850,
      "Ġmakes": 1851,
      "assumption": 1852,
      "assumptions": 1853,
      "Ġaffects": 1854,
      "Ġaffecting": 1855,
      "Ġstate": 1856,
      "Ġstated": 1857,
      "Ġdepends": 1858,
      "Ġdepending": 1859,
      "Ġinterpretation": 1860,
      "Ġinterpretations": 1861,
      "Ġappropri": 1862,
      "Ġapproxim": 1863,
      "Ġcounts": 1864,
      "Ġexpects": 1865,
      "Ġexpected": 1866,
      ":]:": 1867,
      "Attention": 1868,
      "Alex": 1869,
      "Deep": 1870,
      "Define": 1871,
      "Gradient": 1872,
      "Loops": 1873,
      "Machine": 1874,
      "Recursion": 1875,
      "because": 1876,
      "created": 1877,
      "coding": 1878,
      "does": 1879,
      "gging": 1880,
      "largest": 1881,
      "monitor": 1882,
      "negative": 1883,
      "produce": 1884,
      "smaller": 1885,
      "split": 1886,
      "txt": 1887,
      "update": 1888,
      "udorandom": 1889,
      "Ġencoding": 1890,
      "Ġlead": 1891,
      "Ġempty": 1892,
      "Ġefficient": 1893,
      "Ġquality": 1894,
      "Ġquestion": 1895,
      "ĠTypeError": 1896,
      "ĠZeroDivision": 1897,
      "Ġassignment": 1898,
      "Ġapplications": 1899,
      "Ġimplementation": 1900,
      "residual": 1901,
      "Ġcarefully": 1902,
      "Ġtask": 1903,
      "Ġtechnique": 1904,
      "Ġpseudorandom": 1905,
      "Ġpatterns": 1906,
      "Ġpoorly": 1907,
      "Ġarguments": 1908,
      "Ġformats": 1909,
      "Ġfinishes": 1910,
      "Ġdenominator": 1911,
      "Ġreaches": 1912,
      "Ġnumerical": 1913,
      "Ġnormalization": 1914,
      "except": 1915,
      "Ġbetter": 1916,
      "Ġbuilt": 1917,
      "Ġbranch": 1918,
      "Ġinadequately": 1919,
      "Ġcompletely": 1920,
      "Ġcomposed": 1921,
      "Ġmethod": 1922,
      "Ġmight": 1923,
      "Ġmaterially": 1924,
      "Ġmessage": 1925,
      "Ġsomething": 1926,
      "Ġscope": 1927,
      "Ġsafely": 1928,
      "Ġversus": 1929,
      "Ġexplicitly": 1930,
      "Ġlimited": 1931,
      "Ġtraceback": 1932,
      "Ġoriginal": 1933,
      "Ġretrieve": 1934,
      "Ġnecessarily": 1935,
      "Ġcompatible": 1936,
      "Ġconverts": 1937,
      "Ġconnections": 1938,
      "Ġconcise": 1939,
      "Ġdivided": 1940,
      "Ġreplaced": 1941,
      "Ġevaluate": 1942,
      "different": 1943,
      "divisors": 1944,
      "Ġadjusted": 1945,
      "Ġchoices": 1946,
      "Ġguide": 1947,
      "Ġunfamiliar": 1948,
      "Ġsoftware": 1949,
      "Ġdecisions": 1950,
      "Ġdebugging": 1951,
      "Ġdesigns": 1952,
      "Ġlanguages": 1953,
      "forward": 1954,
      "Ġmathematical": 1955,
      "communicate": 1956,
      "mechanisms": 1957,
      "Ġautoregressive": 1958,
      "Ġstrategies": 1959,
      "Ġassociations": 1960,
      "Ġappropriately": 1961,
      "Ġapproximately": 1962,
      "Ġefficiently": 1963,
      "ĠZeroDivisionError": 1964
    },
    "merges": [
      [
        "Ġ",
        "a"
      ],
      [
        "e",
        "n"
      ],
      [
        "e",
        "r"
      ],
      [
        "Ġ",
        "i"
      ],
      [
        "s",
        "t"
      ],
      [
        "n",
        "t"
      ],
      [
        "r",
        "e"
      ],
      [
        "o",
        "s"
      ],
      [
        "a",
        "l"
      ],
      [
        "t",
        "h"
      ],
      [
        "e",
        "l"
      ],
      [
        "t",
        "i"
      ],
      [
        "o",
        "n"
      ],
      [
        "s",
        "i"
      ],
      [
        "i",
        "c"
      ],
      [
        "st",
        "a"
      ],
      [
        "s",
        "si"
      ],
      [
        "g",
        "en"
      ],
      [
        "sta",
        "nt"
      ],
      [
        "ssi",
        "stant"
      ],
      [
        "Ġ",
        "c"
      ],
      [
        "l",
        "e"
      ],
      [
        "Ġ",
        "th"
      ],
      [
        "c",
        "e"
      ],
      [
        "o",
        "r"
      ],
      [
        "u",
        "r"
      ],
      [
        "l",
        "i"
      ],
      [
        "a",
        "t"
      ],
      [
        "Ġi",
        "s"
      ],
      [
        "i",
        "n"
      ],
      [
        "u",
        "l"
      ],
      [
        "Ġ",
        "Ġ"
      ],
      [
        "Ġa",
        "re"
      ],
      [
        "e",
        "m"
      ],
      [
        "u",
        "s"
      ],
      [
        "o",
        "u"
      ],
      [
        "Ġ",
        "h"
      ],
      [
        "Ġi",
        "nt"
      ],
      [
        "Ġth",
        "e"
      ],
      [
        "Ġ",
        "t"
      ],
      [
        "a",
        "n"
      ],
      [
        "ti",
        "on"
      ],
      [
        "Ġ",
        "p"
      ],
      [
        "en",
        "d"
      ],
      [
        "Ġa",
        "r"
      ],
      [
        "Ġ",
        "gen"
      ],
      [
        "Ġgen",
        "er"
      ],
      [
        "f",
        "ul"
      ],
      [
        "os",
        "e"
      ],
      [
        "Ġgener",
        "al"
      ],
      [
        "f",
        "ic"
      ],
      [
        "i",
        "al"
      ],
      [
        "el",
        "p"
      ],
      [
        "Ġh",
        "elp"
      ],
      [
        "Y",
        "ou"
      ],
      [
        "s",
        "y"
      ],
      [
        "M",
        "os"
      ],
      [
        "a",
        "ic"
      ],
      [
        "Ġ",
        "f"
      ],
      [
        "st",
        "em"
      ],
      [
        "sy",
        "stem"
      ],
      [
        "Mos",
        "aic"
      ],
      [
        "p",
        "ose"
      ],
      [
        "el",
        "li"
      ],
      [
        "ti",
        "fic"
      ],
      [
        "gen",
        "ce"
      ],
      [
        "Ġint",
        "elli"
      ],
      [
        "Ġar",
        "tific"
      ],
      [
        "Ġintelli",
        "gence"
      ],
      [
        "Ġartific",
        "ial"
      ],
      [
        "a",
        "ssistant"
      ],
      [
        "b",
        "os"
      ],
      [
        "p",
        "ur"
      ],
      [
        "Ġ",
        "Mosaic"
      ],
      [
        "Ġa",
        "ssistant"
      ],
      [
        "us",
        "er"
      ],
      [
        "Ġhelp",
        "ful"
      ],
      [
        "pur",
        "pose"
      ],
      [
        "Ġ",
        "d"
      ],
      [
        "Ġ",
        "re"
      ],
      [
        "e",
        "s"
      ],
      [
        "Ġa",
        "n"
      ],
      [
        "Ġ",
        "n"
      ],
      [
        "a",
        "m"
      ],
      [
        "Ġ",
        "w"
      ],
      [
        "e",
        "x"
      ],
      [
        "Ġ",
        "b"
      ],
      [
        "e",
        "d"
      ],
      [
        "Ġ",
        "="
      ],
      [
        "Ġi",
        "n"
      ],
      [
        "en",
        "t"
      ],
      [
        "Ġc",
        "o"
      ],
      [
        "a",
        "r"
      ],
      [
        "r",
        "o"
      ],
      [
        "Ġ",
        "o"
      ],
      [
        "Ġ",
        "m"
      ],
      [
        "Ġ",
        "s"
      ],
      [
        "P",
        "y"
      ],
      [
        "th",
        "on"
      ],
      [
        "Py",
        "thon"
      ],
      [
        "W",
        "h"
      ],
      [
        "Ġ",
        "v"
      ],
      [
        "T",
        "h"
      ],
      [
        "p",
        "le"
      ],
      [
        "Ġ",
        "ex"
      ],
      [
        "Ġan",
        "d"
      ],
      [
        "in",
        "g"
      ],
      [
        "u",
        "m"
      ],
      [
        "e",
        "f"
      ],
      [
        "Wh",
        "at"
      ],
      [
        "c",
        "t"
      ],
      [
        "Ġ",
        "Python"
      ],
      [
        "er",
        "s"
      ],
      [
        "al",
        "u"
      ],
      [
        "Ġt",
        "o"
      ],
      [
        "a",
        "b"
      ],
      [
        "e",
        "t"
      ],
      [
        "Ġ",
        "1"
      ],
      [
        "ĠĠ",
        "Ġ"
      ],
      [
        "Ġo",
        "f"
      ],
      [
        "Ġv",
        "alu"
      ],
      [
        "Ġi",
        "t"
      ],
      [
        "Ġ",
        "2"
      ],
      [
        "a",
        "in"
      ],
      [
        "um",
        "b"
      ],
      [
        "Ġp",
        "ro"
      ],
      [
        "am",
        "ple"
      ],
      [
        "l",
        "y"
      ],
      [
        "u",
        "n"
      ],
      [
        "Ġw",
        "h"
      ],
      [
        "a",
        "tion"
      ],
      [
        "Ġ",
        "l"
      ],
      [
        "Ġc",
        "an"
      ],
      [
        "ab",
        "le"
      ],
      [
        "m",
        "p"
      ],
      [
        "a",
        "s"
      ],
      [
        "c",
        "tion"
      ],
      [
        "i",
        "t"
      ],
      [
        "Ġp",
        "er"
      ],
      [
        "Ġex",
        "ample"
      ],
      [
        "g",
        "e"
      ],
      [
        "Ġ",
        "5"
      ],
      [
        "Ġ",
        "li"
      ],
      [
        "o",
        "d"
      ],
      [
        "F",
        "or"
      ],
      [
        "Ġw",
        "i"
      ],
      [
        "Ġvalu",
        "e"
      ],
      [
        "o",
        "re"
      ],
      [
        "Ġt",
        "r"
      ],
      [
        "am",
        "e"
      ],
      [
        "q",
        "u"
      ],
      [
        "Ġli",
        "st"
      ],
      [
        "d",
        "e"
      ],
      [
        "i",
        "s"
      ],
      [
        "n",
        "g"
      ],
      [
        "Ġth",
        "at"
      ],
      [
        "Ġd",
        "o"
      ],
      [
        "Th",
        "e"
      ],
      [
        "Th",
        "er"
      ],
      [
        "Ġ",
        "r"
      ],
      [
        "Ġ",
        "us"
      ],
      [
        "Ġf",
        "un"
      ],
      [
        "Ġn",
        "umb"
      ],
      [
        "ef",
        "ore"
      ],
      [
        "Ġfun",
        "ction"
      ],
      [
        "Ġ",
        "7"
      ],
      [
        "or",
        "m"
      ],
      [
        "Ġm",
        "od"
      ],
      [
        "Ġwh",
        "en"
      ],
      [
        "Ġ",
        "or"
      ],
      [
        "Ġre",
        "t"
      ],
      [
        "c",
        "h"
      ],
      [
        "p",
        "e"
      ],
      [
        "u",
        "t"
      ],
      [
        "Ġ",
        "3"
      ],
      [
        "ur",
        "n"
      ],
      [
        "Ġco",
        "nt"
      ],
      [
        "Ther",
        "efore"
      ],
      [
        "Ġret",
        "urn"
      ],
      [
        "Ġ",
        "+"
      ],
      [
        "Ġ",
        "Ã"
      ],
      [
        "re",
        "s"
      ],
      [
        "at",
        "e"
      ],
      [
        "an",
        "g"
      ],
      [
        "Ġb",
        "e"
      ],
      [
        "ro",
        "m"
      ],
      [
        ")",
        ":"
      ],
      [
        "c",
        "ent"
      ],
      [
        "d",
        "s"
      ],
      [
        "l",
        "o"
      ],
      [
        "Ġ",
        "x"
      ],
      [
        "Ġn",
        "e"
      ],
      [
        "e",
        "ct"
      ],
      [
        "o",
        "o"
      ],
      [
        "r",
        "i"
      ],
      [
        "Ġf",
        "rom"
      ],
      [
        "Ġb",
        "y"
      ],
      [
        "Ġco",
        "mp"
      ],
      [
        "ar",
        "i"
      ],
      [
        "Ġwi",
        "th"
      ],
      [
        "f",
        "er"
      ],
      [
        "f",
        "orm"
      ],
      [
        "Ġ",
        "4"
      ],
      [
        "ti",
        "ng"
      ],
      [
        "si",
        "on"
      ],
      [
        "Ġc",
        "on"
      ],
      [
        "Ġd",
        "i"
      ],
      [
        "Ġre",
        "s"
      ],
      [
        "ent",
        "s"
      ],
      [
        "Ġper",
        "cent"
      ],
      [
        "Ġdo",
        "es"
      ],
      [
        "Ġmod",
        "el"
      ],
      [
        "ĠÃ",
        "Ĺ"
      ],
      [
        "E",
        "x"
      ],
      [
        "d",
        "ex"
      ],
      [
        "n",
        "umb"
      ],
      [
        "o",
        "t"
      ],
      [
        "v",
        "er"
      ],
      [
        "Ġ",
        "st"
      ],
      [
        "Ġp",
        "ri"
      ],
      [
        "Ġf",
        "i"
      ],
      [
        "Ġre",
        "p"
      ],
      [
        "Ġs",
        "e"
      ],
      [
        "Ġnumb",
        "er"
      ],
      [
        "Ġres",
        "ul"
      ],
      [
        "i",
        "d"
      ],
      [
        "o",
        "th"
      ],
      [
        "s",
        "e"
      ],
      [
        "Ġ",
        "0"
      ],
      [
        "Ġ",
        "8"
      ],
      [
        "Ġ",
        "e"
      ],
      [
        "Ġ",
        "si"
      ],
      [
        "en",
        "ce"
      ],
      [
        "Ġc",
        "re"
      ],
      [
        "Ġt",
        "y"
      ],
      [
        "Ġf",
        "or"
      ],
      [
        "Ġn",
        "ame"
      ],
      [
        "Ġco",
        "de"
      ],
      [
        "et",
        "w"
      ],
      [
        "Ġ1",
        "2"
      ],
      [
        "ain",
        "ing"
      ],
      [
        "a",
        "i"
      ],
      [
        "d",
        "u"
      ],
      [
        "g",
        "r"
      ],
      [
        "u",
        "ple"
      ],
      [
        "el",
        "f"
      ],
      [
        "in",
        "e"
      ],
      [
        "Ġd",
        "at"
      ],
      [
        "Ġd",
        "ef"
      ],
      [
        "Ġvalu",
        "es"
      ],
      [
        "Ġpri",
        "nt"
      ],
      [
        "a",
        "ct"
      ],
      [
        "a",
        "ge"
      ],
      [
        "b",
        "j"
      ],
      [
        "c",
        "k"
      ],
      [
        "d",
        "i"
      ],
      [
        "o",
        "m"
      ],
      [
        "o",
        "w"
      ],
      [
        "r",
        "or"
      ],
      [
        "s",
        "s"
      ],
      [
        "t",
        "s"
      ],
      [
        "Ġ",
        "on"
      ],
      [
        "Ġa",
        "d"
      ],
      [
        "or",
        "k"
      ],
      [
        "Ġin",
        "c"
      ],
      [
        "Ġm",
        "a"
      ],
      [
        "as",
        "s"
      ],
      [
        "qu",
        "a"
      ],
      [
        "Ġrep",
        "res"
      ],
      [
        "bj",
        "ect"
      ],
      [
        "T",
        "r"
      ],
      [
        "d",
        "ef"
      ],
      [
        "f",
        "fer"
      ],
      [
        "i",
        "z"
      ],
      [
        "m",
        "et"
      ],
      [
        "p",
        "l"
      ],
      [
        "v",
        "e"
      ],
      [
        "Ġi",
        "f"
      ],
      [
        "ic",
        "tion"
      ],
      [
        "Ġc",
        "h"
      ],
      [
        "le",
        "ar"
      ],
      [
        "ce",
        "p"
      ],
      [
        "ĠĠ",
        "ĠĠ"
      ],
      [
        "ex",
        "t"
      ],
      [
        "Ġ2",
        "0"
      ],
      [
        "Ġr",
        "an"
      ],
      [
        "ari",
        "able"
      ],
      [
        "Ġty",
        "pe"
      ],
      [
        "Ġdat",
        "a"
      ],
      [
        "A",
        "n"
      ],
      [
        "H",
        "ow"
      ],
      [
        "e",
        "g"
      ],
      [
        "l",
        "ass"
      ],
      [
        "r",
        "ing"
      ],
      [
        "t",
        "er"
      ],
      [
        "Ġ",
        "\""
      ],
      [
        "Ġ",
        "u"
      ],
      [
        "ce",
        "ss"
      ],
      [
        "at",
        "es"
      ],
      [
        "Ġt",
        "uple"
      ],
      [
        "Ġd",
        "iction"
      ],
      [
        "Ġn",
        "ot"
      ],
      [
        "Ġn",
        "etw"
      ],
      [
        "ar",
        "y"
      ],
      [
        "Ġo",
        "bject"
      ],
      [
        "Ġit",
        "s"
      ],
      [
        "Ġpro",
        "b"
      ],
      [
        "ut",
        "able"
      ],
      [
        "Ġdi",
        "ffer"
      ],
      [
        "numb",
        "ers"
      ],
      [
        "Ġad",
        "d"
      ],
      [
        "lear",
        "n"
      ],
      [
        "Ġdiction",
        "ary"
      ],
      [
        "Ġnetw",
        "ork"
      ],
      [
        "E",
        "r"
      ],
      [
        "I",
        "n"
      ],
      [
        "a",
        "v"
      ],
      [
        "g",
        "th"
      ],
      [
        "l",
        "s"
      ],
      [
        "n",
        "ame"
      ],
      [
        "p",
        "s"
      ],
      [
        "u",
        "e"
      ],
      [
        "Ġ",
        "Tr"
      ],
      [
        "Ġ",
        "learn"
      ],
      [
        "Ġa",
        "f"
      ],
      [
        "Ġa",
        "t"
      ],
      [
        "en",
        "gth"
      ],
      [
        "ur",
        "al"
      ],
      [
        "Ġint",
        "eg"
      ],
      [
        "Ġin",
        "dex"
      ],
      [
        "Wh",
        "y"
      ],
      [
        "Ġv",
        "ariable"
      ],
      [
        "Ġex",
        "cep"
      ],
      [
        "ain",
        "s"
      ],
      [
        "Ġpro",
        "gr"
      ],
      [
        "Ġl",
        "ar"
      ],
      [
        "mp",
        "ly"
      ],
      [
        "Ġus",
        "ed"
      ],
      [
        "Ġne",
        "ural"
      ],
      [
        "Ex",
        "pl"
      ],
      [
        "Ġfi",
        "le"
      ],
      [
        "Ġresul",
        "t"
      ],
      [
        "Ġsi",
        "mply"
      ],
      [
        "du",
        "ce"
      ],
      [
        "Ġrepres",
        "ent"
      ],
      [
        "ĠĠĠĠ",
        "ĠĠĠ"
      ],
      [
        "Er",
        "ror"
      ],
      [
        "Ġprogr",
        "am"
      ],
      [
        "Expl",
        "ain"
      ],
      [
        "\"",
        ")"
      ],
      [
        "(",
        "\""
      ],
      [
        "a",
        "d"
      ],
      [
        "c",
        "ur"
      ],
      [
        "d",
        "th"
      ],
      [
        "h",
        "en"
      ],
      [
        "i",
        "r"
      ],
      [
        "i",
        "li"
      ],
      [
        "k",
        "en"
      ],
      [
        "l",
        "le"
      ],
      [
        "o",
        "ur"
      ],
      [
        "r",
        "it"
      ],
      [
        "t",
        "em"
      ],
      [
        "y",
        "ou"
      ],
      [
        "Ġ",
        "/"
      ],
      [
        "Ġ",
        "g"
      ],
      [
        "Ġ",
        "sta"
      ],
      [
        "Ġ",
        "un"
      ],
      [
        "Ġ",
        "you"
      ],
      [
        "re",
        "hen"
      ],
      [
        "al",
        "ly"
      ],
      [
        "al",
        "id"
      ],
      [
        "el",
        "em"
      ],
      [
        "ti",
        "m"
      ],
      [
        "Ġc",
        "al"
      ],
      [
        "Ġc",
        "lass"
      ],
      [
        "Ġp",
        "os"
      ],
      [
        "Ġre",
        "ct"
      ],
      [
        "Ġb",
        "lo"
      ],
      [
        "Ġb",
        "oth"
      ],
      [
        "Ġs",
        "qua"
      ],
      [
        "Ġto",
        "ken"
      ],
      [
        "Ġl",
        "oo"
      ],
      [
        "as",
        "e"
      ],
      [
        "Ġper",
        "form"
      ],
      [
        "Ġ5",
        "0"
      ],
      [
        "Ġwi",
        "dth"
      ],
      [
        "Ġr",
        "a"
      ],
      [
        "Ġnumb",
        "ers"
      ],
      [
        "Ġcont",
        "ains"
      ],
      [
        "ang",
        "le"
      ],
      [
        "Ġcomp",
        "rehen"
      ],
      [
        "Ġdiffer",
        "ent"
      ],
      [
        "rit",
        "e"
      ],
      [
        "Ġrect",
        "angle"
      ],
      [
        "Ġblo",
        "ck"
      ],
      [
        "Ġcomprehen",
        "sion"
      ],
      [
        "\"",
        ","
      ],
      [
        "1",
        "5"
      ],
      [
        "W",
        "rite"
      ],
      [
        "a",
        "y"
      ],
      [
        "a",
        "ch"
      ],
      [
        "d",
        "er"
      ],
      [
        "g",
        "h"
      ],
      [
        "m",
        "m"
      ],
      [
        "o",
        "l"
      ],
      [
        "p",
        "d"
      ],
      [
        "t",
        "y"
      ],
      [
        "t",
        "en"
      ],
      [
        "u",
        "le"
      ],
      [
        "v",
        "i"
      ],
      [
        "Ġ",
        "("
      ],
      [
        "Ġ",
        "-"
      ],
      [
        "Ġ",
        "6"
      ],
      [
        "Ġ",
        "["
      ],
      [
        "Ġ",
        "k"
      ],
      [
        "Ġ",
        "elem"
      ],
      [
        "Ġa",
        "l"
      ],
      [
        "Ġa",
        "s"
      ],
      [
        "er",
        "ate"
      ],
      [
        "el",
        "y"
      ],
      [
        "ou",
        "t"
      ],
      [
        "tion",
        "s"
      ],
      [
        "Ġp",
        "ar"
      ],
      [
        "Ġf",
        "ai"
      ],
      [
        "am",
        "et"
      ],
      [
        "Ġs",
        "o"
      ],
      [
        "ab",
        "ili"
      ],
      [
        "Ġ1",
        "0"
      ],
      [
        "Ġ1",
        "5"
      ],
      [
        "Ġpro",
        "cess"
      ],
      [
        "ation",
        "s"
      ],
      [
        "Ġl",
        "ength"
      ],
      [
        "Ġtr",
        "aining"
      ],
      [
        "qu",
        "ence"
      ],
      [
        "Ġus",
        "e"
      ],
      [
        "Ġus",
        "es"
      ],
      [
        "Ġcon",
        "di"
      ],
      [
        "Ġst",
        "ring"
      ],
      [
        "Ġse",
        "quence"
      ],
      [
        "Ġran",
        "ge"
      ],
      [
        "Ġprob",
        "abili"
      ],
      [
        "Ġaf",
        "ter"
      ],
      [
        "Ġinteg",
        "er"
      ],
      [
        "Ġlar",
        "ge"
      ],
      [
        "Ġloo",
        "p"
      ],
      [
        "ten",
        "tion"
      ],
      [
        "Ġelem",
        "ents"
      ],
      [
        "B",
        "oo"
      ],
      [
        "I",
        "f"
      ],
      [
        "a",
        "ds"
      ],
      [
        "e",
        "ads"
      ],
      [
        "i",
        "met"
      ],
      [
        "p",
        "p"
      ],
      [
        "p",
        "re"
      ],
      [
        "s",
        "elf"
      ],
      [
        "w",
        "o"
      ],
      [
        "Ġ",
        "*"
      ],
      [
        "Ġ",
        "{"
      ],
      [
        "en",
        "um"
      ],
      [
        "er",
        "able"
      ],
      [
        "al",
        "se"
      ],
      [
        "le",
        "an"
      ],
      [
        "Ġare",
        "a"
      ],
      [
        "Ġh",
        "eads"
      ],
      [
        "Ġt",
        "wo"
      ],
      [
        "an",
        "d"
      ],
      [
        "Ġd",
        "e"
      ],
      [
        "Ġco",
        "lle"
      ],
      [
        "Ġo",
        "p"
      ],
      [
        "Ġs",
        "u"
      ],
      [
        "Ġit",
        "erable"
      ],
      [
        "Ġpro",
        "duce"
      ],
      [
        "Ġl",
        "ang"
      ],
      [
        "Ġper",
        "imet"
      ],
      [
        "Ġor",
        "der"
      ],
      [
        "Ġ4",
        "0"
      ],
      [
        "Ex",
        "ample"
      ],
      [
        "Ġ8",
        "0"
      ],
      [
        "Ġu",
        "pd"
      ],
      [
        "Ġobject",
        "s"
      ],
      [
        "tem",
        "ent"
      ],
      [
        "Ġpos",
        "i"
      ],
      [
        "Ġra",
        "is"
      ],
      [
        "Ġpar",
        "amet"
      ],
      [
        "Ġprobabili",
        "ty"
      ],
      [
        "Boo",
        "lean"
      ],
      [
        "enum",
        "erate"
      ],
      [
        "Ġcolle",
        "ction"
      ],
      [
        "Ġlang",
        "u"
      ],
      [
        "Ġperimet",
        "er"
      ],
      [
        "Ġorder",
        "ed"
      ],
      [
        "a",
        "re"
      ],
      [
        "a",
        "ti"
      ],
      [
        "b",
        "le"
      ],
      [
        "c",
        "i"
      ],
      [
        "c",
        "on"
      ],
      [
        "f",
        "or"
      ],
      [
        "i",
        "lo"
      ],
      [
        "l",
        "u"
      ],
      [
        "m",
        "b"
      ],
      [
        "s",
        "form"
      ],
      [
        "Ġ",
        "A"
      ],
      [
        "Ġ",
        "out"
      ],
      [
        "Ġa",
        "c"
      ],
      [
        "er",
        "e"
      ],
      [
        "Ġi",
        "mp"
      ],
      [
        "Ġi",
        "mm"
      ],
      [
        "re",
        "ct"
      ],
      [
        "re",
        "ad"
      ],
      [
        "Ġth",
        "an"
      ],
      [
        "Ġth",
        "is"
      ],
      [
        "or",
        "t"
      ],
      [
        "or",
        "ds"
      ],
      [
        "Ġh",
        "as"
      ],
      [
        "Ġh",
        "our"
      ],
      [
        "an",
        "sform"
      ],
      [
        "Ġm",
        "utable"
      ],
      [
        "Ġv",
        "alid"
      ],
      [
        "Ġit",
        "em"
      ],
      [
        "it",
        "s"
      ],
      [
        "Ġtr",
        "ain"
      ],
      [
        "Ġtr",
        "av"
      ],
      [
        "Ġtr",
        "ue"
      ],
      [
        "Ġlist",
        "s"
      ],
      [
        "Ġreturn",
        "s"
      ],
      [
        "Ġne",
        "ed"
      ],
      [
        "fer",
        "ence"
      ],
      [
        "numb",
        "er"
      ],
      [
        "Ġse",
        "con"
      ],
      [
        "Ġe",
        "ach"
      ],
      [
        "Ġinc",
        "re"
      ],
      [
        "Ġinc",
        "lu"
      ],
      [
        "Ġma",
        "th"
      ],
      [
        "iz",
        "ation"
      ],
      [
        "met",
        "ers"
      ],
      [
        "Ġch",
        "ang"
      ],
      [
        "Ġ20",
        "0"
      ],
      [
        "Ġlearn",
        "ing"
      ],
      [
        "Ġexcep",
        "tion"
      ],
      [
        "Ġsta",
        "tement"
      ],
      [
        "Ġun",
        "its"
      ],
      [
        "Ġsqua",
        "re"
      ],
      [
        "Ġtoken",
        "s"
      ],
      [
        "Ġk",
        "ilo"
      ],
      [
        "Ġcondi",
        "tion"
      ],
      [
        "Ġlarge",
        "st"
      ],
      [
        "Ġparamet",
        "ers"
      ],
      [
        "Ġlangu",
        "age"
      ],
      [
        "Ġimp",
        "ort"
      ],
      [
        "Ġimm",
        "utable"
      ],
      [
        "Ġtrav",
        "el"
      ],
      [
        "Ġsecon",
        "ds"
      ],
      [
        "Ġkilo",
        "meters"
      ],
      [
        "1",
        "0"
      ],
      [
        "D",
        "i"
      ],
      [
        "F",
        "alse"
      ],
      [
        "M",
        "od"
      ],
      [
        "S",
        "ol"
      ],
      [
        "_",
        "_"
      ],
      [
        "c",
        "an"
      ],
      [
        "d",
        "es"
      ],
      [
        "d",
        "om"
      ],
      [
        "e",
        "c"
      ],
      [
        "e",
        "en"
      ],
      [
        "e",
        "th"
      ],
      [
        "f",
        "ers"
      ],
      [
        "i",
        "f"
      ],
      [
        "i",
        "st"
      ],
      [
        "i",
        "le"
      ],
      [
        "i",
        "an"
      ],
      [
        "i",
        "gh"
      ],
      [
        "l",
        "l"
      ],
      [
        "l",
        "er"
      ],
      [
        "l",
        "able"
      ],
      [
        "m",
        "al"
      ],
      [
        "n",
        "ot"
      ],
      [
        "o",
        "le"
      ],
      [
        "s",
        "qua"
      ],
      [
        "t",
        "ext"
      ],
      [
        "u",
        "re"
      ],
      [
        "u",
        "ti"
      ],
      [
        "v",
        "id"
      ],
      [
        "w",
        "er"
      ],
      [
        "Ġ",
        "V"
      ],
      [
        "Ġ",
        "gr"
      ],
      [
        "Ġ",
        "tim"
      ],
      [
        "Ġ",
        "Boolean"
      ],
      [
        "Ġ",
        "enumerate"
      ],
      [
        "Ġ",
        "False"
      ],
      [
        "on",
        "ents"
      ],
      [
        "si",
        "ng"
      ],
      [
        "ssi",
        "on"
      ],
      [
        "at",
        "ed"
      ],
      [
        "Ġh",
        "and"
      ],
      [
        "Ġint",
        "o"
      ],
      [
        "Ġint",
        "end"
      ],
      [
        "Ġt",
        "ext"
      ],
      [
        "Ġar",
        "ch"
      ],
      [
        "Ġf",
        "act"
      ],
      [
        "Ġre",
        "fers"
      ],
      [
        "Ġb",
        "etw"
      ],
      [
        "ed",
        "ian"
      ],
      [
        "Ġco",
        "in"
      ],
      [
        "Ġm",
        "an"
      ],
      [
        "Ġm",
        "edian"
      ],
      [
        "Ġs",
        "et"
      ],
      [
        "Th",
        "is"
      ],
      [
        "Ġex",
        "pre"
      ],
      [
        "ers",
        "on"
      ],
      [
        "alu",
        "e"
      ],
      [
        "Ġ2",
        "1"
      ],
      [
        "Ġ2",
        "6"
      ],
      [
        "Ġwh",
        "ole"
      ],
      [
        "Ġcan",
        "not"
      ],
      [
        "it",
        "ect"
      ],
      [
        "Ther",
        "e"
      ],
      [
        "Ġmod",
        "ule"
      ],
      [
        "Ġcont",
        "aining"
      ],
      [
        "ver",
        "y"
      ],
      [
        "oth",
        "er"
      ],
      [
        "Ġe",
        "very"
      ],
      [
        "Ġsi",
        "des"
      ],
      [
        "Ġcre",
        "ation"
      ],
      [
        "Ġcre",
        "ates"
      ],
      [
        "ai",
        "lable"
      ],
      [
        "Ġdef",
        "in"
      ],
      [
        "Ġdef",
        "ine"
      ],
      [
        "Ġon",
        "e"
      ],
      [
        "Ġran",
        "dom"
      ],
      [
        "Ġu",
        "sing"
      ],
      [
        "In",
        "dex"
      ],
      [
        "ĠTr",
        "ue"
      ],
      [
        "ĠTr",
        "ansform"
      ],
      [
        "Ġat",
        "tention"
      ],
      [
        "Ġrepresent",
        "ed"
      ],
      [
        "Ġprogram",
        "m"
      ],
      [
        "vi",
        "de"
      ],
      [
        "Ġfai",
        "r"
      ],
      [
        "Ġuse",
        "ful"
      ],
      [
        "Ġsu",
        "ch"
      ],
      [
        "Ġposi",
        "tion"
      ],
      [
        "read",
        "y"
      ],
      [
        "Ġhour",
        "s"
      ],
      [
        "Ġneed",
        "s"
      ],
      [
        "Ġincre",
        "ase"
      ],
      [
        "Sol",
        "ve"
      ],
      [
        "squa",
        "res"
      ],
      [
        "uti",
        "ls"
      ],
      [
        "Ġintend",
        "ed"
      ],
      [
        "Ġarch",
        "itect"
      ],
      [
        "Ġfact",
        "or"
      ],
      [
        "Ġbetw",
        "een"
      ],
      [
        "Ġexpre",
        "ssion"
      ],
      [
        "ĠTransform",
        "er"
      ],
      [
        "Ġarchitect",
        "ure"
      ],
      [
        "\"",
        "]"
      ],
      [
        "2",
        "5"
      ],
      [
        "A",
        "d"
      ],
      [
        "S",
        "t"
      ],
      [
        "T",
        "uple"
      ],
      [
        "[",
        "\""
      ],
      [
        "a",
        "ce"
      ],
      [
        "c",
        "om"
      ],
      [
        "c",
        "cur"
      ],
      [
        "c",
        "ords"
      ],
      [
        "e",
        "p"
      ],
      [
        "e",
        "an"
      ],
      [
        "e",
        "ck"
      ],
      [
        "e",
        "igh"
      ],
      [
        "f",
        "it"
      ],
      [
        "g",
        "n"
      ],
      [
        "g",
        "an"
      ],
      [
        "i",
        "g"
      ],
      [
        "i",
        "nt"
      ],
      [
        "m",
        "e"
      ],
      [
        "o",
        "p"
      ],
      [
        "o",
        "int"
      ],
      [
        "p",
        "y"
      ],
      [
        "p",
        "ar"
      ],
      [
        "p",
        "ut"
      ],
      [
        "p",
        "oint"
      ],
      [
        "r",
        "u"
      ],
      [
        "r",
        "ou"
      ],
      [
        "s",
        "wer"
      ],
      [
        "t",
        "r"
      ],
      [
        "u",
        "ting"
      ],
      [
        "v",
        "en"
      ],
      [
        "v",
        "ed"
      ],
      [
        "w",
        "s"
      ],
      [
        "x",
        "ed"
      ],
      [
        "Ġ",
        ">"
      ],
      [
        "Ġ",
        "N"
      ],
      [
        "Ġ",
        "er"
      ],
      [
        "Ġ",
        "Index"
      ],
      [
        "Ġa",
        "ge"
      ],
      [
        "Ġa",
        "ut"
      ],
      [
        "er",
        "o"
      ],
      [
        "st",
        "ru"
      ],
      [
        "re",
        "d"
      ],
      [
        "ti",
        "ple"
      ],
      [
        "on",
        "g"
      ],
      [
        "ic",
        "h"
      ],
      [
        "ic",
        "al"
      ],
      [
        "le",
        "d"
      ],
      [
        "le",
        "m"
      ],
      [
        "Ġth",
        "en"
      ],
      [
        "Ġth",
        "rou"
      ],
      [
        "or",
        "rect"
      ],
      [
        "at",
        "or"
      ],
      [
        "at",
        "ely"
      ],
      [
        "in",
        "is"
      ],
      [
        "ul",
        "tiple"
      ],
      [
        "us",
        "able"
      ],
      [
        "Ġint",
        "er"
      ],
      [
        "Ġthe",
        "ir"
      ],
      [
        "Ġgeneral",
        "ly"
      ],
      [
        "Ġf",
        "our"
      ],
      [
        "Ġre",
        "cur"
      ],
      [
        "Ġre",
        "cords"
      ],
      [
        "Ġre",
        "usable"
      ],
      [
        "Ġan",
        "swer"
      ],
      [
        "Ġw",
        "eigh"
      ],
      [
        "Ġb",
        "efore"
      ],
      [
        "Ġin",
        "d"
      ],
      [
        "Ġin",
        "form"
      ],
      [
        "ent",
        "ation"
      ],
      [
        "Ġco",
        "mb"
      ],
      [
        "Ġo",
        "ccur"
      ],
      [
        "Ġm",
        "ean"
      ],
      [
        "Ġs",
        "ame"
      ],
      [
        "Ġs",
        "pe"
      ],
      [
        "Ġs",
        "elf"
      ],
      [
        "Ġs",
        "mal"
      ],
      [
        "um",
        "p"
      ],
      [
        "Ġ2",
        "5"
      ],
      [
        "Ġpro",
        "vid"
      ],
      [
        "Ġwh",
        "ile"
      ],
      [
        "Ġwh",
        "ich"
      ],
      [
        "it",
        "y"
      ],
      [
        "Ġwi",
        "ll"
      ],
      [
        "Ġtr",
        "y"
      ],
      [
        "qu",
        "e"
      ],
      [
        "Ġr",
        "un"
      ],
      [
        "orm",
        "ally"
      ],
      [
        "Ġor",
        "gan"
      ],
      [
        "Ġ3",
        "0"
      ],
      [
        "Ġcont",
        "ext"
      ],
      [
        "ĠÃ",
        "·"
      ],
      [
        "lo",
        "ws"
      ],
      [
        "Ġcomp",
        "onents"
      ],
      [
        "ari",
        "ly"
      ],
      [
        "Ġcon",
        "stru"
      ],
      [
        "Ġpercent",
        "age"
      ],
      [
        "ver",
        "t"
      ],
      [
        "ver",
        "fit"
      ],
      [
        "Ġst",
        "r"
      ],
      [
        "Ġfi",
        "xed"
      ],
      [
        "Ġresul",
        "ting"
      ],
      [
        "Ġresul",
        "ts"
      ],
      [
        "Ġcre",
        "ated"
      ],
      [
        "Ġty",
        "p"
      ],
      [
        "iz",
        "e"
      ],
      [
        "Ġch",
        "eck"
      ],
      [
        "Ġits",
        "elf"
      ],
      [
        "Ġprob",
        "lem"
      ],
      [
        "ir",
        "st"
      ],
      [
        "Ġg",
        "re"
      ],
      [
        "tim",
        "ization"
      ],
      [
        "Ġcal",
        "led"
      ],
      [
        "Ġsqua",
        "res"
      ],
      [
        "Ġblock",
        "s"
      ],
      [
        "ol",
        "ved"
      ],
      [
        "vi",
        "sion"
      ],
      [
        "Ġal",
        "lows"
      ],
      [
        "Ġfai",
        "l"
      ],
      [
        "Ġop",
        "er"
      ],
      [
        "Example",
        "s"
      ],
      [
        "Ġupd",
        "ate"
      ],
      [
        "Ġupd",
        "ates"
      ],
      [
        "Ġrais",
        "e"
      ],
      [
        "Ġrais",
        "es"
      ],
      [
        "Ġcollection",
        "s"
      ],
      [
        "ati",
        "c"
      ],
      [
        "Ġtrain",
        "ed"
      ],
      [
        "Ġinclu",
        "de"
      ],
      [
        "Ġchang",
        "ed"
      ],
      [
        "Di",
        "vide"
      ],
      [
        "ĠV",
        "alue"
      ],
      [
        "Ġgr",
        "ou"
      ],
      [
        "Ġhand",
        "le"
      ],
      [
        "Ġman",
        "y"
      ],
      [
        "Ġprogramm",
        "ing"
      ],
      [
        "Tuple",
        "s"
      ],
      [
        "Ġer",
        "ror"
      ],
      [
        "ĠIndex",
        "Error"
      ],
      [
        "Ġthrou",
        "gh"
      ],
      [
        "inis",
        "h"
      ],
      [
        "Ġweigh",
        "ts"
      ],
      [
        "Ġinform",
        "ation"
      ],
      [
        "Ġcomb",
        "ine"
      ],
      [
        "Ġprovid",
        "es"
      ],
      [
        "Ġconstru",
        "ct"
      ],
      [
        "verfit",
        "ting"
      ],
      [
        "ĠValue",
        "Error"
      ],
      [
        "\"",
        ":"
      ],
      [
        "'",
        "s"
      ],
      [
        "(",
        ")"
      ],
      [
        "(",
        "[\""
      ],
      [
        ")",
        "]"
      ],
      [
        ")",
        "}"
      ],
      [
        "2",
        "0"
      ],
      [
        "4",
        "4"
      ],
      [
        "B",
        "oth"
      ],
      [
        "C",
        "on"
      ],
      [
        "H",
        "el"
      ],
      [
        "H",
        "ere"
      ],
      [
        "L",
        "ist"
      ],
      [
        "M",
        "in"
      ],
      [
        "N",
        "ormally"
      ],
      [
        "P",
        "I"
      ],
      [
        "P",
        "erson"
      ],
      [
        "S",
        "u"
      ],
      [
        "a",
        "nt"
      ],
      [
        "a",
        "us"
      ],
      [
        "a",
        "ting"
      ],
      [
        "a",
        "di"
      ],
      [
        "a",
        "pp"
      ],
      [
        "b",
        "it"
      ],
      [
        "b",
        "tr"
      ],
      [
        "c",
        "o"
      ],
      [
        "c",
        "ul"
      ],
      [
        "c",
        "lass"
      ],
      [
        "d",
        "en"
      ],
      [
        "d",
        "le"
      ],
      [
        "d",
        "ing"
      ],
      [
        "e",
        "y"
      ],
      [
        "f",
        "y"
      ],
      [
        "f",
        "rom"
      ],
      [
        "f",
        "irst"
      ],
      [
        "f",
        "inish"
      ],
      [
        "g",
        "er"
      ],
      [
        "g",
        "ul"
      ],
      [
        "h",
        "i"
      ],
      [
        "h",
        "o"
      ],
      [
        "h",
        "av"
      ],
      [
        "i",
        "or"
      ],
      [
        "i",
        "que"
      ],
      [
        "k",
        "ely"
      ],
      [
        "l",
        "ic"
      ],
      [
        "l",
        "ength"
      ],
      [
        "l",
        "ations"
      ],
      [
        "m",
        "ple"
      ],
      [
        "m",
        "ine"
      ],
      [
        "n",
        "e"
      ],
      [
        "p",
        "end"
      ],
      [
        "p",
        "ts"
      ],
      [
        "p",
        "erson"
      ],
      [
        "r",
        "ong"
      ],
      [
        "r",
        "arily"
      ],
      [
        "u",
        "i"
      ],
      [
        "u",
        "st"
      ],
      [
        "u",
        "ity"
      ],
      [
        "v",
        "ent"
      ],
      [
        "v",
        "ers"
      ],
      [
        "v",
        "ariable"
      ],
      [
        "v",
        "alid"
      ],
      [
        "v",
        "ailable"
      ],
      [
        "v",
        "olved"
      ],
      [
        "w",
        "ay"
      ],
      [
        "z",
        "ation"
      ],
      [
        "z",
        "ero"
      ],
      [
        "}",
        "\""
      ],
      [
        "Ġ",
        "9"
      ],
      [
        "Ġ",
        "C"
      ],
      [
        "Ġ",
        "D"
      ],
      [
        "Ġ",
        "I"
      ],
      [
        "Ġ",
        "system"
      ],
      [
        "Ġ",
        "How"
      ],
      [
        "Ġ",
        "__"
      ],
      [
        "Ġ",
        "Person"
      ],
      [
        "Ġ",
        "zero"
      ],
      [
        "Ġa",
        "ss"
      ],
      [
        "Ġa",
        "ls"
      ],
      [
        "Ġa",
        "pp"
      ],
      [
        "Ġa",
        "mb"
      ],
      [
        "Ġa",
        "vailable"
      ],
      [
        "er",
        "mine"
      ],
      [
        "os",
        "s"
      ],
      [
        "th",
        "e"
      ],
      [
        "th",
        "er"
      ],
      [
        "el",
        "se"
      ],
      [
        "ti",
        "fy"
      ],
      [
        "on",
        "e"
      ],
      [
        "on",
        "ly"
      ],
      [
        "si",
        "de"
      ],
      [
        "si",
        "ble"
      ],
      [
        "ssi",
        "ng"
      ],
      [
        "ssi",
        "gn"
      ],
      [
        "Ġc",
        "l"
      ],
      [
        "Ġc",
        "ou"
      ],
      [
        "Ġth",
        "ose"
      ],
      [
        "Ġth",
        "ir"
      ],
      [
        "Ġth",
        "ere"
      ],
      [
        "ce",
        "ssing"
      ],
      [
        "or",
        "y"
      ],
      [
        "or",
        "se"
      ],
      [
        "ur",
        "ing"
      ],
      [
        "li",
        "ng"
      ],
      [
        "li",
        "pp"
      ],
      [
        "at",
        "s"
      ],
      [
        "at",
        "er"
      ],
      [
        "at",
        "ter"
      ],
      [
        "at",
        "tention"
      ],
      [
        "in",
        "it"
      ],
      [
        "in",
        "dex"
      ],
      [
        "ul",
        "d"
      ],
      [
        "ul",
        "t"
      ],
      [
        "em",
        "ory"
      ],
      [
        "Ġt",
        "ai"
      ],
      [
        "an",
        "ce"
      ],
      [
        "Ġp",
        "red"
      ],
      [
        "Ġar",
        "bit"
      ],
      [
        "Ġf",
        "e"
      ],
      [
        "Ġf",
        "in"
      ],
      [
        "Ġf",
        "alse"
      ],
      [
        "Ġf",
        "lipp"
      ],
      [
        "Ġd",
        "es"
      ],
      [
        "Ġd",
        "et"
      ],
      [
        "Ġre",
        "pe"
      ],
      [
        "Ġre",
        "duce"
      ],
      [
        "Ġre",
        "ad"
      ],
      [
        "Ġre",
        "gul"
      ],
      [
        "Ġre",
        "lations"
      ],
      [
        "Ġre",
        "vers"
      ],
      [
        "es",
        "s"
      ],
      [
        "Ġan",
        "other"
      ],
      [
        "Ġw",
        "as"
      ],
      [
        "Ġw",
        "ork"
      ],
      [
        "Ġw",
        "ay"
      ],
      [
        "Ġw",
        "rong"
      ],
      [
        "Ġw",
        "orse"
      ],
      [
        "Ġb",
        "ut"
      ],
      [
        "Ġb",
        "oo"
      ],
      [
        "Ġin",
        "ference"
      ],
      [
        "Ġin",
        "volved"
      ],
      [
        "Ġco",
        "mm"
      ],
      [
        "ar",
        "act"
      ],
      [
        "ro",
        "du"
      ],
      [
        "ro",
        "lle"
      ],
      [
        "Ġm",
        "id"
      ],
      [
        "Ġm",
        "ultiple"
      ],
      [
        "Ġm",
        "emory"
      ],
      [
        "Ġs",
        "ho"
      ],
      [
        "Ġs",
        "lic"
      ],
      [
        "Th",
        "en"
      ],
      [
        "Th",
        "at"
      ],
      [
        "Ġex",
        "pe"
      ],
      [
        "Ġex",
        "act"
      ],
      [
        "Ġex",
        "ec"
      ],
      [
        "Ġto",
        "o"
      ],
      [
        "ab",
        "ase"
      ],
      [
        "et",
        "ting"
      ],
      [
        "Ġ1",
        "1"
      ],
      [
        "Ġ1",
        "3"
      ],
      [
        "Ġ1",
        "8"
      ],
      [
        "Ġpro",
        "ce"
      ],
      [
        "Ġwh",
        "eth"
      ],
      [
        "Ġl",
        "ay"
      ],
      [
        "as",
        "ed"
      ],
      [
        "Ġexample",
        "s"
      ],
      [
        "Ġli",
        "kely"
      ],
      [
        "qu",
        "ally"
      ],
      [
        "Ġfunction",
        "s"
      ],
      [
        "orm",
        "al"
      ],
      [
        "Ġmod",
        "if"
      ],
      [
        "ch",
        "ine"
      ],
      [
        "Ġcont",
        "ents"
      ],
      [
        "Ġcont",
        "rolle"
      ],
      [
        "Ġbe",
        "hav"
      ],
      [
        "Ġne",
        "ver"
      ],
      [
        "Ġcomp",
        "act"
      ],
      [
        "Ġcomp",
        "uting"
      ],
      [
        "ari",
        "zation"
      ],
      [
        "Ġwith",
        "out"
      ],
      [
        "Ġ4",
        "2"
      ],
      [
        "Ġcon",
        "stant"
      ],
      [
        "Ġdi",
        "rect"
      ],
      [
        "Ġdi",
        "vision"
      ],
      [
        "Ġst",
        "ore"
      ],
      [
        "Ġpri",
        "me"
      ],
      [
        "Ġfi",
        "ve"
      ],
      [
        "Ġrep",
        "rodu"
      ],
      [
        "Ġse",
        "ed"
      ],
      [
        "Ġe",
        "qually"
      ],
      [
        "Ġcre",
        "ate"
      ],
      [
        "Ġdat",
        "abase"
      ],
      [
        "om",
        "atic"
      ],
      [
        "Ġon",
        "ly"
      ],
      [
        "Ġinc",
        "orrect"
      ],
      [
        "Ġma",
        "k"
      ],
      [
        "Ġma",
        "ps"
      ],
      [
        "Ġma",
        "chine"
      ],
      [
        "ass",
        "ump"
      ],
      [
        "Ġrepres",
        "ents"
      ],
      [
        "Tr",
        "aining"
      ],
      [
        "iz",
        "er"
      ],
      [
        "pl",
        "ic"
      ],
      [
        "Ġch",
        "aract"
      ],
      [
        "ring",
        "s"
      ],
      [
        "Ġtuple",
        "s"
      ],
      [
        "Ġdiffer",
        "ence"
      ],
      [
        "Ġnetwork",
        "s"
      ],
      [
        "In",
        "ference"
      ],
      [
        "av",
        "ailable"
      ],
      [
        "Ġlearn",
        "s"
      ],
      [
        "Ġlearn",
        "ed"
      ],
      [
        "Ġaf",
        "f"
      ],
      [
        "Ġat",
        "tem"
      ],
      [
        "Ġinteg",
        "ers"
      ],
      [
        "Ġindex",
        "ed"
      ],
      [
        "Ġexcep",
        "t"
      ],
      [
        "Ġexcep",
        "tions"
      ],
      [
        "Ġlar",
        "ger"
      ],
      [
        "Ġrepresent",
        "ation"
      ],
      [
        "Ġg",
        "etting"
      ],
      [
        "Ġsta",
        "t"
      ],
      [
        "Ġcal",
        "cul"
      ],
      [
        "Ġclass",
        "es"
      ],
      [
        "Ġpos",
        "sible"
      ],
      [
        "Ġtoken",
        "izer"
      ],
      [
        "Ġperform",
        "ance"
      ],
      [
        "Ġra",
        "ther"
      ],
      [
        "ule",
        "s"
      ],
      [
        "Ġ6",
        "0"
      ],
      [
        "Ġk",
        "ey"
      ],
      [
        "Ġal",
        "ready"
      ],
      [
        "Ġal",
        "way"
      ],
      [
        "Ġ15",
        "0"
      ],
      [
        "Ġprocess",
        "es"
      ],
      [
        "Ġcondi",
        "tions"
      ],
      [
        "Ġsequence",
        "s"
      ],
      [
        "pre",
        "t"
      ],
      [
        "Ġde",
        "pend"
      ],
      [
        "Ġop",
        "en"
      ],
      [
        "Ġsu",
        "bject"
      ],
      [
        "are",
        "a"
      ],
      [
        "ci",
        "ble"
      ],
      [
        "ĠA",
        "PI"
      ],
      [
        "Ġout",
        "com"
      ],
      [
        "Ġout",
        "side"
      ],
      [
        "Ġac",
        "cess"
      ],
      [
        "Ġac",
        "cessing"
      ],
      [
        "Ġvalid",
        "ation"
      ],
      [
        "Ġinclu",
        "ding"
      ],
      [
        "Ġtravel",
        "s"
      ],
      [
        "Mod",
        "el"
      ],
      [
        "Mod",
        "ules"
      ],
      [
        "__",
        "("
      ],
      [
        "Ġtim",
        "e"
      ],
      [
        "Ġtim",
        "es"
      ],
      [
        "Ġdefin",
        "es"
      ],
      [
        "Ġdefin",
        "ed"
      ],
      [
        "Ġfactor",
        "ial"
      ],
      [
        "Ġexpression",
        "s"
      ],
      [
        "\"]",
        "):"
      ],
      [
        "Ad",
        "ult"
      ],
      [
        "St",
        "rings"
      ],
      [
        "ig",
        "uity"
      ],
      [
        "op",
        "timization"
      ],
      [
        "par",
        "t"
      ],
      [
        "put",
        "s"
      ],
      [
        "Ġ>",
        "="
      ],
      [
        "ĠN",
        "one"
      ],
      [
        "Ġaut",
        "omatic"
      ],
      [
        "Ġinter",
        "pret"
      ],
      [
        "Ġrecur",
        "sion"
      ],
      [
        "Ġind",
        "entation"
      ],
      [
        "Ġoccur",
        "s"
      ],
      [
        "Ġspe",
        "ed"
      ],
      [
        "Ġsmal",
        "ler"
      ],
      [
        "Ġrun",
        "s"
      ],
      [
        "Ġorgan",
        "ize"
      ],
      [
        "Ġtyp",
        "es"
      ],
      [
        "Ġgre",
        "et"
      ],
      [
        "Ġoper",
        "ation"
      ],
      [
        "Ġgrou",
        "ps"
      ],
      [
        "Con",
        "vert"
      ],
      [
        "Hel",
        "lo"
      ],
      [
        "List",
        "s"
      ],
      [
        "Min",
        "or"
      ],
      [
        "Su",
        "btr"
      ],
      [
        "aus",
        "e"
      ],
      [
        "adi",
        "ent"
      ],
      [
        "app",
        "end"
      ],
      [
        "den",
        "tify"
      ],
      [
        "finish",
        "ed"
      ],
      [
        "hi",
        "ps"
      ],
      [
        "variable",
        "s"
      ],
      [
        "Ġals",
        "o"
      ],
      [
        "Ġapp",
        "ro"
      ],
      [
        "Ġamb",
        "iguity"
      ],
      [
        "Ġcou",
        "nt"
      ],
      [
        "Ġthir",
        "d"
      ],
      [
        "Ġtai",
        "ls"
      ],
      [
        "Ġarbit",
        "rarily"
      ],
      [
        "Ġflipp",
        "ing"
      ],
      [
        "Ġdes",
        "cent"
      ],
      [
        "Ġdet",
        "ermine"
      ],
      [
        "Ġregul",
        "arization"
      ],
      [
        "Ġrelations",
        "hips"
      ],
      [
        "Ġboo",
        "l"
      ],
      [
        "Ġcomm",
        "only"
      ],
      [
        "Ġmid",
        "dle"
      ],
      [
        "Ġsho",
        "uld"
      ],
      [
        "Ġslic",
        "ed"
      ],
      [
        "Ġexpe",
        "ct"
      ],
      [
        "Ġexact",
        "ly"
      ],
      [
        "Ġwheth",
        "er"
      ],
      [
        "Ġlay",
        "ers"
      ],
      [
        "Ġcontrolle",
        "d"
      ],
      [
        "Ġbehav",
        "ior"
      ],
      [
        "Ġdirect",
        "ly"
      ],
      [
        "Ġreprodu",
        "cible"
      ],
      [
        "Ġcharact",
        "ers"
      ],
      [
        "Ġattem",
        "pts"
      ],
      [
        "Ġcalcul",
        "ates"
      ],
      [
        "Ġalway",
        "s"
      ],
      [
        "Ġoutcom",
        "es"
      ],
      [
        "Ġautomatic",
        "ally"
      ],
      [
        "Subtr",
        "act"
      ],
      [
        "1",
        "44"
      ],
      [
        "3",
        "0"
      ],
      [
        "5",
        "0"
      ],
      [
        "6",
        "0"
      ],
      [
        "6",
        "5"
      ],
      [
        ":",
        "-"
      ],
      [
        ":",
        "]"
      ],
      [
        ":",
        ":-"
      ],
      [
        "=",
        "\""
      ],
      [
        "A",
        "t"
      ],
      [
        "A",
        "le"
      ],
      [
        "D",
        "e"
      ],
      [
        "D",
        "s"
      ],
      [
        "D",
        "ef"
      ],
      [
        "F",
        "irst"
      ],
      [
        "G",
        "r"
      ],
      [
        "I",
        "ts"
      ],
      [
        "I",
        "dentify"
      ],
      [
        "L",
        "oo"
      ],
      [
        "M",
        "ore"
      ],
      [
        "M",
        "ach"
      ],
      [
        "N",
        "ot"
      ],
      [
        "O",
        "verfitting"
      ],
      [
        "R",
        "e"
      ],
      [
        "S",
        "elf"
      ],
      [
        "T",
        "y"
      ],
      [
        "U",
        "se"
      ],
      [
        "Z",
        "ero"
      ],
      [
        "[",
        "::-"
      ],
      [
        "]",
        ")"
      ],
      [
        "]",
        ";"
      ],
      [
        "]",
        "?"
      ],
      [
        "a",
        "f"
      ],
      [
        "a",
        "g"
      ],
      [
        "a",
        "x"
      ],
      [
        "a",
        "de"
      ],
      [
        "a",
        "ck"
      ],
      [
        "a",
        "ssign"
      ],
      [
        "b",
        "u"
      ],
      [
        "b",
        "ec"
      ],
      [
        "b",
        "ack"
      ],
      [
        "c",
        "re"
      ],
      [
        "c",
        "od"
      ],
      [
        "c",
        "is"
      ],
      [
        "c",
        "ause"
      ],
      [
        "d",
        "o"
      ],
      [
        "d",
        "or"
      ],
      [
        "e",
        "ch"
      ],
      [
        "e",
        "ver"
      ],
      [
        "e",
        "ve"
      ],
      [
        "e",
        "ven"
      ],
      [
        "f",
        "t"
      ],
      [
        "f",
        "am"
      ],
      [
        "f",
        "ile"
      ],
      [
        "f",
        "ace"
      ],
      [
        "g",
        "g"
      ],
      [
        "g",
        "i"
      ],
      [
        "g",
        "re"
      ],
      [
        "g",
        "um"
      ],
      [
        "i",
        "m"
      ],
      [
        "i",
        "th"
      ],
      [
        "i",
        "on"
      ],
      [
        "i",
        "ed"
      ],
      [
        "i",
        "ent"
      ],
      [
        "i",
        "ll"
      ],
      [
        "i",
        "ven"
      ],
      [
        "j",
        "ust"
      ],
      [
        "l",
        "t"
      ],
      [
        "l",
        "ar"
      ],
      [
        "l",
        "ace"
      ],
      [
        "l",
        "oss"
      ],
      [
        "m",
        "s"
      ],
      [
        "m",
        "on"
      ],
      [
        "m",
        "pose"
      ],
      [
        "m",
        "ent"
      ],
      [
        "m",
        "un"
      ],
      [
        "m",
        "it"
      ],
      [
        "m",
        "ains"
      ],
      [
        "m",
        "ay"
      ],
      [
        "m",
        "ultiple"
      ],
      [
        "m",
        "entation"
      ],
      [
        "m",
        "atter"
      ],
      [
        "n",
        "s"
      ],
      [
        "n",
        "ing"
      ],
      [
        "n",
        "eg"
      ],
      [
        "n",
        "ique"
      ],
      [
        "n",
        "ess"
      ],
      [
        "n",
        "ormal"
      ],
      [
        "o",
        "x"
      ],
      [
        "o",
        "ic"
      ],
      [
        "o",
        "or"
      ],
      [
        "o",
        "od"
      ],
      [
        "o",
        "ps"
      ],
      [
        "o",
        "ci"
      ],
      [
        "o",
        "verfitting"
      ],
      [
        "p",
        "li"
      ],
      [
        "p",
        "ro"
      ],
      [
        "p",
        "ri"
      ],
      [
        "p",
        "ty"
      ],
      [
        "p",
        "plic"
      ],
      [
        "r",
        "st"
      ],
      [
        "r",
        "an"
      ],
      [
        "r",
        "ent"
      ],
      [
        "r",
        "ate"
      ],
      [
        "r",
        "ule"
      ],
      [
        "s",
        "mal"
      ],
      [
        "s",
        "pli"
      ],
      [
        "t",
        "x"
      ],
      [
        "t",
        "ely"
      ],
      [
        "u",
        "pd"
      ],
      [
        "u",
        "tions"
      ],
      [
        "u",
        "dor"
      ],
      [
        "v",
        "alu"
      ],
      [
        "v",
        "is"
      ],
      [
        "v",
        "alue"
      ],
      [
        "v",
        "ant"
      ],
      [
        "w",
        "ar"
      ],
      [
        "w",
        "as"
      ],
      [
        "w",
        "are"
      ],
      [
        "w",
        "ords"
      ],
      [
        "w",
        "ith"
      ],
      [
        "x",
        "im"
      ],
      [
        "z",
        "e"
      ],
      [
        "Ġ",
        "%"
      ],
      [
        "Ġ",
        "'"
      ],
      [
        "Ġ",
        "<"
      ],
      [
        "Ġ",
        "en"
      ],
      [
        "Ġ",
        "le"
      ],
      [
        "Ġ",
        "em"
      ],
      [
        "Ġ",
        "end"
      ],
      [
        "Ġ",
        "ef"
      ],
      [
        "Ġ",
        "What"
      ],
      [
        "Ġ",
        "qu"
      ],
      [
        "Ġ",
        "An"
      ],
      [
        "Ġ",
        "If"
      ],
      [
        "Ġ",
        "que"
      ],
      [
        "Ġ",
        "Ty"
      ],
      [
        "Ġ",
        "Zero"
      ],
      [
        "Ġa",
        "ssign"
      ],
      [
        "Ġa",
        "pplic"
      ],
      [
        "en",
        "ting"
      ],
      [
        "en",
        "se"
      ],
      [
        "en",
        "om"
      ],
      [
        "er",
        "sion"
      ],
      [
        "er",
        "ical"
      ],
      [
        "er",
        "ator"
      ],
      [
        "Ġi",
        "mple"
      ],
      [
        "Ġi",
        "dentify"
      ],
      [
        "st",
        "ring"
      ],
      [
        "st",
        "ical"
      ],
      [
        "st",
        "ion"
      ],
      [
        "st",
        "ops"
      ],
      [
        "nt",
        "ax"
      ],
      [
        "re",
        "e"
      ],
      [
        "re",
        "si"
      ],
      [
        "re",
        "ction"
      ],
      [
        "re",
        "vent"
      ],
      [
        "re",
        "mains"
      ],
      [
        "al",
        "ity"
      ],
      [
        "th",
        "em"
      ],
      [
        "el",
        "l"
      ],
      [
        "ti",
        "es"
      ],
      [
        "ti",
        "ve"
      ],
      [
        "ti",
        "stical"
      ],
      [
        "si",
        "ve"
      ],
      [
        "si",
        "gn"
      ],
      [
        "ic",
        "ate"
      ],
      [
        "ic",
        "ting"
      ],
      [
        "ic",
        "ates"
      ],
      [
        "sta",
        "tement"
      ],
      [
        "ssi",
        "ve"
      ],
      [
        "Ġc",
        "lear"
      ],
      [
        "Ġc",
        "ase"
      ],
      [
        "Ġc",
        "are"
      ],
      [
        "Ġc",
        "orrect"
      ],
      [
        "le",
        "st"
      ],
      [
        "le",
        "vant"
      ],
      [
        "Ġth",
        "ree"
      ],
      [
        "or",
        "s"
      ],
      [
        "or",
        "ing"
      ],
      [
        "ur",
        "ation"
      ],
      [
        "at",
        "a"
      ],
      [
        "in",
        "al"
      ],
      [
        "in",
        "ed"
      ],
      [
        "in",
        "ference"
      ],
      [
        "in",
        "ator"
      ],
      [
        "in",
        "puts"
      ],
      [
        "em",
        "atic"
      ],
      [
        "Ġh",
        "ow"
      ],
      [
        "Ġthe",
        "y"
      ],
      [
        "Ġthe",
        "se"
      ],
      [
        "Ġt",
        "as"
      ],
      [
        "Ġt",
        "ech"
      ],
      [
        "an",
        "is"
      ],
      [
        "Ġp",
        "se"
      ],
      [
        "Ġp",
        "atter"
      ],
      [
        "Ġp",
        "oor"
      ],
      [
        "Ġp",
        "revent"
      ],
      [
        "Ġar",
        "gum"
      ],
      [
        "Ġgener",
        "ate"
      ],
      [
        "Ġgener",
        "ator"
      ],
      [
        "ful",
        "ly"
      ],
      [
        "ose",
        "d"
      ],
      [
        "Ġgeneral",
        "ization"
      ],
      [
        "Ġgeneral",
        "ize"
      ],
      [
        "fic",
        "ation"
      ],
      [
        "fic",
        "ally"
      ],
      [
        "fic",
        "ient"
      ],
      [
        "ial",
        "ly"
      ],
      [
        "Ġhelp",
        "s"
      ],
      [
        "sy",
        "ntax"
      ],
      [
        "Ġf",
        "ar"
      ],
      [
        "Ġf",
        "orm"
      ],
      [
        "Ġf",
        "inish"
      ],
      [
        "Ġd",
        "uring"
      ],
      [
        "Ġd",
        "enom"
      ],
      [
        "Ġd",
        "uration"
      ],
      [
        "Ġre",
        "ach"
      ],
      [
        "Ġre",
        "levant"
      ],
      [
        "Ġn",
        "on"
      ],
      [
        "Ġn",
        "um"
      ],
      [
        "Ġn",
        "ow"
      ],
      [
        "Ġn",
        "ormally"
      ],
      [
        "Ġn",
        "ormal"
      ],
      [
        "Ġw",
        "ent"
      ],
      [
        "Ġw",
        "rite"
      ],
      [
        "Ġw",
        "ords"
      ],
      [
        "Ġw",
        "ell"
      ],
      [
        "ex",
        "cep"
      ],
      [
        "ex",
        "ist"
      ],
      [
        "Ġb",
        "et"
      ],
      [
        "Ġb",
        "ase"
      ],
      [
        "Ġb",
        "ui"
      ],
      [
        "Ġb",
        "ased"
      ],
      [
        "Ġb",
        "ox"
      ],
      [
        "Ġb",
        "ran"
      ],
      [
        "Ġ=",
        "="
      ],
      [
        "Ġin",
        "put"
      ],
      [
        "Ġin",
        "ade"
      ],
      [
        "Ġco",
        "py"
      ],
      [
        "Ġco",
        "mple"
      ],
      [
        "Ġco",
        "mpose"
      ],
      [
        "ar",
        "t"
      ],
      [
        "Ġo",
        "ver"
      ],
      [
        "Ġo",
        "verfitting"
      ],
      [
        "Ġm",
        "eth"
      ],
      [
        "Ġm",
        "igh"
      ],
      [
        "Ġm",
        "ust"
      ],
      [
        "Ġm",
        "ater"
      ],
      [
        "Ġm",
        "ess"
      ],
      [
        "Ġs",
        "um"
      ],
      [
        "Ġs",
        "om"
      ],
      [
        "Ġs",
        "co"
      ],
      [
        "Ġs",
        "af"
      ],
      [
        "Ġs",
        "ense"
      ],
      [
        "Ġv",
        "ers"
      ],
      [
        "Ġv",
        "ersion"
      ],
      [
        "Ġex",
        "ist"
      ],
      [
        "Ġex",
        "plic"
      ],
      [
        "Ġ1",
        "44"
      ],
      [
        "Ġit",
        "erate"
      ],
      [
        "un",
        "der"
      ],
      [
        "Ġwh",
        "ose"
      ],
      [
        "Ġwh",
        "ere"
      ],
      [
        "ation",
        "al"
      ],
      [
        "Ġl",
        "en"
      ],
      [
        "Ġl",
        "ong"
      ],
      [
        "Ġl",
        "oss"
      ],
      [
        "mp",
        "onents"
      ],
      [
        "ction",
        "s"
      ],
      [
        "it",
        "or"
      ],
      [
        "it",
        "em"
      ],
      [
        "it",
        "ly"
      ],
      [
        "ge",
        "st"
      ],
      [
        "Ġli",
        "ne"
      ],
      [
        "Ġli",
        "mit"
      ],
      [
        "ore",
        "gre"
      ],
      [
        "Ġtr",
        "ansform"
      ],
      [
        "Ġtr",
        "ace"
      ],
      [
        "ame",
        "Error"
      ],
      [
        "qu",
        "ately"
      ],
      [
        "Ġr",
        "ate"
      ],
      [
        "Ġor",
        "ig"
      ],
      [
        "Ġret",
        "ri"
      ],
      [
        "ch",
        "anis"
      ],
      [
        "pe",
        "Error"
      ],
      [
        "ut",
        "f"
      ],
      [
        "ut",
        "ational"
      ],
      [
        "Ġcont",
        "ain"
      ],
      [
        "ate",
        "gi"
      ],
      [
        "Ġbe",
        "ing"
      ],
      [
        "Ġbe",
        "cause"
      ],
      [
        "Ġne",
        "w"
      ],
      [
        "Ġne",
        "cess"
      ],
      [
        "ect",
        "s"
      ],
      [
        "Ġcomp",
        "ati"
      ],
      [
        "Ġcomp",
        "utational"
      ],
      [
        "ari",
        "fication"
      ],
      [
        "sion",
        "s"
      ],
      [
        "Ġcon",
        "ver"
      ],
      [
        "Ġcon",
        "vert"
      ],
      [
        "Ġcon",
        "ne"
      ],
      [
        "Ġcon",
        "cis"
      ],
      [
        "Ġdi",
        "vid"
      ],
      [
        "Ġdi",
        "vide"
      ],
      [
        "Ġres",
        "olved"
      ],
      [
        "Ġmodel",
        "s"
      ],
      [
        "Ġst",
        "ep"
      ],
      [
        "Ġst",
        "ill"
      ],
      [
        "Ġst",
        "oring"
      ],
      [
        "Ġfi",
        "rst"
      ],
      [
        "Ġrep",
        "lace"
      ],
      [
        "Ġse",
        "en"
      ],
      [
        "Ġe",
        "ven"
      ],
      [
        "Ġe",
        "vent"
      ],
      [
        "Ġe",
        "valu"
      ],
      [
        "Ġsi",
        "ze"
      ],
      [
        "Ġcre",
        "ating"
      ],
      [
        "du",
        "re"
      ],
      [
        "du",
        "al"
      ],
      [
        "Ġprint",
        "s"
      ],
      [
        "di",
        "ffer"
      ],
      [
        "di",
        "vis"
      ],
      [
        "di",
        "rection"
      ],
      [
        "Ġad",
        "ds"
      ],
      [
        "Ġad",
        "just"
      ],
      [
        "Ġma",
        "y"
      ],
      [
        "Ġrepres",
        "enting"
      ],
      [
        "def",
        "ined"
      ],
      [
        "iz",
        "ing"
      ],
      [
        "iction",
        "s"
      ],
      [
        "Ġch",
        "oic"
      ],
      [
        "cep",
        "ts"
      ],
      [
        "ĠĠĠĠ",
        "ĠĠĠĠĠĠĠ"
      ],
      [
        "How",
        "ever"
      ],
      [
        "In",
        "valid"
      ],
      [
        "ĠTr",
        "aining"
      ],
      [
        "Ġindex",
        "es"
      ],
      [
        "Ġrepresent",
        "ations"
      ],
      [
        "cur",
        "sion"
      ],
      [
        "cur",
        "rent"
      ],
      [
        "ili",
        "ar"
      ],
      [
        "Ġg",
        "ui"
      ],
      [
        "Ġg",
        "iven"
      ],
      [
        "Ġg",
        "ood"
      ],
      [
        "Ġsta",
        "tistical"
      ],
      [
        "Ġun",
        "ique"
      ],
      [
        "Ġun",
        "fam"
      ],
      [
        "Ġun",
        "defined"
      ],
      [
        "alid",
        "ation"
      ],
      [
        "elem",
        "ent"
      ],
      [
        "tim",
        "es"
      ],
      [
        "Ġcal",
        "ls"
      ],
      [
        "Ġcal",
        "ler"
      ],
      [
        "Ġcal",
        "ling"
      ],
      [
        "Ġloo",
        "ps"
      ],
      [
        "Ġperform",
        "s"
      ],
      [
        "Ġperform",
        "ed"
      ],
      [
        "Ġperform",
        "ing"
      ],
      [
        "Ġ6",
        "5"
      ],
      [
        "Ġas",
        "k"
      ],
      [
        "Ġpar",
        "ts"
      ],
      [
        "amet",
        "ers"
      ],
      [
        "Ġso",
        "ft"
      ],
      [
        "Ġ10",
        "0"
      ],
      [
        "Ġprobabili",
        "ties"
      ],
      [
        "Ġ*",
        "="
      ],
      [
        "and",
        "om"
      ],
      [
        "Ġde",
        "ci"
      ],
      [
        "Ġde",
        "ep"
      ],
      [
        "Ġde",
        "bu"
      ],
      [
        "Ġde",
        "sign"
      ],
      [
        "Ġop",
        "timization"
      ],
      [
        "Ġposi",
        "tions"
      ],
      [
        "Ġposi",
        "tive"
      ],
      [
        "Ġparamet",
        "er"
      ],
      [
        "Ġlangu",
        "ag"
      ],
      [
        "ati",
        "ve"
      ],
      [
        "ci",
        "fically"
      ],
      [
        "for",
        "war"
      ],
      [
        "Ġout",
        "puts"
      ],
      [
        "Ġac",
        "cepts"
      ],
      [
        "Ġitem",
        "s"
      ],
      [
        "Ġneed",
        "ed"
      ],
      [
        "Ġincre",
        "ased"
      ],
      [
        "Ġmath",
        "ematic"
      ],
      [
        "Ġchang",
        "es"
      ],
      [
        "Ġchang",
        "ing"
      ],
      [
        "Ġimport",
        "ant"
      ],
      [
        "Di",
        "vision"
      ],
      [
        "ec",
        "ting"
      ],
      [
        "eth",
        "ing"
      ],
      [
        "ĠV",
        "alidation"
      ],
      [
        "Ġgr",
        "adient"
      ],
      [
        "Ġhand",
        "ling"
      ],
      [
        "Ġman",
        "age"
      ],
      [
        "Ġrandom",
        "ness"
      ],
      [
        "Ġprogramm",
        "ed"
      ],
      [
        "Ġfactor",
        "s"
      ],
      [
        "Ad",
        "d"
      ],
      [
        "St",
        "art"
      ],
      [
        "com",
        "mun"
      ],
      [
        "me",
        "chanis"
      ],
      [
        "op",
        "erator"
      ],
      [
        "par",
        "ameters"
      ],
      [
        "tr",
        "y"
      ],
      [
        "ĠN",
        "ameError"
      ],
      [
        "Ġaut",
        "oregre"
      ],
      [
        "Ġinter",
        "face"
      ],
      [
        "Ġrecur",
        "sive"
      ],
      [
        "Ġind",
        "icates"
      ],
      [
        "Ġoccur",
        "red"
      ],
      [
        "Ġmean",
        "ing"
      ],
      [
        "Ġspe",
        "cifically"
      ],
      [
        "Ġsmal",
        "lest"
      ],
      [
        "ump",
        "tion"
      ],
      [
        "Ġrun",
        "ning"
      ],
      [
        "Ġorgan",
        "izing"
      ],
      [
        "Ġstr",
        "ategi"
      ],
      [
        "Ġtyp",
        "ical"
      ],
      [
        "Ġcheck",
        "s"
      ],
      [
        "Ġcheck",
        "ing"
      ],
      [
        "Ġgre",
        "ater"
      ],
      [
        "Ġoper",
        "ations"
      ],
      [
        "Ġgrou",
        "p"
      ],
      [
        "Ġerror",
        "s"
      ],
      [
        "Ġconstruct",
        "s"
      ],
      [
        "()",
        ")"
      ],
      [
        "co",
        "mponents"
      ],
      [
        "ĠD",
        "uring"
      ],
      [
        "ĠD",
        "ata"
      ],
      [
        "ĠI",
        "Ds"
      ],
      [
        "Ġsystem",
        "s"
      ],
      [
        "Ġass",
        "oci"
      ],
      [
        "Ġass",
        "umption"
      ],
      [
        "Ġcl",
        "osed"
      ],
      [
        "Ġcl",
        "arification"
      ],
      [
        "Ġpred",
        "icting"
      ],
      [
        "Ġpred",
        "ictions"
      ],
      [
        "Ġfe",
        "ed"
      ],
      [
        "Ġfe",
        "wer"
      ],
      [
        "Ġfin",
        "d"
      ],
      [
        "Ġfin",
        "ds"
      ],
      [
        "Ġrepe",
        "ating"
      ],
      [
        "Ġrepe",
        "ats"
      ],
      [
        "Ġread",
        "ing"
      ],
      [
        "Ġrevers",
        "e"
      ],
      [
        "Ġrevers",
        "es"
      ],
      [
        "Ġexec",
        "uting"
      ],
      [
        "Ġexec",
        "utions"
      ],
      [
        "Ġproce",
        "ed"
      ],
      [
        "Ġproce",
        "dure"
      ],
      [
        "Ġmodif",
        "y"
      ],
      [
        "Ġmodif",
        "ied"
      ],
      [
        "Ġstore",
        "d"
      ],
      [
        "Ġstore",
        "s"
      ],
      [
        "Ġmak",
        "e"
      ],
      [
        "Ġmak",
        "es"
      ],
      [
        "assump",
        "tion"
      ],
      [
        "assump",
        "tions"
      ],
      [
        "Ġaff",
        "ects"
      ],
      [
        "Ġaff",
        "ecting"
      ],
      [
        "Ġstat",
        "e"
      ],
      [
        "Ġstat",
        "ed"
      ],
      [
        "Ġdepend",
        "s"
      ],
      [
        "Ġdepend",
        "ing"
      ],
      [
        "Ġinterpret",
        "ation"
      ],
      [
        "Ġinterpret",
        "ations"
      ],
      [
        "Ġappro",
        "pri"
      ],
      [
        "Ġappro",
        "xim"
      ],
      [
        "Ġcount",
        "s"
      ],
      [
        "Ġexpect",
        "s"
      ],
      [
        "Ġexpect",
        "ed"
      ],
      [
        ":]",
        ":"
      ],
      [
        "At",
        "tention"
      ],
      [
        "Ale",
        "x"
      ],
      [
        "De",
        "ep"
      ],
      [
        "Def",
        "ine"
      ],
      [
        "Gr",
        "adient"
      ],
      [
        "Loo",
        "ps"
      ],
      [
        "Mach",
        "ine"
      ],
      [
        "Re",
        "cursion"
      ],
      [
        "bec",
        "ause"
      ],
      [
        "cre",
        "ated"
      ],
      [
        "cod",
        "ing"
      ],
      [
        "do",
        "es"
      ],
      [
        "gg",
        "ing"
      ],
      [
        "lar",
        "gest"
      ],
      [
        "mon",
        "itor"
      ],
      [
        "neg",
        "ative"
      ],
      [
        "pro",
        "duce"
      ],
      [
        "smal",
        "ler"
      ],
      [
        "spli",
        "t"
      ],
      [
        "tx",
        "t"
      ],
      [
        "upd",
        "ate"
      ],
      [
        "udor",
        "andom"
      ],
      [
        "Ġen",
        "coding"
      ],
      [
        "Ġle",
        "ad"
      ],
      [
        "Ġem",
        "pty"
      ],
      [
        "Ġef",
        "ficient"
      ],
      [
        "Ġqu",
        "ality"
      ],
      [
        "Ġque",
        "stion"
      ],
      [
        "ĠTy",
        "peError"
      ],
      [
        "ĠZero",
        "Division"
      ],
      [
        "Ġassign",
        "ment"
      ],
      [
        "Ġapplic",
        "ations"
      ],
      [
        "Ġimple",
        "mentation"
      ],
      [
        "resi",
        "dual"
      ],
      [
        "Ġcare",
        "fully"
      ],
      [
        "Ġtas",
        "k"
      ],
      [
        "Ġtech",
        "nique"
      ],
      [
        "Ġpse",
        "udorandom"
      ],
      [
        "Ġpatter",
        "ns"
      ],
      [
        "Ġpoor",
        "ly"
      ],
      [
        "Ġargum",
        "ents"
      ],
      [
        "Ġform",
        "ats"
      ],
      [
        "Ġfinish",
        "es"
      ],
      [
        "Ġdenom",
        "inator"
      ],
      [
        "Ġreach",
        "es"
      ],
      [
        "Ġnum",
        "erical"
      ],
      [
        "Ġnormal",
        "ization"
      ],
      [
        "excep",
        "t"
      ],
      [
        "Ġbet",
        "ter"
      ],
      [
        "Ġbui",
        "lt"
      ],
      [
        "Ġbran",
        "ch"
      ],
      [
        "Ġinade",
        "quately"
      ],
      [
        "Ġcomple",
        "tely"
      ],
      [
        "Ġcompose",
        "d"
      ],
      [
        "Ġmeth",
        "od"
      ],
      [
        "Ġmigh",
        "t"
      ],
      [
        "Ġmater",
        "ially"
      ],
      [
        "Ġmess",
        "age"
      ],
      [
        "Ġsom",
        "ething"
      ],
      [
        "Ġsco",
        "pe"
      ],
      [
        "Ġsaf",
        "ely"
      ],
      [
        "Ġvers",
        "us"
      ],
      [
        "Ġexplic",
        "itly"
      ],
      [
        "Ġlimit",
        "ed"
      ],
      [
        "Ġtrace",
        "back"
      ],
      [
        "Ġorig",
        "inal"
      ],
      [
        "Ġretri",
        "eve"
      ],
      [
        "Ġnecess",
        "arily"
      ],
      [
        "Ġcompati",
        "ble"
      ],
      [
        "Ġconver",
        "ts"
      ],
      [
        "Ġconne",
        "ctions"
      ],
      [
        "Ġconcis",
        "e"
      ],
      [
        "Ġdivid",
        "ed"
      ],
      [
        "Ġreplace",
        "d"
      ],
      [
        "Ġevalu",
        "ate"
      ],
      [
        "differ",
        "ent"
      ],
      [
        "divis",
        "ors"
      ],
      [
        "Ġadjust",
        "ed"
      ],
      [
        "Ġchoic",
        "es"
      ],
      [
        "Ġgui",
        "de"
      ],
      [
        "Ġunfam",
        "iliar"
      ],
      [
        "Ġsoft",
        "ware"
      ],
      [
        "Ġdeci",
        "sions"
      ],
      [
        "Ġdebu",
        "gging"
      ],
      [
        "Ġdesign",
        "s"
      ],
      [
        "Ġlanguag",
        "es"
      ],
      [
        "forwar",
        "d"
      ],
      [
        "Ġmathematic",
        "al"
      ],
      [
        "commun",
        "icate"
      ],
      [
        "mechanis",
        "ms"
      ],
      [
        "Ġautoregre",
        "ssive"
      ],
      [
        "Ġstrategi",
        "es"
      ],
      [
        "Ġassoci",
        "ations"
      ],
      [
        "Ġappropri",
        "ately"
      ],
      [
        "Ġapproxim",
        "ately"
      ],
      [
        "Ġefficient",
        "ly"
      ],
      [
        "ĠZeroDivision",
        "Error"
      ]
    ]
  }
}