{
  "version": "1.0",
  "truncation": null,
  "padding": null,
  "added_tokens": [
    {
      "id": 0,
      "content": "<pad>",
      "single_word": false,
      "lstrip": false,
      "rstrip": false,
      "normalized": false,
      "special": true
    },
    {
      "id": 1,
      "content": "<unk>",
      "single_word": false,
      "lstrip": false,
      "rstrip": false,
      "normalized": false,
      "special": true
    },
    {
      "id": 2,
      "content": "<bos>",
      "single_word": false,
      "lstrip": false,
      "rstrip": false,
      "normalized": false,
      "special": true
    },
    {
      "id": 3,
      "content": "<eos>",
      "single_word": false,
      "lstrip": false,
      "rstrip": false,
      "normalized": false,
      "special": true
    },
    {
      "id": 4,
      "content": "<system>",
      "single_word": false,
      "lstrip": false,
      "rstrip": false,
      "normalized": false,
      "special": true
    },
    {
      "id": 5,
      "content": "<user>",
      "single_word": false,
      "lstrip": false,
      "rstrip": false,
      "normalized": false,
      "special": true
    },
    {
      "id": 6,
      "content": "<assistant>",
      "single_word": false,
      "lstrip": false,
      "rstrip": false,
      "normalized": false,
      "special": true
    },
    {
      "id": 7,
      "content": "<end>",
      "single_word": false,
      "lstrip": false,
      "rstrip": false,
      "normalized": false,
      "special": true
    }
  ],
  "normalizer": null,
  "pre_tokenizer": {
    "type": "ByteLevel",
    "add_prefix_space": false,
    "trim_offsets": true,
    "use_regex": true
  },
  "post_processor": null,
  "decoder": {
    "type": "ByteLevel",
    "add_prefix_space": true,
    "trim_offsets": true,
    "use_regex": true
  },
  "model": {
    "type": "BPE",
    "dropout": null,
    "unk_token": "<unk>",
    "continuing_subword_prefix": null,
    "end_of_word_suffix": null,
    "fuse_unk": false,
    "byte_fallback": true,
    "ignore_merges": false,
    "vocab": {
      "<pad>": 0,
      "<unk>": 1,
      "<bos>": 2,
      "<eos>": 3,
      "<system>": 4,
      "<user>": 5,
      "<assistant>": 6,
      "<end>": 7,
      "!": 8,
      "\"": 9,
      "#": 10,
      "$": 11,
      "%": 12,
      "&": 13,
      "'": 14,
      "(": 15,
      ")": 16,
      "*": 17,
      "+": 18,
      ",": 19,
      "-": 20,
      ".": 21,
      "/": 22,
      "0": 23,
      "1": 24,
      "2": 25,
      "3": 26,
      "4": 27,
      "5": 28,
      "6": 29,
      "7": 30,
      "8": 31,
      "9": 32,
      ":": 33,
      ";": 34,
      "<": 35,
      "=": 36,
      ">": 37,
      "?": 38,
      "@": 39,
      "A": 40,
      "B": 41,
      "C": 42,
      "D": 43,
      "E": 44,
      "F": 45,
      "G": 46,
      "H": 47,
      "I": 48,
      "J": 49,
      "K": 50,
      "L": 51,
      "M": 52,
      "N": 53,
      "O": 54,
      "P": 55,
      "Q": 56,
      "R": 57,
      "S": 58,
      "T": 59,
      "U": 60,
      "V": 61,
      "W": 62,
      "X": 63,
      "Y": 64,
      "Z": 65,
      "[": 66,
      "\\": 67,
      "]": 68,
      "^": 69,
      "_": 70,
      "`": 71,
      "a": 72,
      "b": 73,
      "c": 74,
      "d": 75,
      "e": 76,
      "f": 77,
      "g": 78,
      "h": 79,
      "i": 80,
      "j": 81,
      "k": 82,
      "l": 83,
      "m": 84,
      "n": 85,
      "o": 86,
      "p": 87,
      "q": 88,
      "r": 89,
      "s": 90,
      "t": 91,
      "u": 92,
      "v": 93,
      "w": 94,
      "x": 95,
      "y": 96,
      "z": 97,
      "{": 98,
      "|": 99,
      "}": 100,
      "~": 101,
      "¡": 102,
      "¢": 103,
      "£": 104,
      "¤": 105,
      "¥": 106,
      "¦": 107,
      "§": 108,
      "¨": 109,
      "©": 110,
      "ª": 111,
      "«": 112,
      "¬": 113,
      "®": 114,
      "¯": 115,
      "°": 116,
      "±": 117,
      "²": 118,
      "³": 119,
      "´": 120,
      "µ": 121,
      "¶": 122,
      "·": 123,
      "¸": 124,
      "¹": 125,
      "º": 126,
      "»": 127,
      "¼": 128,
      "½": 129,
      "¾": 130,
      "¿": 131,
      "À": 132,
      "Á": 133,
      "Â": 134,
      "Ã": 135,
      "Ä": 136,
      "Å": 137,
      "Æ": 138,
      "Ç": 139,
      "È": 140,
      "É": 141,
      "Ê": 142,
      "Ë": 143,
      "Ì": 144,
      "Í": 145,
      "Î": 146,
      "Ï": 147,
      "Ð": 148,
      "Ñ": 149,
      "Ò": 150,
      "Ó": 151,
      "Ô": 152,
      "Õ": 153,
      "Ö": 154,
      "×": 155,
      "Ø": 156,
      "Ù": 157,
      "Ú": 158,
      "Û": 159,
      "Ü": 160,
      "Ý": 161,
      "Þ": 162,
      "ß": 163,
      "à": 164,
      "á": 165,
      "â": 166,
      "ã": 167,
      "ä": 168,
      "å": 169,
      "æ": 170,
      "ç": 171,
      "è": 172,
      "é": 173,
      "ê": 174,
      "ë": 175,
      "ì": 176,
      "í": 177,
      "î": 178,
      "ï": 179,
      "ð": 180,
      "ñ": 181,
      "ò": 182,
      "ó": 183,
      "ô": 184,
      "õ": 185,
      "ö": 186,
      "÷": 187,
      "ø": 188,
      "ù": 189,
      "ú": 190,
      "û": 191,
      "ü": 192,
      "ý": 193,
      "þ": 194,
      "ÿ": 195,
      "Ā": 196,
      "ā": 197,
      "Ă": 198,
      "ă": 199,
      "Ą": 200,
      "ą": 201,
      "Ć": 202,
      "ć": 203,
      "Ĉ": 204,
      "ĉ": 205,
      "Ċ": 206,
      "ċ": 207,
      "Č": 208,
      "č": 209,
      "Ď": 210,
      "ď": 211,
      "Đ": 212,
      "đ": 213,
      "Ē": 214,
      "ē": 215,
      "Ĕ": 216,
      "ĕ": 217,
      "Ė": 218,
      "ė": 219,
      "Ę": 220,
      "ę": 221,
      "Ě": 222,
      "ě": 223,
      "Ĝ": 224,
      "ĝ": 225,
      "Ğ": 226,
      "ğ": 227,
      "Ġ": 228,
      "ġ": 229,
      "Ģ": 230,
      "ģ": 231,
      "Ĥ": 232,
      "ĥ": 233,
      "Ħ": 234,
      "ħ": 235,
      "Ĩ": 236,
      "ĩ": 237,
      "Ī": 238,
      "ī": 239,
      "Ĭ": 240,
      "ĭ": 241,
      "Į": 242,
      "į": 243,
      "İ": 244,
      "ı": 245,
      "Ĳ": 246,
      "ĳ": 247,
      "Ĵ": 248,
      "ĵ": 249,
      "Ķ": 250,
      "ķ": 251,
      "ĸ": 252,
      "Ĺ": 253,
      "ĺ": 254,
      "Ļ": 255,
      "ļ": 256,
      "Ľ": 257,
      "ľ": 258,
      "Ŀ": 259,
      "ŀ": 260,
      "Ł": 261,
      "ł": 262,
      "Ń": 263,
      "Ġa": 264,
      "Ġt": 265,
      "in": 266,
      "he": 267,
      "re": 268,
      "er": 269,
      "on": 270,
      "en": 271,
      "Ġthe": 272,
      "at": 273,
      "Ġs": 274,
      "Ġc": 275,
      "an": 276,
      "or": 277,
      "is": 278,
      "ou": 279,
      "al": 280,
      "Ġan": 281,
      "es": 282,
      "it": 283,
      "Ġw": 284,
      "Ġp": 285,
      "ic": 286,
      "ing": 287,
      "Ġf": 288,
      "Ġo": 289,
      "Ġm": 290,
      "Ġin": 291,
      "Ġand": 292,
      "Ġto": 293,
      "Ġb": 294,
      "ĠĠ": 295,
      "Ġd": 296,
      "le": 297,
      "ar": 298,
      "ion": 299,
      "Ġof": 300,
      "ed": 301,
      "os": 302,
      "as": 303,
      "us": 304,
      "om": 305,
      "el": 306,
      "Ġth": 307,
      "ct": 308,
      "Ġh": 309,
      "Ġg": 310,
      "Ġe": 311,
      "Ġy": 312,
      "ist": 313,
      "ce": 314,
      "ent": 315,
      "Ġl": 316,
      "Ġre": 317,
      "ro": 318,
      "ant": 319,
      "Ġyou": 320,
      "Ġn": 321,
      "ig": 322,
      "et": 323,
      "if": 324,
      "st": 325,
      "Ġis": 326,
      "ul": 327,
      "ur": 328,
      "Ġas": 329,
      "il": 330,
      "im": 331,
      "Ġare": 332,
      "ve": 333,
      "ow": 334,
      "sist": 335,
      "em": 336,
      "Ġfor": 337,
      "Ġhe": 338,
      "am": 339,
      "sistant": 340,
      "id": 341,
      "Ġthat": 342,
      "ation": 343,
      "ĠI": 344,
      "Ġbe": 345,
      "ol": 346,
      "ot": 347,
      "ch": 348,
      "ut": 349,
      "ĠT": 350,
      "Ġint": 351,
      "un": 352,
      "ly": 353,
      "end": 354,
      "ĠM": 355,
      "ial": 356,
      "Ġon": 357,
      "Ġcan": 358,
      "ay": 359,
      "Ġst": 360,
      "ith": 361,
      "ver": 362,
      "Ġit": 363,
      "ell": 364,
      "ĠĠĠĠ": 365,
      "Ġpro": 366,
      "Ġcon": 367,
      "od": 368,
      "ra": 369,
      "Ġor": 370,
      "Ġus": 371,
      "Ġwith": 372,
      "ir": 373,
      "lp": 374,
      "ence": 375,
      "Ġhelp": 376,
      "Ġar": 377,
      "yst": 378,
      "ific": 379,
      "ĠA": 380,
      "ener": 381,
      "ystem": 382,
      "Ġex": 383,
      "You": 384,
      "ke": 385,
      "ate": 386,
      "ose": 387,
      "ers": 388,
      "um": 389,
      "Ġcom": 390,
      "ful": 391,
      "ld": 392,
      "ge": 393,
      "Ġal": 394,
      "ĠĠĠ": 395,
      "ad": 396,
      "ĠS": 397,
      "Ġgener": 398,
      "Ġwh": 399,
      "qu": 400,
      "ure": 401,
      "Ġart": 402,
      "ess": 403,
      "Ġyour": 404,
      "Ġv": 405,
      "her": 406,
      "ab": 407,
      "Ġgeneral": 408,
      "op": 409,
      "ect": 410,
      "ellig": 411,
      "th": 412,
      "urp": 413,
      "ere": 414,
      "elligence": 415,
      "ore": 416,
      "ĠC": 417,
      "user": 418,
      "Ġintelligence": 419,
      "ri": 420,
      "ificial": 421,
      "se": 422,
      "Ġhelpful": 423,
      "Ġassistant": 424,
      "ity": 425,
      "urpose": 426,
      "Ġartificial": 427,
      "Ġde": 428,
      "osa": 429,
      "system": 430,
      "bos": 431,
      "assistant": 432,
      "purpose": 433,
      "osaic": 434,
      "'s": 435,
      "ĠMosaic": 436,
      "out": 437,
      "ain": 438,
      "ould": 439,
      "est": 440,
      "igh": 441,
      "Ġsu": 442,
      "pt": 443,
      "ĠThe": 444,
      "ck": 445,
      "nt": 446,
      "pl": 447,
      "Ġne": 448,
      "Ġha": 449,
      "Ġ\"": 450,
      "ort": 451,
      "ĠP": 452,
      "and": 453,
      "Ġr": 454,
      "pe": 455,
      "ill": 456,
      "ies": 457,
      "rom": 458,
      "iz": 459,
      "ment": 460,
      "ions": 461,
      "Ġim": 462,
      "Ġch": 463,
      "``": 464,
      "ĠH": 465,
      "ive": 466,
      "per": 467,
      "ome": 468,
      "Ġle": 469,
      "Ġby": 470,
      "ple": 471,
      "Ġ(": 472,
      "iv": 473,
      "ter": 474,
      "Ġhave": 475,
      "ight": 476,
      "Ġun": 477,
      "ine": 478,
      "ame": 479,
      "Ġsh": 480,
      "Ġme": 481,
      "pp": 482,
      "Ġnot": 483,
      "Ġse": 484,
      "oc": 485,
      "Ġma": 486,
      "ther": 487,
      "all": 488,
      "Ġwor": 489,
      "Ġpl": 490,
      "ical": 491,
      "ĠE": 492,
      "Ġfrom": 493,
      "Ġad": 494,
      "ĠW": 495,
      "Ġab": 496,
      "res": 497,
      "Ġ1": 498,
      "age": 499,
      "act": 500,
      "ide": 501,
      "ĠB": 502,
      "orm": 503,
      "ud": 504,
      "Ġ=": 505,
      "ile": 506,
      "art": 507,
      "ĠD": 508,
      "Ġwe": 509,
      "Ġen": 510,
      "are": 511,
      "ĠF": 512,
      "able": 513,
      "Ġres": 514,
      "cl": 515,
      "our": 516,
      "ult": 517,
      "ag": 518,
      "--": 519,
      "nd": 520,
      "ĠR": 521,
      "Ġdo": 522,
      "Ġthis": 523,
      "Ġcomp": 524,
      "Ġmore": 525,
      "ations": 526,
      "ust": 527,
      "Ġk": 528,
      "ich": 529,
      "Ġcont": 530,
      "Ġtheir": 531,
      "Ġother": 532,
      "Ġat": 533,
      "Ġli": 534,
      "ance": 535,
      "ĠG": 536,
      "his": 537,
      "Ġimp": 538,
      "form": 539,
      "ry": 540,
      "ff": 541,
      "ction": 542,
      "og": 543,
      "ie": 544,
      "ep": 545,
      "ĠL": 546,
      "Ġsome": 547,
      "00": 548,
      "ard": 549,
      "Ġuse": 550,
      "Ġwhe": 551,
      "king": 552,
      "Ġte": 553,
      "ble": 554,
      "Ġcre": 555,
      "ac": 556,
      "iff": 557,
      "The": 558,
      "cess": 559,
      "Ġall": 560,
      "ast": 561,
      "ĠĠĠĠĠĠĠ": 562,
      "up": 563,
      "Ġwhich": 564,
      "ind": 565,
      "ire": 566,
      "int": 567,
      "ue": 568,
      "ost": 569,
      "ack": 570,
      "Ġsc": 571,
      "gh": 572,
      "Ġ-": 573,
      "ous": 574,
      "Ġqu": 575,
      "Ġdat": 576,
      "ime": 577,
      "Ġif": 578,
      "Ġdiff": 579,
      "so": 580,
      "xt": 581,
      "du": 582,
      "der": 583,
      "ase": 584,
      "ary": 585,
      "ang": 586,
      "Ġwill": 587,
      "ĠThis": 588,
      "ass": 589,
      "Ġgo": 590,
      "vel": 591,
      "ĠO": 592,
      "Ġcl": 593,
      "Ġhas": 594,
      "Ġso": 595,
      "Ġsuch": 596,
      "Ġfun": 597,
      "ks": 598,
      "ĠN": 599,
      "ong": 600,
      "ign": 601,
      "Ġthey": 602,
      "```": 603,
      "ough": 604,
      "ition": 605,
      "ber": 606,
      "Ġany": 607,
      "Ġbut": 608,
      "Ġman": 609,
      "ces": 610,
      "ap": 611,
      "Ġwas": 612,
      "Ġfe": 613,
      "hat": 614,
      "Ġmod": 615,
      "ans": 616,
      "Ġwould": 617,
      "Ġmay": 618,
      "ound": 619,
      "ach": 620,
      "Ġ2": 621,
      "Ġspe": 622,
      "ite": 623,
      "ject": 624,
      "Ġj": 625,
      "ĠIt": 626,
      "ated": 627,
      "ory": 628,
      "clud": 629,
      "Ġac": 630,
      "oo": 631,
      "Ġalso": 632,
      "Ġabout": 633,
      "ual": 634,
      "ĠU": 635,
      "Ġused": 636,
      "Ġsp": 637,
      "ace": 638,
      "Ġpre": 639,
      "Ġneed": 640,
      "av": 641,
      "ely": 642,
      "Ġinclud": 643,
      "ens": 644,
      "Ġcomm": 645,
      "Ġstr": 646,
      "Ġout": 647,
      "Ġlike": 648,
      "ode": 649,
      "Ġper": 650,
      "Ġup": 651,
      "Ġprov": 652,
      "Ġdata": 653,
      "ice": 654,
      "now": 655,
      "ail": 656,
      "Ġdiffere": 657,
      "Ġthem": 658,
      "Ġexam": 659,
      "Ġev": 660,
      "one": 661,
      "ount": 662,
      "etw": 663,
      "Ġtra": 664,
      "Ġusing": 665,
      "Ġhow": 666,
      "Ġdis": 667,
      "gr": 668,
      "âĢ": 669,
      "ors": 670,
      "ip": 671,
      "Ġthere": 672,
      "ient": 673,
      "Ġcould": 674,
      "Ġits": 675,
      "Ġadd": 676,
      "Ġnew": 677,
      "Ġtr": 678,
      "Ġmy": 679,
      "ating": 680,
      "ize": 681,
      "ress": 682,
      "con": 683,
      "ari": 684,
      "Ġta": 685,
      "Ġover": 686,
      "Ġpr": 687,
      "Ġknow": 688,
      "Ġspec": 689,
      "Ġro": 690,
      "ft": 691,
      "Ġtime": 692,
      "put": 693,
      "Ġdes": 694,
      "low": 695,
      "ĠJ": 696,
      "Ġfunction": 697,
      "ater": 698,
      "ning": 699,
      "Ġob": 700,
      "Ġsystem": 701,
      "yth": 702,
      "Ġinto": 703,
      "led": 704,
      "Ġty": 705,
      "ular": 706,
      "Ġone": 707,
      "Ġimport": 708,
      "ĠIn": 709,
      "ia": 710,
      "Ġke": 711,
      "com": 712,
      "oss": 713,
      "Ġmake": 714,
      "Ġcode": 715,
      "lo": 716,
      "ents": 717,
      "urn": 718,
      "Ġunder": 719,
      "ms": 720,
      "ics": 721,
      "ally": 722,
      "Ġway": 723,
      "Ġwhen": 724,
      "Ġnum": 725,
      "ub": 726,
      "Ġthese": 727,
      "ern": 728,
      "Ġcons": 729,
      "'t": 730,
      "Ġ3": 731,
      "Ġcol": 732,
      "ings": 733,
      "ear": 734,
      "Ġser": 735,
      "aus": 736,
      "ove": 737,
      "Ġapp": 738,
      "ick": 739,
      "Ġind": 740,
      "ĠHow": 741,
      "ible": 742,
      "Ġeff": 743,
      "ript": 744,
      "ph": 745,
      "Ġexample": 746,
      "ree": 747,
      "vers": 748,
      "Ġdifferent": 749,
      "ython": 750,
      "Ġwho": 751,
      "ord": 752,
      "Ġmet": 753,
      "Ġrequ": 754,
      "ature": 755,
      "In": 756,
      "ever": 757,
      "Ġwork": 758,
      "Ġsim": 759,
      "----": 760,
      "ates": 761,
      "ild": 762,
      "Ġvari": 763,
      "ĠYou": 764,
      "ased": 765,
      "Ġwhat": 766,
      "Ġam": 767,
      "Ġpe": 768,
      "velop": 769,
      "rib": 770,
      "pen": 771,
      "ĠĊ": 772,
      "Ġhis": 773,
      "\",": 774,
      "Ġprocess": 775,
      "Ġpart": 776,
      "Ġexper": 777,
      "ish": 778,
      "Ġap": 779,
      "Ġact": 780,
      "cur": 781,
      "Ġset": 782,
      "olog": 783,
      "ities": 784,
      "elf": 785,
      "Ġinv": 786,
      "Ġhum": 787,
      "ility": 788,
      "Ġshould": 789,
      "ark": 790,
      "pon": 791,
      "ru": 792,
      "Ġval": 793,
      "Ġ{": 794,
      "Ġbu": 795,
      "Ġform": 796,
      "Ġget": 797,
      "Ġlear": 798,
      "Ġimportant": 799,
      "wn": 800,
      "Ġcal": 801,
      "ict": 802,
      "lect": 803,
      "Ġrel": 804,
      "een": 805,
      "Ġthan": 806,
      "ower": 807,
      "Ġinst": 808,
      "Ġfol": 809,
      "Ġmany": 810,
      "ll": 811,
      "Ġinc": 812,
      "erson": 813,
      "oint": 814,
      "Ġem": 815,
      "Ġeach": 816,
      "ments": 817,
      "get": 818,
      "als": 819,
      "Ġret": 820,
      "gram": 821,
      "etween": 822,
      "ĠSt": 823,
      "Ġdevelop": 824,
      "**": 825,
      "Ġinform": 826,
      "ages": 827,
      "Ġbetween": 828,
      "les": 829,
      "rough": 830,
      "very": 831,
      "Ġplay": 832,
      "Ġcreate": 833,
      "reat": 834,
      "ĠIf": 835,
      "rit": 836,
      "Ġpat": 837,
      "Ġsm": 838,
      "ange": 839,
      "erm": 840,
      "Ġmodel": 841,
      "ne": 842,
      "Ġexpl": 843,
      "Ġprogram": 844,
      "Ġra": 845,
      "ople": 846,
      "ert": 847,
      "ov": 848,
      "Ġwant": 849,
      "What": 850,
      "stand": 851,
      "Ġoff": 852,
      "Ġbec": 853,
      "ib": 854,
      "te": 855,
      "ware": 856,
      "ause": 857,
      "()": 858,
      "ting": 859,
      "Ġche": 860,
      "Ġtw": 861,
      "Ġdet": 862,
      "ential": 863,
      "Ġwhile": 864,
      "ys": 865,
      "Ġph": 866,
      "Ġdep": 867,
      "Ġlist": 868,
      "ience": 869,
      "Ġsol": 870,
      "chn": 871,
      "Ġreg": 872,
      "own": 873,
      "oth": 874,
      "ĠV": 875,
      "Ġthen": 876,
      "row": 877,
      "ef": 878,
      "ten": 879,
      "Ġprovide": 880,
      "Ġpeople": 881,
      "ood": 882,
      "irst": 883,
      "Ġinformation": 884,
      "Ġbeen": 885,
      "Ġthrough": 886,
      "ract": 887,
      "ĠHowever": 888,
      "ak": 889,
      "ĠAI": 890,
      "Ġquest": 891,
      "Ġmat": 892,
      "Ġinf": 893,
      "Ġtechn": 894,
      "angu": 895,
      "Ġcur": 896,
      "Ġunderstand": 897,
      "Ġ'": 898,
      "Ġfile": 899,
      "Ġhigh": 900,
      "tern": 901,
      "Ġfollow": 902,
      "ise": 903,
      "Ġobject": 904,
      "Ġperson": 905,
      "Ġatt": 906,
      "Ġinter": 907,
      "ook": 908,
      "Ġspecific": 909,
      "Ġcomple": 910,
      "ized": 911,
      "iew": 912,
      "ative": 913,
      "Ġopt": 914,
      "Ġexp": 915,
      "Ġrespon": 916,
      "Ġwhere": 917,
      "Ġdist": 918,
      "Ġgame": 919,
      "ob": 920,
      "its": 921,
      "Ġlangu": 922,
      "gg": 923,
      "Ġpol": 924,
      "Ġtwo": 925,
      "vent": 926,
      "Ġfind": 927,
      "Ġdec": 928,
      "Ġprodu": 929,
      "gy": 930,
      "hen": 931,
      "red": 932,
      "Ġmed": 933,
      "Ġno": 934,
      "pport": 935,
      "Ġincluding": 936,
      "Ġtrans": 937,
      "ues": 938,
      "ien": 939,
      "ices": 940,
      "omet": 941,
      "ays": 942,
      "Ġworld": 943,
      "Ġnumber": 944,
      "Ġmost": 945,
      "Ġrep": 946,
      "Ġco": 947,
      "Ġplan": 948,
      "Ġtext": 949,
      "Ġsa": 950,
      "Ġpop": 951,
      "Ġ`": 952,
      "Ġcomput": 953,
      ");": 954,
      "Âł": 955,
      "Ġgood": 956,
      "ious": 957,
      "Ġ+": 958,
      "ink": 959,
      "ced": 960,
      "ribut": 961,
      "ĠK": 962,
      "Ġtyp": 963,
      "ines": 964,
      "cept": 965,
      "Ġstart": 966,
      "Ġdef": 967,
      "Ġchar": 968,
      "Ġresult": 969,
      "Ġkey": 970,
      "iqu": 971,
      "ds": 972,
      "Ġgr": 973,
      "uring": 974,
      "Ġwell": 975,
      "lease": 976,
      "hes": 977,
      "Ġsign": 978,
      "Ġdoes": 979,
      "Ġref": 980,
      "ĠHere": 981,
      "Ġreturn": 982,
      "any": 983,
      "plic": 984,
      "cript": 985,
      "ves": 986,
      "Ġlar": 987,
      "ify": 988,
      "Ġag": 989,
      "Ġmain": 990,
      "ĠĠĠĠĠĠĠĠĠĠĠ": 991,
      "Ġ5": 992,
      "Ġjust": 993,
      "gor": 994,
      "Ġallow": 995,
      "eng": 996,
      "Ġsoc": 997,
      "ron": 998,
      "ures": 999,
      "Ġtake": 1000,
      "ness": 1001,
      "Ġonly": 1002,
      "Ġprovid": 1003,
      "fore": 1004,
      "ork": 1005,
      "Ġsub": 1006,
      "Ġrem": 1007,
      "ples": 1008,
      "Ġhuman": 1009,
      "dition": 1010,
      "Ġsee": 1011,
      "Ġperform": 1012,
      "ality": 1013,
      "Ġfirst": 1014,
      "Ġrec": 1015,
      "ĠFor": 1016,
      "Ġtry": 1017,
      "Ġhand": 1018,
      "ural": 1019,
      "ically": 1020,
      "read": 1021,
      "Ġown": 1022,
      "ĠPython": 1023,
      "Ġdepend": 1024,
      "nce": 1025,
      "Ġav": 1026,
      "Ġsk": 1027,
      "ety": 1028,
      "hod": 1029,
      "Ġpoint": 1030,
      "ĠAs": 1031,
      "Ġyear": 1032,
      "ered": 1033,
      "Ġrun": 1034,
      "Ġfl": 1035,
      "Ġaut": 1036,
      "ife": 1037,
      "Ġposs": 1038,
      "Ġrequire": 1039,
      "Ġlong": 1040,
      "Ġdesign": 1041,
      "Ġconsid": 1042,
      "Ġbest": 1043,
      "arch": 1044,
      "gorith": 1045,
      "How": 1046,
      "ake": 1047,
      "ving": 1048,
      "Ġwere": 1049,
      "cul": 1050,
      "Ġcor": 1051,
      "rite": 1052,
      "Ġour": 1053,
      "cy": 1054,
      "Ġeng": 1055,
      "Ġ$": 1056,
      "Ġpot": 1057,
      "Ġmethod": 1058,
      "Ġalgorith": 1059,
      "Ġeffect": 1060,
      "Ġfact": 1061,
      "Ġbeing": 1062,
      "Ġlead": 1063,
      "Ġsmall": 1064,
      "ian": 1065,
      "ng": 1066,
      "nect": 1067,
      "ton": 1068,
      "Ġlight": 1069,
      "),": 1070,
      "apt": 1071,
      "line": 1072,
      "rent": 1073,
      "Ġname": 1074,
      "Ġadv": 1075,
      "'re": 1076,
      "ty": 1077,
      "Ġpower": 1078,
      "Ġgra": 1079,
      "ock": 1080,
      "arth": 1081,
      "ional": 1082,
      "ĠAd": 1083,
      "ization": 1084,
      "oy": 1085,
      "uch": 1086,
      "alth": 1087,
      "Ġass": 1088,
      "):": 1089,
      "not": 1090,
      "Ġopen": 1091,
      "Ġproper": 1092,
      "//": 1093,
      "sw": 1094,
      "Ġ4": 1095,
      "Ġ20": 1096,
      "Ġcommun": 1097,
      "old": 1098,
      "Ġweb": 1099,
      "Ġinclude": 1100,
      "ser": 1101,
      "ited": 1102,
      "ident": 1103,
      "Ġappro": 1104,
      "Ġbuild": 1105,
      "ved": 1106,
      "Ġ[": 1107,
      "Ġlanguage": 1108,
      "Ġ|": 1109,
      "Ġcharact": 1110,
      "ons": 1111,
      "Ġbased": 1112,
      "ex": 1113,
      "Ġshe": 1114,
      "Ġfi": 1115,
      "Ġext": 1116,
      ").": 1117,
      "Ġ#": 1118,
      "Ġboth": 1119,
      "Ġstep": 1120,
      "iron": 1121,
      "ade": 1122,
      "Ġhad": 1123,
      "ric": 1124,
      "Ġtool": 1125,
      "Ġsupport": 1126,
      "ĠThey": 1127,
      "Ġprint": 1128,
      "Ġtype": 1129,
      "eg": 1130,
      "Ġmem": 1131,
      "Ġstru": 1132,
      "pect": 1133,
      "Ġ0": 1134,
      "Ġtas": 1135,
      "Ġdire": 1136,
      "Ġimpro": 1137,
      "ax": 1138,
      "Ġide": 1139,
      "Ġfew": 1140,
      "</": 1141,
      "To": 1142,
      "ext": 1143,
      "ym": 1144,
      "comm": 1145,
      "Ġpopular": 1146,
      "kes": 1147,
      "Ġmin": 1148,
      "Ġher": 1149,
      "ring": 1150,
      "Ġbel": 1151,
      "ets": 1152,
      "ource": 1153,
      "Ġfil": 1154,
      "Ġtrain": 1155,
      "Ġcomplex": 1156,
      "Ġpotential": 1157,
      "ps": 1158,
      "ward": 1159,
      "Ġent": 1160,
      "Ġcount": 1161,
      "Ġgu": 1162,
      "ody": 1163,
      "=\"": 1164,
      "Ġmon": 1165,
      "Ġmult": 1166,
      "Ġdown": 1167,
      "Ġoften": 1168,
      "Ġcho": 1169,
      "Ġwater": 1170,
      "Ġinput": 1171,
      "Ġuser": 1172,
      "Ġlearning": 1173,
      "Ġansw": 1174,
      "ĠĠĠĠĠĠĠĠ": 1175,
      "Ġclass": 1176,
      "Ġmight": 1177,
      "Ġins": 1178,
      "Ġloc": 1179,
      "ational": 1180,
      "Ġproble": 1181,
      "Ġconf": 1182,
      "Ġconst": 1183,
      "Ġcontro": 1184,
      "Ġsoft": 1185,
      "Ġdisc": 1186,
      "Ġincre": 1187,
      "It": 1188,
      "ied": 1189,
      "inal": 1190,
      "Ġinvol": 1191,
      "ming": 1192,
      "Ġ*": 1193,
      "Ġsur": 1194,
      "Ġmuch": 1195,
      "Ġeven": 1196,
      "bers": 1197,
      "port": 1198,
      "==": 1199,
      "viron": 1200,
      "ĉĉ": 1201,
      "Ġener": 1202,
      "Ġproject": 1203,
      "St": 1204,
      "Ġsw": 1205,
      "Ġla": 1206,
      "Ġens": 1207,
      "(\"": 1208,
      "fter": 1209,
      "self": 1210,
      "Ġbet": 1211,
      "Ġredu": 1212,
      "ertain": 1213,
      "Ġpossible": 1214,
      "gan": 1215,
      "Ġback": 1216,
      "ars": 1217,
      "br": 1218,
      "ec": 1219,
      "ĠUn": 1220,
      "Ġdon": 1221,
      "cture": 1222,
      "Ġvis": 1223,
      "',": 1224,
      "cial": 1225,
      "ather": 1226,
      "ivid": 1227,
      "ÂłÂł": 1228,
      "Ġlife": 1229,
      "000": 1230,
      "Ġenergy": 1231,
      "][": 1232,
      "gin": 1233,
      "Ġnetw": 1234,
      "ily": 1235,
      "erest": 1236,
      "ology": 1237,
      "'m": 1238,
      "Ġlo": 1239,
      "Ġsoftware": 1240,
      "li": 1241,
      "Ġlarge": 1242,
      "Ġdirect": 1243,
      "Ġwithout": 1244,
      "ĠCh": 1245,
      "Ġenviron": 1246,
      "Here": 1247,
      "ts": 1248,
      "Ġtem": 1249,
      "Ġlearn": 1250,
      "This": 1251,
      "hing": 1252,
      "lic": 1253,
      "Ġbefore": 1254,
      "resent": 1255,
      "dit": 1256,
      "ases": 1257,
      "ution": 1258,
      "Ġmean": 1259,
      "..": 1260,
      "cle": 1261,
      "Ġaround": 1262,
      "Ġel": 1263,
      "Ġhealth": 1264,
      "ives": 1265,
      "Ġcomputer": 1266,
      "Ġbetter": 1267,
      "Ġfeel": 1268,
      "Ġcle": 1269,
      "Ġdi": 1270,
      "Ġeas": 1271,
      "ources": 1272,
      "Ġacc": 1273,
      "Ġexperience": 1274,
      "Ġed": 1275,
      "Ġsame": 1276,
      "Ġlet": 1277,
      "10": 1278,
      "mer": 1279,
      "Ġcult": 1280,
      "Ġpos": 1281,
      "Ġmus": 1282,
      "Ġbl": 1283,
      "Ġday": 1284,
      "Ġinterest": 1285,
      "Ġconnect": 1286,
      "Ġchall": 1287,
      "ĠHe": 1288,
      "Ġgive": 1289,
      "Can": 1290,
      "ave": 1291,
      "mat": 1292,
      "Ġ}": 1293,
      "iss": 1294,
      "Ġprom": 1295,
      "Ġtop": 1296,
      "ooking": 1297,
      "Ġpartic": 1298,
      "Ġcurrent": 1299,
      "QL": 1300,
      "Sure": 1301,
      "Ġchang": 1302,
      "Ġmaking": 1303,
      "Ġknown": 1304,
      "Ġkeep": 1305,
      "--------": 1306,
      "Ġbecause": 1307,
      "Ġfollowing": 1308,
      "ner": 1309,
      "Ġreal": 1310,
      "Ġhere": 1311,
      "Ġrange": 1312,
      "Ġsever": 1313,
      "lu": 1314,
      "raph": 1315,
      "Ġpattern": 1316,
      "Ġanswer": 1317,
      "ability": 1318,
      "ĠWhat": 1319,
      "ique": 1320,
      "20": 1321,
      "As": 1322,
      "ee": 1323,
      "name": 1324,
      "Ġend": 1325,
      "Ġbo": 1326,
      "arm": 1327,
      "Ġscript": 1328,
      "Ġcalcul": 1329,
      ".\"": 1330,
      "ills": 1331,
      "Ġspace": 1332,
      "Ġquestions": 1333,
      "Ġmess": 1334,
      "Ġevery": 1335,
      "ument": 1336,
      "Ġright": 1337,
      "ively": 1338,
      "Ġcent": 1339,
      "Ġcell": 1340,
      "Ġequ": 1341,
      "Ġcontin": 1342,
      "ually": 1343,
      "Ġimprove": 1344,
      "hip": 1345,
      "nces": 1346,
      "hed": 1347,
      "Ġcr": 1348,
      "Ġpass": 1349,
      "Ġpract": 1350,
      "Ġ19": 1351,
      "Ġcommon": 1352,
      "aterial": 1353,
      "ead": 1354,
      "ier": 1355,
      "oid": 1356,
      "ieve": 1357,
      "Ġcalled": 1358,
      "Ġsocial": 1359,
      "Ġcontrol": 1360,
      "Wh": 1361,
      "ix": 1362,
      "ense": 1363,
      "Ġprot": 1364,
      "plement": 1365,
      "Ġcontain": 1366,
      "Ġothers": 1367,
      "Ġensure": 1368,
      "Ġseveral": 1369,
      "Ġcap": 1370,
      "Ġmade": 1371,
      "Ġgrow": 1372,
      "Ġaddition": 1373,
      "atures": 1374,
      "Ġconsider": 1375,
      "Ġ<": 1376,
      "Ġ10": 1377,
      "Ġvalue": 1378,
      "Ġmulti": 1379,
      "Ġair": 1380,
      "ism": 1381,
      "Ġpar": 1382,
      "Ġblo": 1383,
      "Ġstud": 1384,
      "ĠThese": 1385,
      "Ġcompany": 1386,
      "for": 1387,
      "Ġgreat": 1388,
      "Ġelect": 1389,
      "Ġconc": 1390,
      "riend": 1391,
      "ately": 1392,
      "icult": 1393,
      "Ġoper": 1394,
      "Ġapplic": 1395,
      "Ġagain": 1396,
      "ank": 1397,
      "Ġduring": 1398,
      "ror": 1399,
      "ĠâĢ": 1400,
      "Ġhard": 1401,
      "ĠEx": 1402,
      "Ġvarious": 1403,
      "Ġlim": 1404,
      "ocus": 1405,
      "ĠOpen": 1406,
      "Ġaccess": 1407,
      "Ġfiel": 1408,
      "sc": 1409,
      "Ġstill": 1410,
      "Ġstory": 1411,
      "Ġfactors": 1412,
      "If": 1413,
      "tain": 1414,
      "Ġsure": 1415,
      "Ġtoo": 1416,
      "word": 1417,
      "ath": 1418,
      "Ġsum": 1419,
      "Ġsystems": 1420,
      "Ġenvironment": 1421,
      "air": 1422,
      "Ġcar": 1423,
      "ale": 1424,
      "indow": 1425,
      "Ġsteps": 1426,
      "Ġsize": 1427,
      "Ġcause": 1428,
      "Ġprof": 1429,
      "Ġeffic": 1430,
      "to": 1431,
      "yn": 1432,
      "ata": 1433,
      "Ġimpact": 1434,
      "Ġexamples": 1435,
      "Ġchalleng": 1436,
      "Ġcare": 1437,
      "Ġfam": 1438,
      "Ġread": 1439,
      "Ġiss": 1440,
      "Ġable": 1441,
      "ĠRe": 1442,
      "âĢĻ": 1443,
      "ted": 1444,
      "Ġi": 1445,
      "Ġafter": 1446,
      "Ġtell": 1447,
      "ince": 1448,
      "Ġsomet": 1449,
      "ivity": 1450,
      "ĠWh": 1451,
      "Ġbr": 1452,
      "Ġele": 1453,
      "ists": 1454,
      "ement": 1455,
      "riv": 1456,
      "Ġpersonal": 1457,
      "Ġperformance": 1458,
      "Ġter": 1459,
      "Ġpain": 1460,
      "Ġfound": 1461,
      "Ġhist": 1462,
      "Ġline": 1463,
      "ames": 1464,
      "Ġdevelopment": 1465,
      "Ġsignific": 1466,
      "Ġwrit": 1467,
      "Ġmark": 1468,
      "Ġless": 1469,
      "imes": 1470,
      "ĠAl": 1471,
      "ĠEarth": 1472,
      "ividual": 1473,
      "19": 1474,
      "vice": 1475,
      "Ġvery": 1476,
      "ined": 1477,
      "Ġmaterial": 1478,
      "Ġorgan": 1479,
      "ĠAr": 1480,
      "Ġcontent": 1481,
      "Ġavail": 1482,
      "day": 1483,
      "ger": 1484,
      "ope": 1485,
      "conom": 1486,
      "Ġindividual": 1487,
      "Ġphys": 1488,
      "Ġcorre": 1489,
      "Ġve": 1490,
      "Ġself": 1491,
      "itive": 1492,
      "Ġmove": 1493,
      "Ġthings": 1494,
      "ries": 1495,
      "Ġmach": 1496,
      "curity": 1497,
      "Ġquestion": 1498,
      "ull": 1499,
      "ilar": 1500,
      "Ġshow": 1501,
      "Ġalgorithm": 1502,
      "Ġcharacter": 1503,
      "commend": 1504,
      "Ġhim": 1505,
      "other": 1506,
      "There": 1507,
      "Ġneeds": 1508,
      "Ġcommand": 1509,
      "Ġoutput": 1510,
      "Ġexplain": 1511,
      "Ġtasks": 1512,
      "Ġ\\": 1513,
      "Ġvers": 1514,
      "Ġaff": 1515,
      "ering": 1516,
      "Ġfin": 1517,
      "ote": 1518,
      "Ġhapp": 1519,
      "yle": 1520,
      "ator": 1521,
      "Ġanim": 1522,
      "ention": 1523,
      "Ġbeh": 1524,
      "Ġsimple": 1525,
      "Ġprogramming": 1526,
      "Ġcheck": 1527,
      "Ġdeterm": 1528,
      "Ġtools": 1529,
      "less": 1530,
      "light": 1531,
      "sh": 1532,
      "Ġtest": 1533,
      "Ġanal": 1534,
      "Ġdem": 1535,
      "Ġlay": 1536,
      "Ġstre": 1537,
      "Ġlibr": 1538,
      "âĢĿ": 1539,
      "ublic": 1540,
      "ĠTo": 1541,
      "Ġstore": 1542,
      "ared": 1543,
      "ggest": 1544,
      "Ġnetwork": 1545,
      "ape": 1546,
      "bo": 1547,
      "Ġ6": 1548,
      "Ġident": 1549,
      "Ġthose": 1550,
      "Ġrecommend": 1551,
      "raft": 1552,
      "Ġris": 1553,
      "iven": 1554,
      "uss": 1555,
      "Ġdifficult": 1556,
      "rame": 1557,
      "ws": 1558,
      "here": 1559,
      "Ġfocus": 1560,
      "Ġmeas": 1561,
      "Ġresponse": 1562,
      "view": 1563,
      "Ġ8": 1564,
      "Ġpack": 1565,
      "Ġbre": 1566,
      "ctions": 1567,
      "Ġnow": 1568,
      "Ġrespons": 1569,
      "cing": 1570,
      "pro": 1571,
      "iness": 1572,
      "Ġfood": 1573,
      "Ġsuggest": 1574,
      "ĠThere": 1575,
      "Ġskills": 1576,
      "Ġwebs": 1577,
      "date": 1578,
      "val": 1579,
      "els": 1580,
      "ĠSome": 1581,
      "Ġresources": 1582,
      "ails": 1583,
      "face": 1584,
      "Ġfree": 1585,
      "Ġeconom": 1586,
      "ots": 1587,
      "ĠPro": 1588,
      "js": 1589,
      "Ġben": 1590,
      "amp": 1591,
      "Ġorig": 1592,
      "Ġlevel": 1593,
      "aces": 1594,
      "Ġproduct": 1595,
      "app": 1596,
      "ways": 1597,
      "ication": 1598,
      "ĠCom": 1599,
      "tt": 1600,
      "Ġwrite": 1601,
      "Ġbas": 1602,
      "Ġlook": 1603,
      "ĠAn": 1604,
      "ĠWe": 1605,
      "Ġtypes": 1606,
      "Ġsit": 1607,
      "orld": 1608,
      "oup": 1609,
      "key": 1610,
      "Ġshort": 1611,
      "Ġvalues": 1612,
      "Ġsignificant": 1613,
      "vices": 1614,
      "ins": 1615,
      "Ġask": 1616,
      "Ġimage": 1617,
      "Ġimplement": 1618,
      "text": 1619,
      "Ġdecis": 1620,
      "Ġtemper": 1621,
      "ray": 1622,
      "way": 1623,
      "reate": 1624,
      "Ġplease": 1625,
      "Ġfur": 1626,
      "Ġlow": 1627,
      "Ġstand": 1628,
      "ĠCon": 1629,
      "epend": 1630,
      "Ġoptim": 1631,
      "Ġpoints": 1632,
      "\":": 1633,
      "('": 1634,
      "Th": 1635,
      "Ġthough": 1636,
      "ilities": 1637,
      "Ġonline": 1638,
      "Ġunique": 1639,
      "Ġformat": 1640,
      "Ġavailable": 1641,
      "'ll": 1642,
      "__": 1643,
      "Ġach": 1644,
      "Ġbi": 1645,
      "ury": 1646,
      "verse": 1647,
      "Ġuses": 1648,
      "Ġsearch": 1649,
      "Ġcreating": 1650,
      "Ġsimilar": 1651,
      "Ġamount": 1652,
      "Ġallows": 1653,
      "Ġmessage": 1654,
      "ĠâĢľ": 1655,
      "##": 1656,
      "ral": 1657,
      "alk": 1658,
      "Ġmov": 1659,
      "Ġintern": 1660,
      "Ġtechnology": 1661,
      "Ġsaf": 1662,
      "ditionally": 1663,
      "List": 1664,
      "back": 1665,
      "lish": 1666,
      "ven": 1667,
      "Ġ&": 1668,
      "Ġz": 1669,
      "Ġarea": 1670,
      "Ġstat": 1671,
      "play": 1672,
      "Ġweight": 1673,
      "Ġlik": 1674,
      "Ġgoals": 1675,
      "Ġmanag": 1676,
      "Ġserver": 1677,
      "tle": 1678,
      "yr": 1679,
      "Ġer": 1680,
      "ĠTh": 1681,
      "ĠCl": 1682,
      "ava": 1683,
      "Ġyears": 1684,
      "meric": 1685,
      "Ġsomething": 1686,
      "Ġmachine": 1687,
      "just": 1688,
      "ling": 1689,
      "hemat": 1690,
      "atch": 1691,
      "Ġcost": 1692,
      "Ġmass": 1693,
      "ems": 1694,
      "Ġarg": 1695,
      "ĠSp": 1696,
      "Ġenc": 1697,
      "ĠUse": 1698,
      "ux": 1699,
      "Ġx": 1700,
      "ery": 1701,
      "Ġfriend": 1702,
      "Ġdra": 1703,
      "Ġdoc": 1704,
      "Ġthink": 1705,
      "ĠNe": 1706,
      "Ġbecome": 1707,
      "Ġess": 1708,
      "Ġhy": 1709,
      "ified": 1710,
      "Ġusers": 1711,
      "umn": 1712,
      "Ġvir": 1713,
      "Ġsuper": 1714,
      "Ġleg": 1715,
      "ĠEu": 1716,
      "Ġways": 1717,
      "Ġengine": 1718,
      "Ġstructure": 1719,
      "PI": 1720,
      "ches": 1721,
      "ding": 1722,
      "Ġbody": 1723,
      "Ġrese": 1724,
      "ember": 1725,
      "ustom": 1726,
      "Ġpref": 1727,
      "Ġdistribut": 1728,
      "Ġcorrect": 1729,
      "reen": 1730,
      "Ġant": 1731,
      "Ġdue": 1732,
      "ash": 1733,
      "ask": 1734,
      "import": 1735,
      "Ġconcept": 1736,
      "ĠAmeric": 1737,
      "ĠCan": 1738,
      "âĢ¢": 1739,
      "Ġnumbers": 1740,
      "Ġchanges": 1741,
      "Ġterms": 1742,
      "py": 1743,
      "Ġtable": 1744,
      "ouble": 1745,
      "Ġpast": 1746,
      "Ġmil": 1747,
      "Ġmust": 1748,
      "str": 1749,
      "Ġnote": 1750,
      "Ġworks": 1751,
      "Ġrequest": 1752,
      "Ġinstall": 1753,
      "Ġtraining": 1754,
      "Ġadditional": 1755,
      "Yes": 1756,
      "dict": 1757,
      "hor": 1758,
      "ĠZ": 1759,
      "Ġability": 1760,
      "Ġdog": 1761,
      "Ġteam": 1762,
      "Ġunderstanding": 1763,
      "Ġproblem": 1764,
      "Ġreduce": 1765,
      "Ġmeaning": 1766,
      "Ġcells": 1767,
      "ci": 1768,
      "craft": 1769,
      "ma": 1770,
      "ug": 1771,
      "Ġ7": 1772,
      "Ġes": 1773,
      "Ġ**": 1774,
      "Ġcertain": 1775,
      "Ġlooking": 1776,
      "ides": 1777,
      "Ġstring": 1778,
      "Ġresults": 1779,
      "Ġbenef": 1780,
      "\".": 1781,
      "ken": 1782,
      "ital": 1783,
      "Ġbal": 1784,
      "vern": 1785,
      "rain": 1786,
      "Ġchange": 1787,
      "Ġunt": 1788,
      "Ġevent": 1789,
      "Ġexperien": 1790,
      "Ġprovides": 1791,
      "Ġinvolves": 1792,
      "Ġprotect": 1793,
      "\")": 1794,
      "We": 1795,
      "io": 1796,
      "par": 1797,
      "ze": 1798,
      "Ġ/": 1799,
      "Ġanother": 1800,
      "Ġwar": 1801,
      "Ġdid": 1802,
      "ĠIs": 1803,
      "Ġalways": 1804,
      "Ġwhy": 1805,
      "ables": 1806,
      "Ġstrate": 1807,
      "Ġinflu": 1808,
      "Ġoptions": 1809,
      "\">": 1810,
      "crib": 1811,
      "por": 1812,
      "uc": 1813,
      "Ġest": 1814,
      "Ġtar": 1815,
      "atform": 1816,
      "Ġcour": 1817,
      "ingle": 1818,
      "usion": 1819,
      "Ġwithin": 1820,
      "Ġprevent": 1821,
      "Ġcolor": 1822,
      "Ġterm": 1823,
      "ination": 1824,
      "Ġland": 1825,
      "Ġvariety": 1826,
      "Ġinteract": 1827,
      "For": 1828,
      "xim": 1829,
      "ren": 1830,
      "Ġsource": 1831,
      "imens": 1832,
      "Ġmemory": 1833,
      "iety": 1834,
      "ĠÐ": 1835,
      "Ġcustom": 1836,
      "Ġpublic": 1837,
      "Ġthree": 1838,
      "ants": 1839,
      "utton": 1840,
      "Ġchild": 1841,
      "Ġmeans": 1842,
      "Ġsomeone": 1843,
      "Ġrelations": 1844,
      "ditions": 1845,
      "Ġelse": 1846,
      "12": 1847,
      "de": 1848,
      "ium": 1849,
      "Ġtre": 1850,
      "Ġsay": 1851,
      "Ġbro": 1852,
      "ender": 1853,
      "Ġorder": 1854,
      "Ġsecurity": 1855,
      "ĠGo": 1856,
      "ogn": 1857,
      "Ġstrong": 1858,
      "Ġinvest": 1859,
      "Ġplayers": 1860,
      "Ġidea": 1861,
      "Ġaffect": 1862,
      "def": 1863,
      "ior": 1864,
      "Ġcase": 1865,
      "Ġbus": 1866,
      "aries": 1867,
      "ĠInt": 1868,
      "lying": 1869,
      "Ġquick": 1870,
      "ooks": 1871,
      "Ġmaintain": 1872,
      "Ġalgorithms": 1873,
      "Ġturn": 1874,
      "ats": 1875,
      "ories": 1876,
      "Ġmind": 1877,
      "Ġbir": 1878,
      "Ġrele": 1879,
      "vert": 1880,
      "Ġplace": 1881,
      "ledge": 1882,
      "ularly": 1883,
      "Ġrepresent": 1884,
      "Ġtypically": 1885,
      "Ġclear": 1886,
      "Ġmultiple": 1887,
      "Ġhistory": 1888,
      "ires": 1889,
      "pre": 1890,
      "rint": 1891,
      "Ġside": 1892,
      "Ġge": 1893,
      "rodu": 1894,
      "Ġcomb": 1895,
      "Ġsuc": 1896,
      "Ġrob": 1897,
      "Ġmusic": 1898,
      "Ġwebsite": 1899,
      "Ġcall": 1900,
      "ances": 1901,
      "Ġhope": 1902,
      "Ġgiven": 1903,
      "Ġnecess": 1904,
      "Ġplatform": 1905,
      "ĠDe": 1906,
      "Ġtakes": 1907,
      "Ġversion": 1908,
      "Ġuntil": 1909,
      "cc": 1910,
      "vant": 1911,
      "Ġcop": 1912,
      "aster": 1913,
      "Ġcontext": 1914,
      "Ġobjects": 1915,
      "Ġdistance": 1916,
      "Ġpolit": 1917,
      "Ġdepending": 1918,
      "Ġapplications": 1919,
      "Ġfield": 1920,
      "Ġprofess": 1921,
      "Ex": 1922,
      "OS": 1923,
      "co": 1924,
      "Ġ//": 1925,
      "iting": 1926,
      "Ġpres": 1927,
      "Ġdr": 1928,
      "Ġmag": 1929,
      "Ġcontribut": 1930,
      "acy": 1931,
      "Ġscient": 1932,
      "Ġfeatures": 1933,
      "Ġspeed": 1934,
      "Ġaccur": 1935,
      "Ġloop": 1936,
      "IN": 1937,
      "ML": 1938,
      "dr": 1939,
      "dle": 1940,
      "inux": 1941,
      "ene": 1942,
      "atural": 1943,
      "Ġcir": 1944,
      "ĠĠĠĠĠ": 1945,
      "Ġyourself": 1946,
      "Ġworking": 1947,
      "Ġappe": 1948,
      "Ġavoid": 1949,
      "Ġapproach": 1950,
      "Ġchallenges": 1951,
      "Ġfurther": 1952,
      "iet": 1953,
      "oes": 1954,
      "uck": 1955,
      "Ġcity": 1956,
      "Ġpa": 1957,
      "Ġpress": 1958,
      "ental": 1959,
      "Ġhelps": 1960,
      "Ġdeep": 1961,
      "Ġadjust": 1962,
      "ĠAdditionally": 1963,
      "Ġpatterns": 1964,
      "Ġagainst": 1965,
      "Ġtimes": 1966,
      "Ġsince": 1967,
      "ctor": 1968,
      "rope": 1969,
      "Ġstyle": 1970,
      "Ġview": 1971,
      "Ġdatab": 1972,
      "Ġknowledge": 1973,
      "Ġhumans": 1974,
      "Ġautom": 1975,
      "Ġproblems": 1976,
      "://": 1977,
      "oot": 1978,
      "Ġwid": 1979,
      "Ġmo": 1980,
      "Ġhig": 1981,
      "ilt": 1982,
      "Ġexist": 1983,
      "Ġ12": 1984,
      "Ġinstead": 1985,
      "Ġrad": 1986,
      "Ġswit": 1987,
      "Ġachieve": 1988,
      "Ġlikely": 1989,
      "orks": 1990,
      "idence": 1991,
      "Ġuni": 1992,
      "Ġword": 1993,
      "ĠJava": 1994,
      "Ġobser": 1995,
      "load": 1996,
      "Ġconsum": 1997,
      "ological": 1998,
      "Ġmodels": 1999,
      "Ġdesigned": 2000,
      "Ġbelie": 2001,
      "Ġincrease": 2002,
      "ĠUnited": 2003,
      "Ġaccount": 2004,
      "Ġefficient": 2005,
      "Ġrelationship": 2006,
      "based": 2007,
      "pri": 2008,
      "orn": 2009,
      "Ġport": 2010,
      "Ġfut": 2011,
      "amet": 2012,
      "ption": 2013,
      "Ġmathemat": 2014,
      "====": 2015,
      "Ġlibrary": 2016,
      "board": 2017,
      "Qu": 2018,
      "script": 2019,
      "ule": 2020,
      "ond": 2021,
      "Ġsal": 2022,
      "Ġpie": 2023,
      "Ġever": 2024,
      "Ġnon": 2025,
      "izing": 2026,
      "Ġgovern": 2027,
      "Ġdifferences": 2028,
      "Ġblock": 2029,
      "aut": 2030,
      "ties": 2031,
      "Ġsym": 2032,
      "Ġpriv": 2033,
      "Ġdel": 2034,
      "Ġgl": 2035,
      "Ġey": 2036,
      "ulation": 2037,
      "Ġdetermine": 2038,
      "Ġtarget": 2039,
      "Over": 2040,
      "fort": 2041,
      "set": 2042,
      "ãģ": 2043,
      "Ġpur": 2044,
      "ason": 2045,
      "oms": 2046,
      "Ġear": 2047,
      "ift": 2048,
      "Ġcannot": 2049,
      "verage": 2050,
      "Ġadapt": 2051,
      "ĠWhen": 2052,
      "Ġincludes": 2053,
      "Ġspecial": 2054,
      "iques": 2055,
      "Ġphysical": 2056,
      "Ġ][": 2057,
      "erc": 2058,
      "ators": 2059,
      "Ġsound": 2060,
      "ĠIm": 2061,
      "ĠSh": 2062,
      "erence": 2063,
      "place": 2064,
      "ploy": 2065,
      "illion": 2066,
      "ormal": 2067,
      "iled": 2068,
      "Ġcompon": 2069,
      "Ġpredict": 2070,
      "ney": 2071,
      "Ġconsidered": 2072,
      "Ġissues": 2073,
      "ĠEurope": 2074,
      "Ad": 2075,
      "SQL": 2076,
      "the": 2077,
      "Ġsense": 2078,
      "Ġdark": 2079,
      "asing": 2080,
      "amed": 2081,
      "Ġneg": 2082,
      "iving": 2083,
      "Ġenough": 2084,
      "ache": 2085,
      "Ġrole": 2086,
      "Ġrunning": 2087,
      "Ġcharacters": 2088,
      "Ġtemperature": 2089,
      "gen": 2090,
      "Ġlast": 2091,
      "ĠMy": 2092,
      "ĠPl": 2093,
      "Ġmakes": 2094,
      "Ġ->": 2095,
      "Ġdescrib": 2096,
      "Ġprojects": 2097,
      "Ġconcern": 2098,
      "Ġsumm": 2099,
      "ĠWhile": 2100,
      "Ġbehav": 2101,
      "50": 2102,
      "ml": 2103,
      "Ġcaus": 2104,
      "Ġpo": 2105,
      "Ġtoget": 2106,
      "chan": 2107,
      "ute": 2108,
      "Ġcome": 2109,
      "Ġimm": 2110,
      "ength": 2111,
      "Ġpowerful": 2112,
      "Ġmarket": 2113,
      "Ġsitu": 2114,
      "Ġbusiness": 2115,
      "Ġsuccess": 2116,
      "Ġtogether": 2117,
      "rast": 2118,
      "vious": 2119,
      "Ð¾": 2120,
      "ĠY": 2121,
      "Ġtheory": 2122,
      "anced": 2123,
      "itor": 2124,
      "ites": 2125,
      "Ġwide": 2126,
      "Ġfre": 2127,
      "Ġgain": 2128,
      "Ġforce": 2129,
      "cho": 2130,
      "Ġconvers": 2131,
      "Ġconditions": 2132,
      "rap": 2133,
      "thing": 2134,
      "ĠCreate": 2135,
      "ĠEng": 2136,
      "Ġquality": 2137,
      "Ġanything": 2138,
      "Ġevents": 2139,
      "Ġmatter": 2140,
      "Ġdefin": 2141,
      "Ġmonth": 2142,
      "Ġposition": 2143,
      "Ġeconomic": 2144,
      "AI": 2145,
      "python": 2146,
      "tual": 2147,
      "ont": 2148,
      "Ġsort": 2149,
      "Ġfar": 2150,
      "Ġmer": 2151,
      "ently": 2152,
      "Ġhead": 2153,
      "Ġexec": 2154,
      "ĠHT": 2155,
      "ĠWorld": 2156,
      "Ġmodern": 2157,
      "Ġjob": 2158,
      "Ġdifference": 2159,
      "Ġsolar": 2160,
      "Ġtechniques": 2161,
      "Ġrisk": 2162,
      "Al": 2163,
      "An": 2164,
      "come": 2165,
      "time": 2166,
      "Ġ:": 2167,
      "oud": 2168,
      "Ġdri": 2169,
      "Ġbegin": 2170,
      "umber": 2171,
      "ĠSe": 2172,
      "Ġvide": 2173,
      "Ġwords": 2174,
      "ĠLinux": 2175,
      "ients": 2176,
      "Ġmedia": 2177,
      "ometry": 2178,
      "ditional": 2179,
      "Ġprompt": 2180,
      "23": 2181,
      "View": 2182,
      "my": 2183,
      "point": 2184,
      "oura": 2185,
      "Ġmot": 2186,
      "Ġgen": 2187,
      "Ġlit": 2188,
      "ample": 2189,
      "ĠSc": 2190,
      "ĠShe": 2191,
      "Ġvol": 2192,
      "Ġshape": 2193,
      "ffic": 2194,
      "Ġoffer": 2195,
      "Ġchoose": 2196,
      "Ġcultural": 2197,
      "ynam": 2198,
      "Ġoriginal": 2199,
      "Ġresearch": 2200,
      "))": 2201,
      "18": 2202,
      "ST": 2203,
      "aking": 2204,
      "joy": 2205,
      "tml": 2206,
      "Ġ.": 2207,
      "Ġaway": 2208,
      "lex": 2209,
      "ello": 2210,
      "ĠAnd": 2211,
      "Ġcomes": 2212,
      "quen": 2213,
      "Ġvary": 2214,
      "arent": 2215,
      "ired": 2216,
      "ression": 2217,
      "Ġcolumn": 2218,
      "Ġrecogn": 2219,
      "Ġproperty": 2220,
      "Ġcommunity": 2221,
      "Ġtask": 2222,
      "Ġchoice": 2223,
      "Ġlocation": 2224,
      "Ġstandard": 2225,
      "Ġdocument": 2226,
      "Ġbalance": 2227,
      "oh": 2228,
      "ww": 2229,
      "Ġ9": 2230,
      "head": 2231,
      "att": 2232,
      "Ġsong": 2233,
      "Ġsingle": 2234,
      "Ġcapt": 2235,
      "Ġdiv": 2236,
      "Ġlove": 2237,
      "Ġnatural": 2238,
      "Ġstate": 2239,
      "ĠAPI": 2240,
      "Ġexc": 2241,
      "Ġhaving": 2242,
      "Ġupd": 2243,
      "cond": 2244,
      "Ġoverall": 2245,
      "ube": 2246,
      "Ġmedical": 2247,
      "Ġplanet": 2248,
      "Ġfiles": 2249,
      "ttps": 2250,
      "bal": 2251,
      "button": 2252,
      "data": 2253,
      "ann": 2254,
      "itation": 2255,
      "Ġpresent": 2256,
      "Ġoc": 2257,
      "Ġdang": 2258,
      "arc": 2259,
      "Ġharm": 2260,
      "Ġlog": 2261,
      "ules": 2262,
      "andom": 2263,
      "Ġimages": 2264,
      "Ġleft": 2265,
      "Ġcompan": 2266,
      "Ġtravel": 2267,
      "Ġaddress": 2268,
      "Ġindust": 2269,
      "Ġlanguages": 2270,
      "Ġpolic": 2271,
      "ront": 2272,
      "Ġremain": 2273,
      "Ġbuilding": 2274,
      "Ġcountries": 2275,
      "Ġlaw": 2276,
      "Ġnecessary": 2277,
      "Ġpolitical": 2278,
      "Ġfuture": 2279,
      "down": 2280,
      "ying": 2281,
      "inally": 2282,
      "Ġwindow": 2283,
      "Ġfast": 2284,
      "Ġearth": 2285,
      "iment": 2286,
      "olution": 2287,
      "Ġshare": 2288,
      "ude": 2289,
      "ĠDis": 2290,
      "Ġdetect": 2291,
      "Ġsociety": 2292,
      "Ġeffects": 2293,
      "...": 2294,
      "Ġbreak": 2295,
      "Ġessential": 2296,
      "Hello": 2297,
      "be": 2298,
      "ane": 2299,
      "ises": 2300,
      "itial": 2301,
      "Ġdouble": 2302,
      "ids": 2303,
      "utes": 2304,
      "Ġrout": 2305,
      "Ġabove": 2306,
      "Ġkind": 2307,
      "Ġneeded": 2308,
      "Ġtrack": 2309,
      "Ġexplore": 2310,
      "ibility": 2311,
      "ysis": 2312,
      "Ġtransform": 2313,
      "Ġprovided": 2314,
      "Ġbasic": 2315,
      "ĠHTML": 2316,
      "au": 2317,
      "atic": 2318,
      "Ġsun": 2319,
      "icate": 2320,
      "Ġfore": 2321,
      "Ġframe": 2322,
      "Ġdone": 2323,
      "Ġdays": 2324,
      "Ġnamed": 2325,
      "ume": 2326,
      "Ġnext": 2327,
      "izes": 2328,
      "Ġservices": 2329,
      "Ġsaid": 2330,
      "ĠAssistant": 2331,
      "Ġrequired": 2332,
      "Ġideas": 2333,
      "Ġsurface": 2334,
      "Ġclean": 2335,
      "Ġgrowth": 2336,
      "Ġcourse": 2337,
      ",\"": 2338,
      "ON": 2339,
      "So": 2340,
      "cient": 2341,
      "ik": 2342,
      "ross": 2343,
      "Ġmor": 2344,
      "ush": 2345,
      "Ġhome": 2346,
      "Ġgre": 2347,
      "imate": 2348,
      "Ġconsist": 2349,
      "oph": 2350,
      "erences": 2351,
      "Ġrather": 2352,
      "Ġ==": 2353,
      "Ġfunctions": 2354,
      "Ġjo": 2355,
      "Ġdisplay": 2356,
      "Ġregard": 2357,
      "Ġtrying": 2358,
      "ĠAdd": 2359,
      "ÂłÂłÂłÂł": 2360,
      "Ġhigher": 2361,
      "Ġbehavior": 2362,
      "Ġoccur": 2363,
      "'ve": 2364,
      "ER": 2365,
      "Please": 2366,
      "land": 2367,
      "pass": 2368,
      "Ġcard": 2369,
      "asp": 2370,
      "Ġinteg": 2371,
      "Ġgenerate": 2372,
      "Ġleav": 2373,
      "Ġmechan": 2374,
      "ĠBy": 2375,
      "ĠLet": 2376,
      "ructure": 2377,
      "ĠStates": 2378,
      "akes": 2379,
      "Ġproduce": 2380,
      "Ġgroup": 2381,
      "Ġfamily": 2382,
      "Ġquickly": 2383,
      "Overall": 2384,
      "')": 2385,
      "cs": 2386,
      "che": 2387,
      "col": 2388,
      "over": 2389,
      "Ã©": 2390,
      "Ġsqu": 2391,
      "uments": 2392,
      "Ġgenerally": 2393,
      "rie": 2394,
      "Ġ18": 2395,
      "aste": 2396,
      "Ġscience": 2397,
      "ĠInst": 2398,
      "Ġdepends": 2399,
      "cially": 2400,
      "Ġload": 2401,
      "Ġelements": 2402,
      "Ġmaterials": 2403,
      "Ġprofessional": 2404,
      "11": 2405,
      "ox": 2406,
      "ply": 2407,
      "tim": 2408,
      "itude": 2409,
      "Ġpost": 2410,
      "Ġold": 2411,
      "osed": 2412,
      "Ġglo": 2413,
      "ula": 2414,
      "Ġsec": 2415,
      "oci": 2416,
      "ĠBut": 2417,
      "Ġrespect": 2418,
      "ogle": 2419,
      "ips": 2420,
      "Ġtaking": 2421,
      "Ġsets": 2422,
      "Ġvalid": 2423,
      "Ġphot": 2424,
      "Ġsubject": 2425,
      "Ġpackage": 2426,
      "priate": 2427,
      "But": 2428,
      "TP": 2429,
      "bol": 2430,
      "egr": 2431,
      "ret": 2432,
      "Ġdimens": 2433,
      "aring": 2434,
      "Ġlength": 2435,
      "Ġrest": 2436,
      "empt": 2437,
      "add": 2438,
      "Ġmeet": 2439,
      "ĠDo": 2440,
      "aches": 2441,
      "ĠOne": 2442,
      "Ġevidence": 2443,
      "Ġvariable": 2444,
      "Ġbuilt": 2445,
      "**:": 2446,
      "pportun": 2447,
      "iency": 2448,
      "Ġ+=": 2449,
      "Ġgrav": 2450,
      "Ġanaly": 2451,
      "ĠAmerican": 2452,
      "Ġexperiences": 2453,
      "Ġrelevant": 2454,
      "Is": 2455,
      "That": 2456,
      "body": 2457,
      "gress": 2458,
      "iel": 2459,
      "path": 2460,
      "we": 2461,
      "erous": 2462,
      "Ġdam": 2463,
      "Ġassist": 2464,
      "amer": 2465,
      "Ġstay": 2466,
      "ĠSystem": 2467,
      "Ġrate": 2468,
      "Ġenjoy": 2469,
      "Ġuseful": 2470,
      "Ġscore": 2471,
      "Ġprevious": 2472,
      "Ġprim": 2473,
      "Ġservice": 2474,
      "Ġindepend": 2475,
      "ording": 2476,
      "Ġrequires": 2477,
      "ready": 2478,
      "Ġmethods": 2479,
      "note": 2480,
      "Ġminim": 2481,
      "Ġstreng": 2482,
      "Ġdecisions": 2483,
      "Ġvirtual": 2484,
      "bs": 2485,
      "ged": 2486,
      "iod": 2487,
      "Ġsy": 2488,
      "Ġcrit": 2489,
      "Ġpython": 2490,
      "Ġbar": 2491,
      "istic": 2492,
      "Ġnut": 2493,
      "ulate": 2494,
      "abor": 2495,
      "Ġbutton": 2496,
      "Ġprocesses": 2497,
      "Ġbecame": 2498,
      "Ġhighly": 2499,
      "Ġsmaller": 2500,
      "Ġadvant": 2501,
      "Ġassoci": 2502,
      "Ġminutes": 2503,
      "Ġbelieve": 2504,
      "Ġlocal": 2505,
      "Ġeasier": 2506,
      "Com": 2507,
      "],": 2508,
      "Ġu": 2509,
      "atively": 2510,
      "Ġopportun": 2511,
      "Ġhour": 2512,
      "Ġlower": 2513,
      "Ġreact": 2514,
      "Ġnight": 2515,
      "utions": 2516,
      "ĠSet": 2517,
      "rior": 2518,
      "ĠBe": 2519,
      "aging": 2520,
      "Ġcompet": 2521,
      "Ġcreated": 2522,
      "aps": 2523,
      "Ġsimply": 2524,
      "ologies": 2525,
      "Ġincor": 2526,
      "cription": 2527,
      "Ġgraph": 2528,
      "Ġproperties": 2529,
      "Ġcross": 2530,
      "Ġparamet": 2531,
      "Ġwriting": 2532,
      "Ġidentify": 2533,
      "Ġinternet": 2534,
      "GP": 2535,
      "One": 2536,
      "Script": 2537,
      "ges": 2538,
      "side": 2539,
      "Ġaction": 2540,
      "ening": 2541,
      "Ġflow": 2542,
      "Ġfair": 2543,
      "Ġdig": 2544,
      "ulations": 2545,
      "Ġareas": 2546,
      "ams": 2547,
      "ending": 2548,
      "Ġexerc": 2549,
      "Ġdoing": 2550,
      "ograph": 2551,
      "Ġfeed": 2552,
      "Ġacross": 2553,
      "Ġgetting": 2554,
      "Ġattempt": 2555,
      "Ġstarted": 2556,
      "Ġtrained": 2557,
      "Ġcountry": 2558,
      "Ġconstru": 2559,
      "Ġpositive": 2560,
      "Ġcontinue": 2561,
      "Ġpractice": 2562,
      "Ġmeasure": 2563,
      "Ġdistribution": 2564,
      "Ġuniverse": 2565,
      "Ġcompanies": 2566,
      "Int": 2567,
      "Write": 2568,
      "list": 2569,
      "sel": 2570,
      "Ġid": 2571,
      "Ġver": 2572,
      "Ġtreat": 2573,
      "Ġsat": 2574,
      "Ġsent": 2575,
      "Ġfight": 2576,
      "Ġfull": 2577,
      "Ġbat": 2578,
      "Ġdest": 2579,
      "Ġet": 2580,
      "Ġlot": 2581,
      "Ġrandom": 2582,
      "ĠBrit": 2583,
      "Ġwhether": 2584,
      "These": 2585,
      "Ġtraditional": 2586,
      "Ġtrue": 2587,
      "Ġtax": 2588,
      "Ġparts": 2589,
      "Ġpath": 2590,
      "Ġappropriate": 2591,
      "----------------": 2592,
      "Ġelectric": 2593,
      "Thank": 2594,
      "Ġespe": 2595,
      "Ġdatabase": 2596,
      "Ġgovernment": 2597,
      "Ð°": 2598,
      "Ġsens": 2599,
      "Ġput": 2600,
      "Ġinj": 2601,
      "Ġbig": 2602,
      "oses": 2603,
      "ilos": 2604,
      "Ġalong": 2605,
      "Ġalready": 2606,
      "plain": 2607,
      "Ġshap": 2608,
      "ĠEm": 2609,
      "Ġscreen": 2610,
      "Ġoffers": 2611,
      "Ġattention": 2612,
      "Ġproviding": 2613,
      "Ġstruct": 2614,
      "Ġsurv": 2615,
      "Ġblood": 2616,
      "Ġoperating": 2617,
      "Ġfriends": 2618,
      "Ġbenefits": 2619,
      "Ġestab": 2620,
      "Ġgeometry": 2621,
      "Ġpaper": 2622,
      "Ġespecially": 2623,
      "And": 2624,
      "eep": 2625,
      "ype": 2626,
      "Ġaverage": 2627,
      "ouse": 2628,
      "Ġancient": 2629,
      "ese": 2630,
      "let": 2631,
      "Ġreally": 2632,
      "rop": 2633,
      "etic": 2634,
      "elling": 2635,
      "Ġusually": 2636,
      "Ġarch": 2637,
      "ried": 2638,
      "orts": 2639,
      "ĠPlease": 2640,
      "avor": 2641,
      "Ġprin": 2642,
      "Ġactions": 2643,
      "Ġdetails": 2644,
      "Ġexpect": 2645,
      "Ġeffective": 2646,
      "wards": 2647,
      "Ġblue": 2648,
      "force": 2649,
      "Ġsafe": 2650,
      "ohn": 2651,
      "iot": 2652,
      "ler": 2653,
      "Ðµ": 2654,
      "itions": 2655,
      "Ġfit": 2656,
      "Ġbot": 2657,
      "Ġdynam": 2658,
      "Ġegg": 2659,
      "Ġlic": 2660,
      "Ġrece": 2661,
      "Ġnu": 2662,
      "aming": 2663,
      "und": 2664,
      "ĠMan": 2665,
      "ird": 2666,
      "ĠAt": 2667,
      "Ġexact": 2668,
      "Ġaltern": 2669,
      "Ġvel": 2670,
      "ĠCal": 2671,
      "cket": 2672,
      "Ġabs": 2673,
      "ĠGP": 2674,
      "rypt": 2675,
      "ountain": 2676,
      "Ġprocessing": 2677,
      "Ġsolve": 2678,
      "Ġsolution": 2679,
      "Ġmatch": 2680,
      "Ġleading": 2681,
      "Ġfields": 2682,
      "Ġconcepts": 2683,
      "ĠGoogle": 2684,
      "Ġprivate": 2685,
      "Ġsummary": 2686,
      "15": 2687,
      "fect": 2688,
      "oad": 2689,
      "ping": 2690,
      "ros": 2691,
      "ĠQu": 2692,
      "Ġaud": 2693,
      "Ġslow": 2694,
      "icles": 2695,
      "Ġflex": 2696,
      "Ġbooks": 2697,
      "use": 2698,
      "ĠTr": 2699,
      "Ġstock": 2700,
      "irm": 2701,
      "Ġdeb": 2702,
      "ĠWith": 2703,
      "ĠRes": 2704,
      "ffee": 2705,
      "0000": 2706,
      "oney": 2707,
      "Ġplayer": 2708,
      "Ġexplan": 2709,
      "Ġextens": 2710,
      "Ġeasy": 2711,
      "Ġpassword": 2712,
      "Ġanimals": 2713,
      "yright": 2714,
      "ek": 2715,
      "gre": 2716,
      "of": 2717,
      "print": 2718,
      "ÑĤ": 2719,
      "Ġang": 2720,
      "Ġpow": 2721,
      "Ġful": 2722,
      "Ġmiss": 2723,
      "osition": 2724,
      "omen": 2725,
      "Ġeth": 2726,
      "Ġnormal": 2727,
      "Ġintrodu": 2728,
      "ĠMake": 2729,
      "Ġitems": 2730,
      "Ġprogress": 2731,
      "fully": 2732,
      "ĠSo": 2733,
      "ĠChat": 2734,
      "Ġsecond": 2735,
      "Ġgoing": 2736,
      "ĠUS": 2737,
      "Ġproduction": 2738,
      "Ġconstant": 2739,
      "Ġcentury": 2740,
      "Ġindividuals": 2741,
      "Ġfinan": 2742,
      "Ġdecision": 2743,
      "By": 2744,
      "az": 2745,
      "den": 2746,
      "fer": 2747,
      "lict": 2748,
      "px": 2749,
      "rong": 2750,
      "tu": 2751,
      "wit": 2752,
      "hent": 2753,
      "Ġsl": 2754,
      "Ġsn": 2755,
      "orth": 2756,
      "Ġpers": 2757,
      "Ġpurpose": 2758,
      "Ġopp": 2759,
      "Ġmid": 2760,
      "Ġtoday": 2761,
      "Ġbook": 2762,
      "Ġdate": 2763,
      "leep": 2764,
      "Ġbecom": 2765,
      "Ġintegr": 2766,
      "Ġnever": 2767,
      "Ġmaj": 2768,
      "Ġkil": 2769,
      "ĠGerm": 2770,
      "Ġ200": 2771,
      "Ġspread": 2772,
      "ground": 2773,
      "Ġseries": 2774,
      "Ġactive": 2775,
      "Ġactiv": 2776,
      "Ġrelated": 2777,
      "Ġdeveloped": 2778,
      "Ġoption": 2779,
      "Ġrequirements": 2780,
      "Ġculture": 2781,
      "Ġhardware": 2782,
      "Ġefficiency": 2783,
      "Ġissue": 2784,
      "Ġwritten": 2785,
      "Ġstrategy": 2786,
      "Ġscientific": 2787,
      "ĠJavaScript": 2788,
      "Ġpiece": 2789,
      "?\"": 2790,
      "AN": 2791,
      "Ch": 2792,
      "care": 2793,
      "hold": 2794,
      "html": 2795,
      "son": 2796,
      "source": 2797,
      "ĠX": 2798,
      "Ġage": 2799,
      "ished": 2800,
      "itect": 2801,
      "Ġwood": 2802,
      "Ġhost": 2803,
      "Ġreview": 2804,
      "ival": 2805,
      "ived": 2806,
      "Ġsepar": 2807,
      "ĠWar": 2808,
      "Ġ16": 2809,
      "Ġ=>": 2810,
      "Ġprec": 2811,
      "Ġcolors": 2812,
      "ibiot": 2813,
      "Ġapplication": 2814,
      "Ġlegal": 2815,
      "Ġappear": 2816,
      "Ġconcerns": 2817,
      "points": 2818,
      "Ġdimensions": 2819,
      "Ġstrength": 2820,
      "ait": 2821,
      "by": 2822,
      "cent": 2823,
      "cies": 2824,
      "ius": 2825,
      "sy": 2826,
      "sing": 2827,
      "Ġaim": 2828,
      "Ġtun": 2829,
      "Ġcast": 2830,
      "ison": 2831,
      "Ġprior": 2832,
      "Ġtot": 2833,
      "osis": 2834,
      "roid": 2835,
      "Ġones": 2836,
      "Ġonce": 2837,
      "Ġexcept": 2838,
      "Ġimag": 2839,
      "ocol": 2840,
      "ĠRuss": 2841,
      "Ġquant": 2842,
      "Ġperiod": 2843,
      "Ġphilos": 2844,
      "Ġthroughout": 2845,
      "Ġtransl": 2846,
      "Ġflu": 2847,
      "Ġguid": 2848,
      "Ġconfig": 2849,
      "Ġdirectory": 2850,
      "Ġeduc": 2851,
      "Why": 2852,
      "Ġstudents": 2853,
      "Ġanalysis": 2854,
      "Ġinfluence": 2855,
      "selves": 2856,
      "Ġarchitect": 2857,
      "Ġfinancial": 2858,
      "Ġmajor": 2859,
      "AR": 2860,
      "bon": 2861,
      "div": 2862,
      "man": 2863,
      "sum": 2864,
      "ued": 2865,
      "ugin": 2866,
      "Ġ?": 2867,
      "Ġparent": 2868,
      "Ġfail": 2869,
      "Ġfaster": 2870,
      "Ġmit": 2871,
      "Ġmillion": 2872,
      "Ġbase": 2873,
      "Ġdom": 2874,
      "Ġgames": 2875,
      "idity": 2876,
      "ification": 2877,
      "Ġwhite": 2878,
      "abilities": 2879,
      "Ġplant": 2880,
      "ĠEn": 2881,
      "ĠGraph": 2882,
      "ĠOr": 2883,
      "avig": 2884,
      "Ġemail": 2885,
      "Ġinterpre": 2886,
      "Ġdoesn": 2887,
      "Ġreturns": 2888,
      "Ġlarger": 2889,
      "Ġhandle": 2890,
      "Ġdirectly": 2891,
      "Ġinteresting": 2892,
      "Ġcalculate": 2893,
      "Ġcommonly": 2894,
      "Ġchallenging": 2895,
      "Ġmanagement": 2896,
      "Ġswitches": 2897,
      "Ġfeedback": 2898,
      "Ġtotal": 2899,
      "When": 2900,
      "do": 2901,
      "ipp": 2902,
      "min": 2903,
      "Ġtal": 2904,
      "inary": 2905,
      "rem": 2906,
      "ision": 2907,
      "ised": 2908,
      "alu": 2909,
      "Ġfac": 2910,
      "Ġinitial": 2911,
      "osing": 2912,
      "Ġyoung": 2913,
      "ended": 2914,
      "Ġconse": 2915,
      "ĠChe": 2916,
      "Ġsuit": 2917,
      "Ġneural": 2918,
      "Ġleast": 2919,
      "Ġmaxim": 2920,
      "duct": 2921,
      "Ġgoal": 2922,
      "ĠOn": 2923,
      "berry": 2924,
      "Ġspecies": 2925,
      "();": 2926,
      "Ġexpress": 2927,
      "Ġrefer": 2928,
      "Ġlonger": 2929,
      "Ġlimit": 2930,
      "Ġthought": 2931,
      "Ġerror": 2932,
      "Ġcopyright": 2933,
      "Ġwidely": 2934,
      "Ġdamage": 2935,
      "Ġstructures": 2936,
      "'d": 2937,
      ".,": 2938,
      "].": 2939,
      "inking": 2940,
      "Ġcases": 2941,
      "Ġcache": 2942,
      "anks": 2943,
      "icial": 2944,
      "Ġfig": 2945,
      "Ġfish": 2946,
      "Ġop": 2947,
      "Ġmut": 2948,
      "leg": 2949,
      "Ġloss": 2950,
      "emember": 2951,
      "ĠĠĠĠĠĠĠĠĠĠĠĠĠĠĠ": 2952,
      "quality": 2953,
      "Ġclose": 2954,
      "Ġperfect": 2955,
      "Ġdise": 2956,
      "Ġcoll": 2957,
      "Ġamong": 2958,
      "Ġsetting": 2959,
      "Ġregular": 2960,
      "Ġcool": 2961,
      "Ġkeyboard": 2962,
      "Ġauthor": 2963,
      "Ġauthent": 2964,
      "Ġfix": 2965,
      "Ġprinting": 2966,
      "Ġinside": 2967,
      "Ġnetworks": 2968,
      "Ġhappy": 2969,
      "ĠNew": 2970,
      "Ġstrateg": 2971,
      "Ġnegative": 2972,
      "ĠEnglish": 2973,
      "quences": 2974,
      "13": 2975,
      ":**": 2976,
      "AT": 2977,
      "Con": 2978,
      "pow": 2979,
      "size": 2980,
      "Â°": 2981,
      "ÑĢ": 2982,
      "Ġ%": 2983,
      "Ġsources": 2984,
      "Ġcy": 2985,
      "Ġcat": 2986,
      "itary": 2987,
      "Ġwon": 2988,
      "Ġfall": 2989,
      "Ġmar": 2990,
      "Ġbit": 2991,
      "arr": 2992,
      "Ġthread": 2993,
      "urance": 2994,
      "ĠInd": 2995,
      "Ġstop": 2996,
      "Ġcondition": 2997,
      "ection": 2998,
      "Ġdecl": 2999,
      "Ġnear": 3000,
      "Ġplugin": 3001,
      "Ġ13": 3002,
      "Ġcredit": 3003,
      "Ġmode": 3004,
      "Ġadding": 3005,
      "Ġprice": 3006,
      "Ġ30": 3007,
      "overed": 3008,
      "Ġinvent": 3009,
      "iction": 3010,
      "Ġemot": 3011,
      "Ġemploy": 3012,
      "Ġattack": 3013,
      "Ġsubst": 3014,
      "nother": 3015,
      "Ġcomplexity": 3016,
      "Ġeveryone": 3017,
      "Ġpractices": 3018,
      "Ġaircraft": 3019,
      "Ġantibiot": 3020,
      "ĠMySQL": 3021,
      "ourage": 3022,
      "Ġincorpor": 3023,
      "Ġperspect": 3024,
      "AS": 3025,
      "No": 3026,
      "ailed": 3027,
      "from": 3028,
      "Ġ>": 3029,
      "Ġast": 3030,
      "input": 3031,
      "ativity": 3032,
      "oring": 3033,
      "orry": 3034,
      "Ġpsy": 3035,
      "Ġinn": 3036,
      "lection": 3037,
      "arter": 3038,
      "Ġhol": 3039,
      "Ġlater": 3040,
      "Ġlines": 3041,
      "Ġnature": 3042,
      "Ġcomfort": 3043,
      "ored": 3044,
      "ĠPh": 3045,
      "izations": 3046,
      "clusion": 3047,
      "Ġmodify": 3048,
      "Ġexperiment": 3049,
      "Ġactivity": 3050,
      "Ġproperly": 3051,
      "Ġdiscuss": 3052,
      "Ġvisual": 3053,
      "Ġblack": 3054,
      "Ġconnection": 3055,
      "Ġhappen": 3056,
      "Ġcomponents": 3057,
      "Ġassociated": 3058,
      "Ġnucle": 3059,
      "!\"": 3060,
      "14": 3061,
      "22": 3062,
      "bing": 3063,
      "ltim": 3064,
      "mon": 3065,
      "sk": 3066,
      "atically": 3067,
      "Ġsend": 3068,
      "Ġpay": 3069,
      "icle": 3070,
      "Ġment": 3071,
      "Ġder": 3072,
      "arily": 3073,
      "Ġhot": 3074,
      "Ġred": 3075,
      "Ġaspect": 3076,
      "une": 3077,
      "hers": 3078,
      "abel": 3079,
      "Ġrules": 3080,
      "term": 3081,
      "Ġselect": 3082,
      "ĠFl": 3083,
      "cles": 3084,
      "arian": 3085,
      "Ġindex": 3086,
      "new": 3087,
      "Ġrain": 3088,
      "Ġcheese": 3089,
      "Ġattribut": 3090,
      "Ġcoffee": 3091,
      "Ġstarting": 3092,
      "However": 3093,
      "Ġpotentially": 3094,
      "Ġcenter": 3095,
      "Ġmeasures": 3096,
      "Ġexecut": 3097,
      "password": 3098,
      "\";": 3099,
      "16": 3100,
      "32": 3101,
      "aim": 3102,
      "bit": 3103,
      "event": 3104,
      "ging": 3105,
      "ration": 3106,
      "ters": 3107,
      "tings": 3108,
      "ðŁ": 3109,
      "Ġaware": 3110,
      "Ġtree": 3111,
      "item": 3112,
      "Ġpen": 3113,
      "Ġbrow": 3114,
      "Ġdry": 3115,
      "iling": 3116,
      "Ġheat": 3117,
      "adow": 3118,
      "ĠSun": 3119,
      "ĠSQL": 3120,
      "Ġ15": 3121,
      "Ġ100": 3122,
      "ached": 3123,
      "astic": 3124,
      "ĠOnce": 3125,
      "Ġjour": 3126,
      "Ġthemselves": 3127,
      "const": 3128,
      "ĠJohn": 3129,
      "Ġserious": 3130,
      "Ġemer": 3131,
      "oved": 3132,
      "Ġadvice": 3133,
      "Ġinvolved": 3134,
      "Ġeasily": 3135,
      "Ġcontains": 3136,
      "Ġrelationships": 3137,
      "Ġdefinition": 3138,
      "ield": 3139,
      "Ġhours": 3140,
      "::": 3141,
      "fact": 3142,
      "ss": 3143,
      "uz": 3144,
      "work": 3145,
      "Ġcamer": 3146,
      "oups": 3147,
      "aling": 3148,
      "ications": 3149,
      "Ġmoney": 3150,
      "Ġbring": 3151,
      "Ġthreat": 3152,
      "Ġgas": 3153,
      "Ġreason": 3154,
      "Ġreplace": 3155,
      "ili": 3156,
      "olf": 3157,
      "uto": 3158,
      "ĠSer": 3159,
      "respon": 3160,
      "ĠGu": 3161,
      "Ġcreates": 3162,
      "Ġoutside": 3163,
      "Ġevalu": 3164,
      "ything": 3165,
      "Ġsimpl": 3166,
      "Ġprograms": 3167,
      "Ġreps": 3168,
      "Ġrefers": 3169,
      "Ġreflect": 3170,
      "Ġmonitor": 3171,
      "Ġinsp": 3172,
      "Ġconflict": 3173,
      "Ġdiag": 3174,
      "Ġparticularly": 3175,
      "While": 3176,
      "Ġresponses": 3177,
      "Ġlevels": 3178,
      "Ġproducts": 3179,
      "Ġcirc": 3180,
      "Ġdangerous": 3181,
      "aspberry": 3182,
      "Ġetc": 3183,
      "ltimately": 3184,
      "++": 3185,
      "60": 3186,
      "[\"": 3187,
      "['": 3188,
      "bra": 3189,
      "cal": 3190,
      "cel": 3191,
      "go": 3192,
      "po": 3193,
      "pare": 3194,
      "ero": 3195,
      "eria": 3196,
      "Ġfru": 3197,
      "Ġtowards": 3198,
      "osure": 3199,
      "ister": 3200,
      "Ġlat": 3201,
      "Ġforms": 3202,
      "olve": 3203,
      "ured": 3204,
      "cks": 3205,
      "ĠPi": 3206,
      "Ġchick": 3207,
      "Ġ11": 3208,
      "ustain": 3209,
      "Ġclick": 3210,
      "Ġfund": 3211,
      "Ġtrust": 3212,
      "Ġapply": 3213,
      "Ġinterface": 3214,
      "object": 3215,
      "Ġsave": 3216,
      "Ġadvanced": 3217,
      "Ġentire": 3218,
      "Ġincreasing": 3219,
      "like": 3220,
      "Ġhealthcare": 3221,
      "Ġparticular": 3222,
      "Ġboard": 3223,
      "Ġcapable": 3224,
      "Ġidentity": 3225,
      "Ġhyper": 3226,
      "Ġpreferences": 3227,
      "Ġchildren": 3228,
      "Ð¾Ð": 3229,
      "Ġleaves": 3230,
      "Ġsynt": 3231,
      "Ġparameters": 3232,
      "Could": 3233,
      "Certain": 3234,
      "Im": 3235,
      "df": 3236,
      "friend": 3237,
      "ha": 3238,
      "mit": 3239,
      "ĠÃ": 3240,
      "Ġill": 3241,
      "Ġtips": 3242,
      "ones": 3243,
      "Ġce": 3244,
      "ither": 3245,
      "Ġwrong": 3246,
      "Ġpurp": 3247,
      "iced": 3248,
      "Ġfinal": 3249,
      "Ġhor": 3250,
      "Ġhttps": 3251,
      "Ġliving": 3252,
      "Ġreach": 3253,
      "Ġnames": 3254,
      "Ġnavig": 3255,
      "ĠĠĠĠĊ": 3256,
      "Ġprob": 3257,
      "Ġarray": 3258,
      "ĠCol": 3259,
      "Ġseen": 3260,
      "ĠWest": 3261,
      "arty": 3262,
      "Ġweather": 3263,
      "Ġweek": 3264,
      "ĠFTP": 3265,
      "nder": 3266,
      "Ġclim": 3267,
      "Ġfeet": 3268,
      "Ġupdate": 3269,
      "Ġcold": 3270,
      "Ġinstru": 3271,
      "Ġsmo": 3272,
      "Ġinfin": 3273,
      "Ġresulting": 3274,
      "Ġguit": 3275,
      "Ġhealthy": 3276,
      "Ġrights": 3277,
      "Ġstudy": 3278,
      "Ġsuggestions": 3279,
      "###": 3280,
      "Ġdrag": 3281,
      "Ġmagn": 3282,
      "Ġearly": 3283,
      "Ġsituations": 3284,
      "fficient": 3285,
      "Ġdynamic": 3286,
      "Ġactivities": 3287,
      "ĠGraphQL": 3288,
      "Ġconsequences": 3289,
      "Certainly": 3290,
      "']": 3291,
      "SC": 3292,
      "With": 3293,
      "dy": 3294,
      "ls": 3295,
      "mar": 3296,
      "right": 3297,
      "eries": 3298,
      "aly": 3299,
      "Ġpage": 3300,
      "Ġft": 3301,
      "Ġface": 3302,
      "Ġoil": 3303,
      "Ġandroid": 3304,
      "eli": 3305,
      "Ġlive": 3306,
      "Ġlives": 3307,
      "amples": 3308,
      "ung": 3309,
      "Your": 3310,
      "ades": 3311,
      "Ġvac": 3312,
      "ably": 3313,
      "ĠThen": 3314,
      "plit": 3315,
      "plate": 3316,
      "izer": 3317,
      "ĠData": 3318,
      "Ġsche": 3319,
      "versity": 3320,
      "Ġactual": 3321,
      "Ġactually": 3322,
      "Ġfollows": 3323,
      "Ġpopulation": 3324,
      "Ġgroups": 3325,
      "Ġallowing": 3326,
      "Ġrecent": 3327,
      "Ġassum": 3328,
      "Ġconnected": 3329,
      "Ġcurrently": 3330,
      "Ġoperations": 3331,
      "Ġdemoc": 3332,
      "Ġlayout": 3333,
      "Ġmilitary": 3334,
      "Ġterminal": 3335,
      "Ġbroad": 3336,
      "Ġbelieved": 3337,
      "Ġeye": 3338,
      "Ġeyes": 3339,
      "Ġdescribe": 3340,
      "Ġmerge": 3341,
      "Ġindustry": 3342,
      "Ġprinci": 3343,
      "Ġeggs": 3344,
      "powered": 3345,
      "AM": 3346,
      "SS": 3347,
      "gra": 3348,
      "hood": 3349,
      "oon": 3350,
      "ris": 3351,
      "round": 3352,
      "wh": 3353,
      "Ġtim": 3354,
      "Ġtact": 3355,
      "het": 3356,
      "atory": 3357,
      "orage": 3358,
      "Ġmi": 3359,
      "Ġmist": 3360,
      "asons": 3361,
      "Ġstates": 3362,
      "ĠAf": 3363,
      "Ġdevices": 3364,
      "Ġworth": 3365,
      "ĠDef": 3366,
      "Ġwear": 3367,
      "ĠGree": 3368,
      "Ġcreation": 3369,
      "ensive": 3370,
      "ĠJan": 3371,
      "Ġformula": 3372,
      "Ġpatient": 3373,
      "Ġchem": 3374,
      "Ġregularly": 3375,
      "Ġexpand": 3376,
      "Ġnovel": 3377,
      "Ġremove": 3378,
      "ocker": 3379,
      "Ġcommunities": 3380,
      "Ġcommunication": 3381,
      "Ġtopic": 3382,
      "Ġcontainer": 3383,
      "Ġfamous": 3384,
      "ĠWeb": 3385,
      "Ġsafety": 3386,
      "Ġargument": 3387,
      "ĠAmerica": 3388,
      "Ġpasta": 3389,
      "Ġinvestment": 3390,
      "Ġeverything": 3391,
      "Ġpolicy": 3392,
      "Ġarchitecture": 3393,
      "\"]": 3394,
      "ET": 3395,
      "Name": 3396,
      "OR": 3397,
      "Pro": 3398,
      "Remember": 3399,
      "bl": 3400,
      "file": 3401,
      "lay": 3402,
      "pite": 3403,
      "ql": 3404,
      "she": 3405,
      "top": 3406,
      "uel": 3407,
      "uary": 3408,
      "volution": 3409,
      "where": 3410,
      "world": 3411,
      "Ġut": 3412,
      "ina": 3413,
      "ony": 3414,
      "Ġsleep": 3415,
      "Ġcit": 3416,
      "outh": 3417,
      "Ġpan": 3418,
      "Ġflo": 3419,
      "Ġbrain": 3420,
      "Ġgender": 3421,
      "Ġeat": 3422,
      "Ġlif": 3423,
      "igma": 3424,
      "odes": 3425,
      "raw": 3426,
      "ĠApp": 3427,
      "adding": 3428,
      "rip": 3429,
      "Ġrule": 3430,
      "Ġadvent": 3431,
      "ĠDes": 3432,
      "ĠRed": 3433,
      "ĠList": 3434,
      "Ġmanage": 3435,
      "Ġcommit": 3436,
      "Ġroot": 3437,
      "Ġdescription": 3438,
      "Ġmetal": 3439,
      "Ġinstr": 3440,
      "Ġplaying": 3441,
      "Ġtransfer": 3442,
      "Ġcomputing": 3443,
      "Ġsheet": 3444,
      "Ġshell": 3445,
      "scale": 3446,
      "Ġorganization": 3447,
      "Ġmovement": 3448,
      "Ġrisks": 3449,
      "value": 3450,
      "Ġaccurate": 3451,
      "Ġautomatically": 3452,
      "========": 3453,
      "Ġsalary": 3454,
      "chool": 3455,
      "augh": 3456,
      "Ġadvantage": 3457,
      "Ġfully": 3458,
      "Ġinnov": 3459,
      "Ġchicken": 3460,
      "':": 3461,
      "My": 3462,
      "Number": 3463,
      "`.": 3464,
      "ew": 3465,
      "gest": 3466,
      "ipe": 3467,
      "main": 3468,
      "num": 3469,
      "rim": 3470,
      "Ġil": 3471,
      "Ġir": 3472,
      "Ġtab": 3473,
      "Ġtaste": 3474,
      "iny": 3475,
      "inter": 3476,
      "Ġsustain": 3477,
      "oration": 3478,
      "Ġmix": 3479,
      "edi": 3480,
      "uses": 3481,
      "Ġeither": 3482,
      "Ġlack": 3483,
      "Ġlink": 3484,
      "etch": 3485,
      "ĠCons": 3486,
      "plied": 3487,
      "Ġmac": 3488,
      "Ġplants": 3489,
      "agraph": 3490,
      "ĠRaspberry": 3491,
      "ĠGet": 3492,
      "Ġclaim": 3493,
      "Ġupon": 3494,
      "ipment": 3495,
      "Ġrot": 3496,
      "Ġroom": 3497,
      "Ġvariables": 3498,
      "Ġretrie": 3499,
      "Ġdeveloping": 3500,
      "Ġdevelopers": 3501,
      "Ġground": 3502,
      "Ġsignal": 3503,
      "Ġremember": 3504,
      "Ġengines": 3505,
      "Ġinsurance": 3506,
      "Ġlaws": 3507,
      "Ġtopics": 3508,
      "Ġlimits": 3509,
      "indows": 3510,
      "Ġelement": 3511,
      "Ġhistor": 3512,
      "Ġanimal": 3513,
      "Ġlibraries": 3514,
      "Ġmathematical": 3515,
      "Ġconversation": 3516,
      "Ġvideo": 3517,
      "Ġmotiv": 3518,
      "Ġlittle": 3519,
      "Ġsquare": 3520,
      "Ġbatter": 3521,
      "holders": 3522,
      "Ġjourney": 3523,
      "Ġguitar": 3524,
      "Des": 3525,
      "HP": 3526,
      "ai": 3527,
      "aff": 3528,
      "lor": 3529,
      "map": 3530,
      "nel": 3531,
      "ram": 3532,
      "year": 3533,
      "Ñģ": 3534,
      "Ġult": 3535,
      "inst": 3536,
      "ref": 3537,
      "ency": 3538,
      "Ġsav": 3539,
      "Ġcos": 3540,
      "order": 3541,
      "alf": 3542,
      "itle": 3543,
      "Ġwalk": 3544,
      "Ġbad": 3545,
      "Ġbab": 3546,
      "Ġbreat": 3547,
      "Ġded": 3548,
      "arge": 3549,
      "Ġthing": 3550,
      "Ġrestr": 3551,
      "Ġheart": 3552,
      "ĠTur": 3553,
      "unction": 3554,
      "ĠMe": 3555,
      "ials": 3556,
      "Ġalign": 3557,
      "ests": 3558,
      "ĠPHP": 3559,
      "ands": 3560,
      "Ġmeant": 3561,
      "ocity": 3562,
      "ĠBl": 3563,
      "ĠBu": 3564,
      "Ġweak": 3565,
      "ĠReg": 3566,
      "Ġkit": 3567,
      "Ġscen": 3568,
      "Ġscale": 3569,
      "Ġsoon": 3570,
      "Ġitself": 3571,
      "Ġadded": 3572,
      "connect": 3573,
      "Ġobst": 3574,
      "Ġunderlying": 3575,
      "curs": 3576,
      "Ġbuy": 3577,
      "Ġfolder": 3578,
      "Ġrace": 3579,
      "oviet": 3580,
      "plications": 3581,
      "Ġextra": 3582,
      "ĠĠĠĠĠĠĠĠĠĠĠĠĠĠĠĠ": 3583,
      "Ġdiscovered": 3584,
      "Ġinvolve": 3585,
      "Ġfeelings": 3586,
      "Ġchanging": 3587,
      "Ġcontinues": 3588,
      "Ġcapital": 3589,
      "Ġbehind": 3590,
      "Ġresponsible": 3591,
      "ĠClick": 3592,
      "Ġcorrectly": 3593,
      "Ġrequests": 3594,
      "Ġsympt": 3595,
      "Ġvideos": 3596,
      "Ġintegers": 3597,
      "Ġglobal": 3598,
      "Ġsecure": 3599,
      "bolic": 3600,
      "Ġprimary": 3601,
      "ĠBritish": 3602,
      "Ġinjury": 3603,
      "Ġcamera": 3604,
      "ĠAfric": 3605,
      "40": 3606,
      "Ap": 3607,
      "Do": 3608,
      "Note": 3609,
      "PU": 3610,
      "Text": 3611,
      "book": 3612,
      "dom": 3613,
      "frame": 3614,
      "how": 3615,
      "la": 3616,
      "met": 3617,
      "Â²": 3618,
      "Ġtens": 3619,
      "ining": 3620,
      "Ġcook": 3621,
      "alary": 3622,
      "alax": 3623,
      "Ġwatch": 3624,
      "Ġpush": 3625,
      "Ġmention": 3626,
      "istics": 3627,
      "rown": 3628,
      "amb": 3629,
      "ĠTake": 3630,
      "ĠTwit": 3631,
      "ĠMat": 3632,
      "ĠMar": 3633,
      "Ġste": 3634,
      "racy": 3635,
      "Ġvul": 3636,
      "though": 3637,
      "Ġdev": 3638,
      "Ġenable": 3639,
      "ĠFr": 3640,
      "class": 3641,
      "Ġcompared": 3642,
      "Ġaccept": 3643,
      "nown": 3644,
      "Ġnews": 3645,
      "Ġtaken": 3646,
      "Ġparty": 3647,
      "Ġexpert": 3648,
      "Ġapart": 3649,
      "Ġhighlight": 3650,
      "Ġattract": 3651,
      "Ġrespond": 3652,
      "Ġflat": 3653,
      "Ġsupports": 3654,
      "Ġincreased": 3655,
      "String": 3656,
      "Ġinterests": 3657,
      "Ġinterested": 3658,
      "Ġveh": 3659,
      "ĠCont": 3660,
      "Ġmiles": 3661,
      "Ġinfluen": 3662,
      "Ġswitch": 3663,
      "Ġdeli": 3664,
      "Ġpurch": 3665,
      "Ġsituation": 3666,
      "rastructure": 3667,
      "Ġupdated": 3668,
      "Ġdigital": 3669,
      "Ġestablish": 3670,
      "ocolate": 3671,
      "Ġopin": 3672,
      "uzz": 3673,
      "Ġilleg": 3674,
      "Ġrestrict": 3675,
      "Ar": 3676,
      "EST": 3677,
      "Of": 3678,
      "life": 3679,
      "med": 3680,
      "na": 3681,
      "press": 3682,
      "rror": 3683,
      "sigma": 3684,
      "vas": 3685,
      "zing": 3686,
      "Ð¸": 3687,
      "Ġur": 3688,
      "Ġ--": 3689,
      "eration": 3690,
      "Ġsil": 3691,
      "Ġsorry": 3692,
      "Ġcamp": 3693,
      "Ġpick": 3694,
      "Ġmir": 3695,
      "Ġdivid": 3696,
      "oman": 3697,
      "omes": 3698,
      "Ġhold": 3699,
      "Ġgall": 3700,
      "Ġrepl": 3701,
      "Ġnp": 3702,
      "images": 3703,
      "olving": 3704,
      "uth": 3705,
      "ĠText": 3706,
      "unk": 3707,
      "unch": 3708,
      "Ġconvert": 3709,
      "oding": 3710,
      "ifications": 3711,
      "ĠAp": 3712,
      "ĠAust": 3713,
      "ĠSoviet": 3714,
      "Ġvi": 3715,
      "Ġvot": 3716,
      "ĠCity": 3717,
      "Ġchocolate": 3718,
      "ĠEl": 3719,
      "Ġresource": 3720,
      "Ġquite": 3721,
      "Ġdatas": 3722,
      "ĠOver": 3723,
      "ĠNo": 3724,
      "ĠName": 3725,
      "Ġmodule": 3726,
      "ounds": 3727,
      "Ġrows": 3728,
      "Ġindic": 3729,
      "Ġapolog": 3730,
      "Ġchess": 3731,
      "Ġtechnologies": 3732,
      "Ġcomplete": 3733,
      "Ġplanets": 3734,
      "Ġpopularity": 3735,
      "Ġbelow": 3736,
      "Ġlocated": 3737,
      "Ġequation": 3738,
      "Ġeconomy": 3739,
      "ĠProv": 3740,
      "ĠComp": 3741,
      "Ġoptimize": 3742,
      "Ġencount": 3743,
      "Ġdraw": 3744,
      "Ġprefer": 3745,
      "Ġrobots": 3746,
      "Ġplatforms": 3747,
      "Explain": 3748,
      "Ġcomponent": 3749,
      "www": 3750,
      "ography": 3751,
      "Ġbott": 3752,
      "Ġvelocity": 3753,
      "ĠRussia": 3754,
      "Ġsymptoms": 3755,
      "Ġvulner": 3756,
      "25": 3757,
      "CE": 3758,
      "af": 3759,
      "aw": 3760,
      "can": 3761,
      "cos": 3762,
      "host": 3763,
      "lation": 3764,
      "lines": 3765,
      "me": 3766,
      "spe": 3767,
      "write": 3768,
      "ĠðŁ": 3769,
      "Ġtu": 3770,
      "enge": 3771,
      "Ġschool": 3772,
      "Ġcou": 3773,
      "Ġcore": 3774,
      "org": 3775,
      "Ġfour": 3776,
      "Ġfront": 3777,
      "Ġmic": 3778,
      "osp": 3779,
      "Ġreward": 3780,
      "illed": 3781,
      "unning": 3782,
      "ĠMax": 3783,
      "Ġstorage": 3784,
      "Ġconclusion": 3785,
      "ĠSw": 3786,
      "ĠCould": 3787,
      "ckl": 3788,
      "Ġled": 3789,
      "inecraft": 3790,
      "Ġshoes": 3791,
      "allow": 3792,
      "Ġcontrast": 3793,
      "Ġwheels": 3794,
      "ups": 3795,
      "Ġquery": 3796,
      "sole": 3797,
      "ĠNorth": 3798,
      "aching": 3799,
      "Ġspecified": 3800,
      "ĠJS": 3801,
      "Ġimportance": 3802,
      "phas": 3803,
      "Ġreli": 3804,
      "Ġplayed": 3805,
      "Ġsolutions": 3806,
      "Ġregion": 3807,
      "tenance": 3808,
      "Ġinfrastructure": 3809,
      "Ġtechnique": 3810,
      "ĠKeep": 3811,
      "Ġdefine": 3812,
      "Ġseek": 3813,
      "Ġassign": 3814,
      "Ġcommunicate": 3815,
      "commod": 3816,
      "Ġdownload": 3817,
      "Ġreducing": 3818,
      "Ġenvironments": 3819,
      "Ġmessages": 3820,
      "Ġpractical": 3821,
      "Ġ199": 3822,
      "Ġlimited": 3823,
      "Ġcarbon": 3824,
      "lightly": 3825,
      "Ġdemon": 3826,
      "Ġdemand": 3827,
      "Ġerr": 3828,
      "imensional": 3829,
      "Ġtrees": 3830,
      "Ġmoon": 3831,
      "Ġconsumption": 3832,
      "csv": 3833,
      "Ġindependent": 3834,
      "Ġopportunities": 3835,
      "Ġphilosoph": 3836,
      "Ġfundam": 3837,
      "ĠJanuary": 3838,
      "Acc": 3839,
      "Cl": 3840,
      "Error": 3841,
      "LL": 3842,
      "NA": 3843,
      "ah": 3844,
      "ault": 3845,
      "dimensional": 3846,
      "mu": 3847,
      "ners": 3848,
      "ole": 3849,
      "tr": 3850,
      "uit": 3851,
      "wid": 3852,
      "yond": 3853,
      "Ð½": 3854,
      "Ġvert": 3855,
      "Ġtur": 3856,
      "Ġtalk": 3857,
      "Ġsus": 3858,
      "Ġcru": 3859,
      "isms": 3860,
      "alse": 3861,
      "alled": 3862,
      "Ġwarm": 3863,
      "Ġfat": 3864,
      "Ġdur": 3865,
      "asc": 3866,
      "Ġhouse": 3867,
      "Ġlate": 3868,
      "roll": 3869,
      "ider": 3870,
      "ĠMic": 3871,
      "ĠMay": 3872,
      "Ġprop": 3873,
      "ump": 3874,
      "ops": 3875,
      "ĠCO": 3876,
      "ĠPer": 3877,
      "ĠPower": 3878,
      "Ġunit": 3879,
      "Ġshadow": 3880,
      "alls": 3881,
      "Ġresized": 3882,
      "Ġliqu": 3883,
      "Ġspell": 3884,
      "cont": 3885,
      "Ġwhole": 3886,
      "Ġincome": 3887,
      "Ġreference": 3888,
      "Ġhands": 3889,
      "Ġmember": 3890,
      "Ġsurround": 3891,
      "Ġbackground": 3892,
      "Ġcarry": 3893,
      "ĠArray": 3894,
      "Ġveget": 3895,
      "Ġshows": 3896,
      "Ġtesting": 3897,
      "Ġlayer": 3898,
      "Ġrecommended": 3899,
      "Ġrecommendations": 3900,
      "append": 3901,
      "Ġtemperatures": 3902,
      "Ġoptimization": 3903,
      "Ġcosts": 3904,
      "Ġresearc": 3905,
      "Ġbird": 3906,
      "Ġcontribute": 3907,
      "Ġaccuracy": 3908,
      "Ġexistence": 3909,
      "Ġbelief": 3910,
      "Ġ:=": 3911,
      "Ġliter": 3912,
      "ĠTrans": 3913,
      "Ġexplanation": 3914,
      "Ġpowers": 3915,
      "Ġethical": 3916,
      "iliar": 3917,
      "30": 3918,
      "He": 3919,
      "IT": 3920,
      "cious": 3921,
      "iation": 3922,
      "log": 3923,
      "off": 3924,
      "salary": 3925,
      "Ġing": 3926,
      "Ġ__": 3927,
      "Ġalp": 3928,
      "inks": 3929,
      "atur": 3930,
      "icious": 3931,
      "Ġmountain": 3932,
      "ctors": 3933,
      "Ġgot": 3934,
      "Ġbegan": 3935,
      "ĠMinecraft": 3936,
      "Ġstra": 3937,
      "Ġitem": 3938,
      "Ġalien": 3939,
      "opl": 3940,
      "Ġdevice": 3941,
      "pload": 3942,
      "izz": 3943,
      "Ġplaces": 3944,
      "ĠWindows": 3945,
      "Ġcloud": 3946,
      "Ġsoil": 3947,
      "api": 3948,
      "Ġspir": 3949,
      "Ġstrings": 3950,
      "aily": 3951,
      "Ġroll": 3952,
      "Ġfunctionality": 3953,
      "Ġeffort": 3954,
      "ĠYour": 3955,
      "ibr": 3956,
      "ibly": 3957,
      "Ġdepth": 3958,
      "Ġtechnical": 3959,
      "Ġtransition": 3960,
      "Ġstrugg": 3961,
      "Ġenter": 3962,
      "Ġaccording": 3963,
      "ission": 3964,
      "Ġelectron": 3965,
      "Ġlinear": 3966,
      "Ġvector": 3967,
      "Ġcommands": 3968,
      "Ġtests": 3969,
      "proble": 3970,
      "Ġformatting": 3971,
      "Ġamounts": 3972,
      "Ġbirds": 3973,
      "Ġrobot": 3974,
      "Ġdrink": 3975,
      "Ġscientists": 3976,
      "Ġcircle": 3977,
      "Ġsounds": 3978,
      "Ġanalyze": 3979,
      "GPT": 3980,
      "Ġexercises": 3981,
      "Ġshapes": 3982,
      "Ġbrowser": 3983,
      "Ġhyperbolic": 3984,
      "ĠDefine": 3985,
      "Ġchemical": 3986,
      "Ġcitiz": 3987,
      "21": 3988,
      "99": 3989,
      "Are": 3990,
      "Now": 3991,
      "On": 3992,
      "PE": 3993,
      "Res": 3994,
      "Some": 3995,
      "bun": 3996,
      "flow": 3997,
      "gar": 3998,
      "https": 3999,
      "kk": 4000,
      "known": 4001,
      "ny": 4002,
      "oose": 4003,
      "Ġsample": 4004,
      "anish": 4005,
      "alle": 4006,
      "itational": 4007,
      "Ġfert": 4008,
      "Ġmom": 4009,
      "Ġmental": 4010,
      "Ġburn": 4011,
      "Ġdens": 4012,
      "Ġdaily": 4013,
      "Ġthinking": 4014,
      "Ġgalax": 4015,
      "Ġyet": 4016,
      "istance": 4017,
      "Ġreasons": 4018,
      "emic": 4019,
      "Ġforward": 4020,
      "Ġheav": 4021,
      "ends": 4022,
      "ĠMany": 4023,
      "Ġstars": 4024,
      "Ġconver": 4025,
      "quarter": 4026,
      "Ġvar": 4027,
      "opt": 4028,
      "Ġshop": 4029,
      "result": 4030,
      "Ġ17": 4031,
      "ĠFinally": 4032,
      "Ġcompare": 4033,
      "Ġcreative": 4034,
      "aced": 4035,
      "Ġscene": 4036,
      "ĠOff": 4037,
      "Ġclos": 4038,
      "Ġanyone": 4039,
      "Ġconsult": 4040,
      "Ġrelatively": 4041,
      "Ġincred": 4042,
      "Ġemphas": 4043,
      "Ġsmart": 4044,
      "Ġpolym": 4045,
      "Ġfinding": 4046,
      "Ġreport": 4047,
      "ception": 4048,
      "Ġengaging": 4049,
      "Ġlights": 4050,
      "ocket": 4051,
      "Ġprints": 4052,
      "ĠUnion": 4053,
      "Ġbright": 4054,
      "ĠAlso": 4055,
      "Ġstored": 4056,
      "Ġzero": 4057,
      "ĠDevelop": 4058,
      "Ġmathematics": 4059,
      "ĠEuropean": 4060,
      "Ġcritical": 4061,
      "Ġlicense": 4062,
      "Ġexactly": 4063,
      "Ġangle": 4064,
      "Ġtunnel": 4065,
      "Ġcasting": 4066,
      "ĠCheck": 4067,
      "Ġderiv": 4068,
      "Ġapologize": 4069,
      "\");": 4070,
      "'(": 4071,
      "Che": 4072,
      "LE": 4073,
      "Line": 4074,
      "Se": 4075,
      "ees": 4076,
      "eet": 4077,
      "fra": 4078,
      "ike": 4079,
      "lished": 4080,
      "});": 4081,
      "Ġ;": 4082,
      "hel": 4083,
      "Ġcut": 4084,
      "alin": 4085,
      "Ġpor": 4086,
      "Ġfr": 4087,
      "Ġfan": 4088,
      "Ġdre": 4089,
      "osh": 4090,
      "used": 4091,
      "omb": 4092,
      "omic": 4093,
      "elines": 4094,
      "Ġthird": 4095,
      "Ġreality": 4096,
      "uries": 4097,
      "image": 4098,
      "Ġheight": 4099,
      "Ġbeaut": 4100,
      "Ġbeyond": 4101,
      "ĠMod": 4102,
      "ayes": 4103,
      "Ġsty": 4104,
      "Ġprote": 4105,
      "Ġusern": 4106,
      "Ġvast": 4107,
      "Ġdead": 4108,
      "Ġsupp": 4109,
      "Ġrh": 4110,
      "ocal": 4111,
      "ĠRob": 4112,
      "ĠGra": 4113,
      "ief": 4114,
      "ĠLear": 4115,
      "acent": 4116,
      "ĠNational": 4117,
      "Ġspecify": 4118,
      "Ġdesire": 4119,
      "ernel": 4120,
      "Ġconscious": 4121,
      "Inst": 4122,
      "ĠYouT": 4123,
      "Ġrelig": 4124,
      "Ġinstance": 4125,
      "ĠStart": 4126,
      "Ġrap": 4127,
      "Ġraise": 4128,
      "Ġdetailed": 4129,
      "Ġexposure": 4130,
      "hens": 4131,
      "redients": 4132,
      "Ġtransport": 4133,
      "Ġextract": 4134,
      "Ġfilm": 4135,
      "State": 4136,
      "Ġvisit": 4137,
      "Ġbox": 4138,
      "Ġwebsites": 4139,
      "Ġtrend": 4140,
      "Ġpressure": 4141,
      "Ġexisting": 4142,
      "Ġradius": 4143,
      "Ġefficiently": 4144,
      "Ġpieces": 4145,
      "Ġpurs": 4146,
      "Ġupdates": 4147,
      "Ġinteger": 4148,
      "Ġconstruct": 4149,
      "Ġsurvive": 4150,
      "Ġalternative": 4151,
      "Ġflexible": 4152,
      "Ġbecoming": 4153,
      "Ġfailure": 4154,
      "Ġmaximum": 4155,
      "Ġmutual": 4156,
      "Ġstrategies": 4157,
      "Ġastron": 4158,
      "ĠFlask": 4159,
      "Ġfruit": 4160,
      "friendly": 4161,
      "ĠÃĹ": 4162,
      "Ġsmooth": 4163,
      "ĠAustral": 4164,
      "Ġfundamental": 4165,
      "buntu": 4166,
      "45": 4167,
      "Event": 4168,
      "ID": 4169,
      "OM": 4170,
      "RL": 4171,
      "Ultimately": 4172,
      "ched": 4173,
      "eper": 4174,
      "gs": 4175,
      "mun": 4176,
      "padding": 4177,
      "rices": 4178,
      "uce": 4179,
      "uous": 4180,
      "Ġ</": 4181,
      "reci": 4182,
      "Ġtheore": 4183,
      "atives": 4184,
      "Ġmen": 4185,
      "Ġbact": 4186,
      "elt": 4187,
      "Ġthick": 4188,
      "Ġgaming": 4189,
      "imals": 4190,
      "ements": 4191,
      "ĠIr": 4192,
      "utor": 4193,
      "ĠMon": 4194,
      "Ġusage": 4195,
      "Ġgeneration": 4196,
      "Ġhair": 4197,
      "ĠPark": 4198,
      "Ġrates": 4199,
      "illing": 4200,
      "Ġchain": 4201,
      "Ġunable": 4202,
      "ĠWord": 4203,
      "idean": 4204,
      "clidean": 4205,
      "Ġdoctor": 4206,
      "angle": 4207,
      "Ġ25": 4208,
      "Ġdesired": 4209,
      "Ġkeys": 4210,
      "rupt": 4211,
      "ibilities": 4212,
      "Ġcomplet": 4213,
      "Ġmedium": 4214,
      "hesis": 4215,
      "Ġ50": 4216,
      "Ġadvance": 4217,
      "Ġmembers": 4218,
      "Ġfilter": 4219,
      "Ġfilled": 4220,
      "Ġanswers": 4221,
      "Ġpromote": 4222,
      "eek": 4223,
      "Ġequipment": 4224,
      "Ġbran": 4225,
      "Ġpersonalized": 4226,
      "Ġimplementation": 4227,
      "Ġmilk": 4228,
      "rench": 4229,
      "ĠIntern": 4230,
      "Ġrepresentation": 4231,
      "Ġcauses": 4232,
      "Ġimmedi": 4233,
      "Ġsuccessful": 4234,
      "Ġrecognize": 4235,
      "Ġcapture": 4236,
      "Ġearthqu": 4237,
      "Ġgravity": 4238,
      "Ġgravitational": 4239,
      "Ġbarri": 4240,
      "Ġupload": 4241,
      "Ġsatis": 4242,
      "Ġtalking": 4243,
      "Ġsuitable": 4244,
      "Ġinventory": 4245,
      "Ġperspective": 4246,
      "Ġdiagn": 4247,
      "elihood": 4248,
      "Ġschedu": 4249,
      "Ġprinciples": 4250,
      "Ġinnovation": 4251,
      "Ġmirror": 4252,
      "ĠJSON": 4253,
      "Ġdemonstr": 4254,
      "Ġvertical": 4255,
      "');": 4256,
      "Create": 4257,
      "First": 4258,
      "Re": 4259,
      "aper": 4260,
      "chen": 4261,
      "efficient": 4262,
      "fit": 4263,
      "gree": 4264,
      "lin": 4265,
      "mod": 4266,
      "oin": 4267,
      "uff": 4268,
      "vature": 4269,
      "zen": 4270,
      "Ġâ": 4271,
      "Ġaw": 4272,
      "inated": 4273,
      "Ġcatch": 4274,
      "orous": 4275,
      "Ġpand": 4276,
      "Ġod": 4277,
      "Ġmis": 4278,
      "Ġbound": 4279,
      "Ġhun": 4280,
      "Ġgives": 4281,
      "Ġep": 4282,
      "Ġlooks": 4283,
      "Ġluck": 4284,
      "Ġrepe": 4285,
      "step": 4286,
      "vere": 4287,
      "ided": 4288,
      "Ġiter": 4289,
      "rag": 4290,
      "iring": 4291,
      "ĠAv": 4292,
      "erse": 4293,
      "Ġdegree": 4294,
      "ighth": 4295,
      "ĠPost": 4296,
      "Ġseem": 4297,
      "Ġseems": 4298,
      "Ġseason": 4299,
      "ĠWork": 4300,
      "Ġabst": 4301,
      "Ġabilities": 4302,
      "ĠDuring": 4303,
      "ager": 4304,
      "ĠGod": 4305,
      "ĠLe": 4306,
      "ĠLat": 4307,
      "Ġgoes": 4308,
      "Ġclient": 4309,
      "Ġaccom": 4310,
      "Ġmyth": 4311,
      "conf": 4312,
      "Ġrow": 4313,
      "Ġappreci": 4314,
      "Ġcurvature": 4315,
      "Ġdecre": 4316,
      "Ġmeditation": 4317,
      "Ġdefined": 4318,
      "Ġapproxim": 4319,
      "Ġextrem": 4320,
      "Ġcultures": 4321,
      "Ġchallenge": 4322,
      "Ġparticip": 4323,
      "Ġcentral": 4324,
      "Ġcapabilities": 4325,
      "forward": 4326,
      "Ġphysics": 4327,
      "Ġhimself": 4328,
      "ĠTherefore": 4329,
      "Ġbiases": 4330,
      "Ġmovie": 4331,
      "Ġweights": 4332,
      "Ġessay": 4333,
      "Ġanti": 4334,
      "Ġdatabases": 4335,
      "Ġglass": 4336,
      "Ġharmful": 4337,
      "Ġpolicies": 4338,
      "ĠChatGPT": 4339,
      "ĠGerman": 4340,
      "Ġeducation": 4341,
      "Ġdisease": 4342,
      "Ġcollabor": 4343,
      "Ġaspects": 4344,
      "shell": 4345,
      "Ġinstrument": 4346,
      "Ġresearchers": 4347,
      "17": 4348,
      "34": 4349,
      "80": 4350,
      "85": 4351,
      "ED": 4352,
      "RE": 4353,
      "Sh": 4354,
      "aks": 4355,
      "count": 4356,
      "cape": 4357,
      "fu": 4358,
      "gn": 4359,
      "iant": 4360,
      "link": 4361,
      "number": 4362,
      "oe": 4363,
      "pot": 4364,
      "rate": 4365,
      "uate": 4366,
      "wise": 4367,
      "Ġax": 4368,
      "Ġsides": 4369,
      "Ġslightly": 4370,
      "Ġcame": 4371,
      "oral": 4372,
      "orch": 4373,
      "ales": 4374,
      "Ġwin": 4375,
      "Ġpet": 4376,
      "Ġmdr": 4377,
      "asy": 4378,
      "Ġhit": 4379,
      "Ġgreen": 4380,
      "entral": 4381,
      "eter": 4382,
      "ether": 4383,
      "Ġord": 4384,
      "ĠAll": 4385,
      "quent": 4386,
      "abet": 4387,
      "Ġsup": 4388,
      "Ġchat": 4389,
      "ights": 4390,
      "ĠEIN": 4391,
      "ĠREST": 4392,
      "Ġkid": 4393,
      "Ġqual": 4394,
      "ĠUbuntu": 4395,
      "Ġperce": 4396,
      "Ġprime": 4397,
      "Ġcollect": 4398,
      "earch": 4399,
      "Ġworkout": 4400,
      "Ġsettings": 4401,
      "ĠVis": 4402,
      "Ġspecifically": 4403,
      "Ġrecipe": 4404,
      "Ġeffectively": 4405,
      "apter": 4406,
      "Ġideal": 4407,
      "Ġedge": 4408,
      "Ġletter": 4409,
      "Ġparticle": 4410,
      "Ġparticles": 4411,
      "Ġequal": 4412,
      "Ġenvironmental": 4413,
      "Ġpainting": 4414,
      "Ġorganizations": 4415,
      "ĠComput": 4416,
      "Ġasked": 4417,
      "Thanks": 4418,
      "Ġachie": 4419,
      "Ġmoving": 4420,
      "Ġstatement": 4421,
      "Ġengineering": 4422,
      "Ġremains": 4423,
      "Ġgreater": 4424,
      "Ġconsistent": 4425,
      "ERT": 4426,
      "Ġopportunity": 4427,
      "Ġgraphics": 4428,
      "Ġfluid": 4429,
      "Ġparents": 4430,
      "Ġauthentication": 4431,
      "Ġantibiotics": 4432,
      "ĠService": 4433,
      "Ġadventure": 4434,
      "Ġbreath": 4435,
      "Ġinfluenced": 4436,
      "cklaces": 4437,
      "Chor": 4438,
      "FT": 4439,
      "Let": 4440,
      "Where": 4441,
      "`,": 4442,
      "cast": 4443,
      "eat": 4444,
      "hy": 4445,
      "nam": 4446,
      "part": 4447,
      "pire": 4448,
      "Ġtail": 4449,
      "ino": 4450,
      "reens": 4451,
      "alue": 4452,
      "Ġwind": 4453,
      "Ġpict": 4454,
      "Ġphen": 4455,
      "Ġfarm": 4456,
      "Ġfoot": 4457,
      "Ġmold": 4458,
      "Ġbillion": 4459,
      "lebr": 4460,
      "Ġhid": 4461,
      "Ġeating": 4462,
      "ceed": 4463,
      "Ġlens": 4464,
      "antic": 4465,
      "ifies": 4466,
      "iles": 4467,
      "ĠII": 4468,
      "uts": 4469,
      "ĠThat": 4470,
      "Ġconv": 4471,
      "ĠAre": 4472,
      "Ġalt": 4473,
      "ections": 4474,
      "Ġdeath": 4475,
      "ĠPerson": 4476,
      "Ġrise": 4477,
      "illa": 4478,
      "Ġshared": 4479,
      "Ġsequ": 4480,
      "resents": 4481,
      "ĠDoc": 4482,
      "ĠFrench": 4483,
      "ĠGe": 4484,
      "ĠGreat": 4485,
      "xture": 4486,
      "Ġclar": 4487,
      "Ġmanip": 4488,
      "Ġaccommod": 4489,
      "Ġspaces": 4490,
      "Ġcommer": 4491,
      "Ġhowever": 4492,
      "Ġsolving": 4493,
      "Ġregulations": 4494,
      "efore": 4495,
      "ternal": 4496,
      "Ġrepresents": 4497,
      "Ġtyping": 4498,
      "Ġmaintenance": 4499,
      "Ġrecord": 4500,
      "Ġsky": 4501,
      "Ġflavor": 4502,
      "type": 4503,
      "Ġchoices": 4504,
      "Ġvisited": 4505,
      "Ġdirected": 4506,
      "Ġfeeling": 4507,
      "Ġmuscle": 4508,
      "Ġpromot": 4509,
      "Ġcryst": 4510,
      "Ġcapac": 4511,
      "Ġsometimes": 4512,
      "Ġvectors": 4513,
      "Ġafford": 4514,
      "ependent": 4515,
      "Ġmanager": 4516,
      "ĠSpanish": 4517,
      "Ġencourage": 4518,
      "Ġdidn": 4519,
      "defined": 4520,
      "Ġbirth": 4521,
      "Ġcaused": 4522,
      "Ġgenetic": 4523,
      "ĠScience": 4524,
      "ĠInstead": 4525,
      "weight": 4526,
      "Ġnutri": 4527,
      "Ġexercise": 4528,
      "Ġextension": 4529,
      "Ġseparate": 4530,
      "minist": 4531,
      "ATE": 4532,
      "Ġemergen": 4533,
      "Ġpurposes": 4534,
      "ĠWestern": 4535,
      "Ġinstructions": 4536,
      "numbers": 4537,
      "Ġbaby": 4538,
      "Ġvehicles": 4539,
      "Ġgallon": 4540,
      "Ġerrors": 4541,
      "Ġderivative": 4542,
      "->": 4543,
      "27": 4544,
      "55": 4545,
      "Act": 4546,
      "DF": 4547,
      "DO": 4548,
      "EX": 4549,
      "Finally": 4550,
      "SD": 4551,
      "ae": 4552,
      "acles": 4553,
      "bu": 4554,
      "ball": 4555,
      "hol": 4556,
      "mor": 4557,
      "max": 4558,
      "mdr": 4559,
      "rc": 4560,
      "rig": 4561,
      "ses": 4562,
      "uation": 4563,
      "uber": 4564,
      "what": 4565,
      "Ġtour": 4566,
      "Ġtables": 4567,
      "inct": 4568,
      "react": 4569,
      "Ġsizes": 4570,
      "Ġsplit": 4571,
      "Ġanx": 4572,
      "ica": 4573,
      "Ġfire": 4574,
      "Ġmyst": 4575,
      "Ġtoken": 4576,
      "Ġbud": 4577,
      "Ġden": 4578,
      "Ġdial": 4579,
      "Ġdiction": 4580,
      "using": 4581,
      "Ġgir": 4582,
      "Ġlost": 4583,
      "Ġlabel": 4584,
      "Ġrelease": 4585,
      "start": 4586,
      "uly": 4587,
      "ils": 4588,
      "email": 4589,
      "amm": 4590,
      "idge": 4591,
      "olar": 4592,
      "ĠTra": 4593,
      "ĠTry": 4594,
      "ĠMin": 4595,
      "ĠMag": 4596,
      "ĠMark": 4597,
      "Ġstress": 4598,
      "Ġstick": 4599,
      "ellent": 4600,
      "Ġconvent": 4601,
      "ĠAnother": 4602,
      "Ġvo": 4603,
      "ĠCar": 4604,
      "ĠCPU": 4605,
      "rief": 4606,
      "nter": 4607,
      "Ġneut": 4608,
      "Ġring": 4609,
      "Ġuns": 4610,
      "Ġseed": 4611,
      "ĠBayes": 4612,
      "ĠDocker": 4613,
      "Ġenh": 4614,
      "ĠFe": 4615,
      "clus": 4616,
      "---": 4617,
      "Ġcreatures": 4618,
      "Ġcreators": 4619,
      "Ġcreativity": 4620,
      "ĠOther": 4621,
      "apple": 4622,
      "Ġfeature": 4623,
      "Ġacad": 4624,
      "Ġprepare": 4625,
      "ipitation": 4626,
      "Ġobtain": 4627,
      "Ġcolon": 4628,
      "Ġwanted": 4629,
      "Ġdetail": 4630,
      "Ġdepart": 4631,
      "plication": 4632,
      "Ġallowed": 4633,
      "Ġseeking": 4634,
      "Ġflour": 4635,
      "Ġleaders": 4636,
      "Ġopening": 4637,
      "Ġ40": 4638,
      "Ġdirection": 4639,
      "ĠĠĠĠĠĠĠĠĠ": 4640,
      "Ġcontroll": 4641,
      "ĉĉĉ": 4642,
      "Ġtemplate": 4643,
      "Ġcalculus": 4644,
      "ĠExcel": 4645,
      "score": 4646,
      "json": 4647,
      "Ġmovies": 4648,
      "Ġinternational": 4649,
      "Ġarguments": 4650,
      "Ġdocuments": 4651,
      "Ġcombination": 4652,
      "Ġpresence": 4653,
      "rapper": 4654,
      "Ġcolumns": 4655,
      "Ġdivision": 4656,
      "Ġconstruction": 4657,
      "Ġmiddle": 4658,
      "ĠGermany": 4659,
      "Ġappearance": 4660,
      "Ġconfigur": 4661,
      "Ġcomfortable": 4662,
      "Ġsyntax": 4663,
      "Ġhistorical": 4664,
      "affe": 4665,
      "Ġmentioned": 4666,
      "ĠTwitter": 4667,
      "Ġillegal": 4668,
      "Ġviol": 4669,
      "Ġcrucial": 4670,
      "Ġstraight": 4671,
      "Ġpolymer": 4672,
      "Chorus": 4673,
      "200": 4674,
      "={": 4675,
      "></": 4676,
      "EO": 4677,
      "Set": 4678,
      "Window": 4679,
      "big": 4680,
      "cer": 4681,
      "code": 4682,
      "fan": 4683,
      "hand": 4684,
      "more": 4685,
      "oft": 4686,
      "ratic": 4687,
      "vable": 4688,
      "war": 4689,
      "ĠQ": 4690,
      "Ġign": 4691,
      "Ġcab": 4692,
      "oub": 4693,
      "ouch": 4694,
      "Ġwild": 4695,
      "Ġwave": 4696,
      "Ġmask": 4697,
      "Ġtofu": 4698,
      "Ġball": 4699,
      "Ġdin": 4700,
      "level": 4701,
      "ellect": 4702,
      "Ġhous": 4703,
      "Ġhref": 4704,
      "Ġgard": 4705,
      "Ġlen": 4706,
      "Ġrecurs": 4707,
      "Ġasking": 4708,
      "ĠID": 4709,
      "unis": 4710,
      "Ġonto": 4711,
      "Ġstable": 4712,
      "raction": 4713,
      "Ġexcess": 4714,
      "Ġarticle": 4715,
      "ĠPy": 4716,
      "ĠPat": 4717,
      "Ġsharing": 4718,
      "Ġadult": 4719,
      "Ġ14": 4720,
      "ĠDon": 4721,
      "ĠFirst": 4722,
      "Ġkids": 4723,
      "Ġimpress": 4724,
      "ought": 4725,
      "achine": 4726,
      "Ġjug": 4727,
      "clude": 4728,
      "Ġpros": 4729,
      "Ġnumer": 4730,
      "ĠStalin": 4731,
      "Ġphr": 4732,
      "ometers": 4733,
      "Ġlargest": 4734,
      "Ġgradu": 4735,
      "Ġclasses": 4736,
      "Ġdiscover": 4737,
      "Step": 4738,
      "Ġvision": 4739,
      "ÂłÂłÂł": 4740,
      "Ġpositions": 4741,
      "Ġchanged": 4742,
      "Ġpassed": 4743,
      "Ġconcise": 4744,
      "iveness": 4745,
      "Ġfocused": 4746,
      "Ġteams": 4747,
      "ĠÐ¸": 4748,
      "Ġturned": 4749,
      "Ġradar": 4750,
      "scripts": 4751,
      "ĠImplement": 4752,
      "Ġdrive": 4753,
      "Ġvolume": 4754,
      "Ġleaving": 4755,
      "Ġmechanics": 4756,
      "Ġsubjective": 4757,
      "Ġreactions": 4758,
      "forcement": 4759,
      "ĠCalcul": 4760,
      "ĠGPS": 4761,
      "Ġlimitations": 4762,
      "Ġfigure": 4763,
      "Ġfixed": 4764,
      "Ġincorporating": 4765,
      "Ġnuclear": 4766,
      "Ġcelebr": 4767,
      "Ġtactile": 4768,
      "ĠProvide": 4769,
      "width": 4770,
      "ĠYouTube": 4771,
      "Ġbacteria": 4772,
      "utorials": 4773,
      "Ġanxiety": 4774,
      "ĠBayesian": 4775,
      "64": 4776,
      "='": 4777,
      "><": 4778,
      "AC": 4779,
      "From": 4780,
      "Field": 4781,
      "Get": 4782,
      "Link": 4783,
      "Ok": 4784,
      "Once": 4785,
      "bre": 4786,
      "bell": 4787,
      "da": 4788,
      "ey": 4789,
      "ech": 4790,
      "eighth": 4791,
      "gu": 4792,
      "hline": 4793,
      "ssh": 4794,
      "txt": 4795,
      "ufact": 4796,
      "zer": 4797,
      "zon": 4798,
      "}{": 4799,
      "Ã¡": 4800,
      "init": 4801,
      "hest": 4802,
      "herent": 4803,
      "erv": 4804,
      "Ġsch": 4805,
      "ancy": 4806,
      "orse": 4807,
      "esc": 4808,
      "itize": 4809,
      "Ġwolf": 4810,
      "Ġfive": 4811,
      "Ġfine": 4812,
      "Ġfavor": 4813,
      "Ġfuel": 4814,
      "Ġox": 4815,
      "Ġtown": 4816,
      "Ġbould": 4817,
      "osity": 4818,
      "osite": 4819,
      "ascript": 4820,
      "ashing": 4821,
      "eless": 4822,
      "Ġreve": 4823,
      "Ġrent": 4824,
      "Ġreput": 4825,
      "room": 4826,
      "rops": 4827,
      "Ġnail": 4828,
      "etime": 4829,
      "ster": 4830,
      "style": 4831,
      "ĠType": 4832,
      "Ġintellect": 4833,
      "ĠMarty": 4834,
      "Ġstack": 4835,
      "Ġstability": 4836,
      "Ġstories": 4837,
      "Ġorg": 4838,
      "Ġhelping": 4839,
      "ĠAfter": 4840,
      "ĠAcc": 4841,
      "ums": 4842,
      "ĠSm": 4843,
      "Ġvibr": 4844,
      "herry": 4845,
      "abric": 4846,
      "ĠCo": 4847,
      "ĠCir": 4848,
      "Ġdegre": 4849,
      "osaur": 4850,
      "Ġleave": 4851,
      "Ġshift": 4852,
      "Ġsex": 4853,
      "ĠEach": 4854,
      "ĠForm": 4855,
      "agon": 4856,
      "aged": 4857,
      "ĠRet": 4858,
      "ogs": 4859,
      "Ġtea": 4860,
      "irect": 4861,
      "aph": 4862,
      "ĠUsing": 4863,
      "avascript": 4864,
      "Ġdataframe": 4865,
      "ipher": 4866,
      "Ġcollection": 4867,
      "ĠStud": 4868,
      "othing": 4869,
      "Ġmath": 4870,
      "Ġinfring": 4871,
      "Ġexpression": 4872,
      "Ġplanning": 4873,
      "Ġsaw": 4874,
      "Ġkeyword": 4875,
      "Ġsignals": 4876,
      "Ġhumanity": 4877,
      "Ġowners": 4878,
      "Ġ2023": 4879,
      "Ġentertain": 4880,
      "Ġmultip": 4881,
      "Ġswallow": 4882,
      "Ġreduced": 4883,
      "Ġlearned": 4884,
      "Ġdiet": 4885,
      "Ġ},": 4886,
      "Ġgrowing": 4887,
      "Ġparagraph": 4888,
      "Ġcarefully": 4889,
      "Ġpackages": 4890,
      "Ġimplementing": 4891,
      "Ġimplemented": 4892,
      "ĠEuclidean": 4893,
      "Ġbenefit": 4894,
      "Ġcopy": 4895,
      "Ġmagic": 4896,
      "ooter": 4897,
      "itesimals": 4898,
      "Ġfrequen": 4899,
      "Ġdocumentation": 4900,
      "Ġframework": 4901,
      "color": 4902,
      "Ġvalidation": 4903,
      "Ġmeeting": 4904,
      "Ġadvantages": 4905,
      "Ġtreatment": 4906,
      "Ð°Ð": 4907,
      "Ġlicens": 4908,
      "Ġreceive": 4909,
      "Ġaudience": 4910,
      "Ġbecomes": 4911,
      "Ġguidance": 4912,
      "Ġguidelines": 4913,
      "Ġdomain": 4914,
      "Ġfacing": 4915,
      "Ġvacc": 4916,
      "ĠGreek": 4917,
      "Ġretrieve": 4918,
      "ĠTurkey": 4919,
      "Ġobstacles": 4920,
      "Ġtension": 4921,
      "Ġcouple": 4922,
      "Ġreliable": 4923,
      "Ġbeliefs": 4924,
      "kkit": 4925,
      "Chef": 4926,
      "Ġphenomen": 4927,
      "fanView": 4928,
      "Ġdegrees": 4929,
      ")^": 4930,
      "33": 4931,
      "87": 4932,
      "89": 4933,
      "??": 4934,
      "CT": 4935,
      "Cont": 4936,
      "Gener": 4937,
      "MO": 4938,
      "OIN": 4939,
      "Reg": 4940,
      "Verse": 4941,
      "cific": 4942,
      "dient": 4943,
      "iers": 4944,
      "long": 4945,
      "ned": 4946,
      "oop": 4947,
      "pg": 4948,
      "page": 4949,
      "pack": 4950,
      "ua": 4951,
      "ugg": 4952,
      "Ñĭ": 4953,
      "rehens": 4954,
      "Ġsem": 4955,
      "Ġciv": 4956,
      "Ġcooking": 4957,
      "alt": 4958,
      "Ġwel": 4959,
      "Ġwent": 4960,
      "Ġwomen": 4961,
      "Ġpages": 4962,
      "Ġfasc": 4963,
      "Ġmaster": 4964,
      "Ġbass": 4965,
      "Ġdough": 4966,
      "Ġdaugh": 4967,
      "array": 4968,
      "Ġecos": 4969,
      "Ġresist": 4970,
      "Ġnational": 4971,
      "igate": 4972,
      "iler": 4973,
      "emale": 4974,
      "Ġhero": 4975,
      "Ġconsole": 4976,
      "gebra": 4977,
      "Ġalm": 4978,
      "Ġalone": 4979,
      "ĠSim": 4980,
      "ĠSch": 4981,
      "Ġgenerated": 4982,
      "que": 4983,
      "Ġvill": 4984,
      "plies": 4985,
      "ĠPr": 4986,
      "ĠPre": 4987,
      "ĠPOS": 4988,
      "ĠHum": 4989,
      "Ġund": 4990,
      "Ġmeal": 4991,
      "Ġsevere": 4992,
      "ĠEd": 4993,
      "ĠBI": 4994,
      "udo": 4995,
      "Ġresize": 4996,
      "agen": 4997,
      "Ġcompat": 4998,
      "ustion": 4999,
      "ĠOb": 5000,
      "Ġclimate": 5001,
      "Ġincluded": 5002,
      "Ġtrade": 5003,
      "Ġadds": 5004,
      "Ġovercome": 5005,
      "ishing": 5006,
      "Ġsetup": 5007,
      "Ġcalm": 5008,
      "Ġrelax": 5009,
      "Ġinstalled": 5010,
      "Ġinterf": 5011,
      "redict": 5012,
      "Ġmedication": 5013,
      "Ġcover": 5014,
      "Ġsauce": 5015,
      "Ġcomputers": 5016,
      "Ġsociet": 5017,
      "Ġengage": 5018,
      "Ġlighting": 5019,
      "Ġ[]": 5020,
      "Ġguide": 5021,
      "Ġdiscrim": 5022,
      "ĠChoose": 5023,
      "Ġdiverse": 5024,
      "Ġediting": 5025,
      "Ġedges": 5026,
      "issions": 5027,
      "Ġboot": 5028,
      "Ġpassion": 5029,
      "Ġelected": 5030,
      "ĠâĢĵ": 5031,
      "Ġtook": 5032,
      "Ġready": 5033,
      "ĠWhy": 5034,
      "Ġargue": 5035,
      "Ġcustomers": 5036,
      "Ġcalls": 5037,
      "Ġloops": 5038,
      "Ġmole": 5039,
      "Ġsymbol": 5040,
      "Ġcausing": 5041,
      "Alien": 5042,
      "Ġdivide": 5043,
      "Ġexcellent": 5044,
      "being": 5045,
      "Ġverify": 5046,
      "Ġfighting": 5047,
      "Ġexpected": 5048,
      "greSQL": 5049,
      "Ġnormalization": 5050,
      "Ġquantum": 5051,
      "ARIT": 5052,
      "Ġmitosis": 5053,
      "ĠEnc": 5054,
      "Ġthreads": 5055,
      "Ġemotions": 5056,
      "cala": 5057,
      "Ġlatest": 5058,
      "Ġmistakes": 5059,
      "Ġkitchen": 5060,
      "Ġscenari": 5061,
      "Ġfertil": 5062,
      "Ġmoment": 5063,
      "Ġdensity": 5064,
      "Ġstyles": 5065,
      "Ġprotein": 5066,
      "ĠLearning": 5067,
      "ĠIrfanView": 5068,
      "Ġpandas": 5069,
      "shellscripts": 5070,
      "Ġdaughter": 5071,
      "Ġecosystem": 5072,
      ".)": 5073,
      "AV": 5074,
      "At": 5075,
      "Another": 5076,
      "Be": 5077,
      "GO": 5078,
      "PS": 5079,
      "Use": 5080,
      "])": 5081,
      "function": 5082,
      "ians": 5083,
      "mosp": 5084,
      "net": 5085,
      "ok": 5086,
      "pr": 5087,
      "pat": 5088,
      "person": 5089,
      "rical": 5090,
      "sign": 5091,
      "Ġtone": 5092,
      "Ġtried": 5093,
      "inant": 5094,
      "inate": 5095,
      "onic": 5096,
      "ened": 5097,
      "Ġcate": 5098,
      "ana": 5099,
      "Ġwait": 5100,
      "ingdom": 5101,
      "Ġfant": 5102,
      "Ġfelt": 5103,
      "Ġoce": 5104,
      "Ġine": 5105,
      "Ġinner": 5106,
      "Ġbur": 5107,
      "Ġbread": 5108,
      "Ġborn": 5109,
      "Ġbrief": 5110,
      "eline": 5111,
      "Ġhtml": 5112,
      "enty": 5113,
      "Ġlon": 5114,
      "rots": 5115,
      "Ġnan": 5116,
      "Ġnice": 5117,
      "eth": 5118,
      "idate": 5119,
      "iddle": 5120,
      "olved": 5121,
      "ĠMountain": 5122,
      "Ġcand": 5123,
      "ayer": 5124,
      "Ġstar": 5125,
      "Ġstunning": 5126,
      "rab": 5127,
      "Ġalgebra": 5128,
      "ĠSouth": 5129,
      "quer": 5130,
      "rix": 5131,
      "Ġdeal": 5132,
      "Ġdeeper": 5133,
      "illions": 5134,
      "Ġchance": 5135,
      "Ġchann": 5136,
      "Ġweap": 5137,
      "click": 5138,
      "Ġcontact": 5139,
      "ĠLa": 5140,
      "ards": 5141,
      "index": 5142,
      "Ġclock": 5143,
      "ĠNow": 5144,
      "Ġmanner": 5145,
      "Ġmanufact": 5146,
      "Ġsports": 5147,
      "avors": 5148,
      "Ġtherefore": 5149,
      "Ġoverview": 5150,
      "ĠJack": 5151,
      "Ġfunctional": 5152,
      "coming": 5153,
      "uba": 5154,
      "Ġvalu": 5155,
      "Ġformation": 5156,
      "Ġemb": 5157,
      "Ġpatent": 5158,
      "Ġphone": 5159,
      "Ġregul": 5160,
      "Ġreprodu": 5161,
      "Ġgoods": 5162,
      "nesses": 5163,
      "Ġhandling": 5164,
      "Ġfactor": 5165,
      "Ġapproaches": 5166,
      "egel": 5167,
      "Ġsweet": 5168,
      "lugin": 5169,
      "Ġcontinuous": 5170,
      "Ġfamiliar": 5171,
      "ĠReact": 5172,
      "Ġbrand": 5173,
      "Ġavailability": 5174,
      "Ġchecks": 5175,
      "Ġmassive": 5176,
      "Ġvirus": 5177,
      "Ġdogs": 5178,
      "making": 5179,
      "Ġeventually": 5180,
      "Ġexperienced": 5181,
      "Ġprotection": 5182,
      "vantages": 5183,
      "Ġprofession": 5184,
      "Ġpresident": 5185,
      "Ġcontributed": 5186,
      "Ġviews": 5187,
      "Ġobserv": 5188,
      "Ġprivacy": 5189,
      "Ġearli": 5190,
      "ĠImage": 5191,
      "Ġbusinesses": 5192,
      "Ġcleaning": 5193,
      "Ġjoke": 5194,
      "ructured": 5195,
      "column": 5196,
      "ĠInstall": 5197,
      "Ġphotos": 5198,
      "return": 5199,
      "Ġprimarily": 5200,
      "Ġindependence": 5201,
      "Ġdestination": 5202,
      "Ġelectricity": 5203,
      "ÐµÐ": 5204,
      "Ġabsor": 5205,
      "Ġflexibility": 5206,
      "Ġprioritize": 5207,
      "Ġfishing": 5208,
      "Ġemployees": 5209,
      "Ġattribute": 5210,
      "ĠGuix": 5211,
      "Ġevaluate": 5212,
      "Ġmixture": 5213,
      "Ġsustainable": 5214,
      "Ġbattery": 5215,
      "ambda": 5216,
      "Ġencounter": 5217,
      "Ġingredients": 5218,
      "oplan": 5219,
      "problems": 5220,
      "Ġtunneling": 5221,
      "Ġrapid": 5222,
      "Ġtrends": 5223,
      "Ġastronom": 5224,
      "Ġbranch": 5225,
      "Ġaccompl": 5226,
      "Ġhidden": 5227,
      "Ġcommercial": 5228,
      "Ġcapacity": 5229,
      "Ġenhance": 5230,
      "Ġacademic": 5231,
      "Ġintellectual": 5232,
      "agonist": 5233,
      "ARITATE": 5234,
      "Br": 5235,
      "Cons": 5236,
      "File": 5237,
      "Press": 5238,
      "Tr": 5239,
      "Type": 5240,
      "Us": 5241,
      "Using": 5242,
      "WS": 5243,
      "aur": 5244,
      "ares": 5245,
      "aign": 5246,
      "bot": 5247,
      "cher": 5248,
      "des": 5249,
      "fol": 5250,
      "iance": 5251,
      "oke": 5252,
      "overy": 5253,
      "rs": 5254,
      "ygen": 5255,
      "Ã¤": 5256,
      "Ġ@": 5257,
      "Ġ]": 5258,
      "Ġ```": 5259,
      "Ġiron": 5260,
      "Ġtend": 5261,
      "inf": 5262,
      "rect": 5263,
      "encies": 5264,
      "Ġson": 5265,
      "Ġcow": 5266,
      "Ġpd": 5267,
      "Ġpull": 5268,
      "icy": 5269,
      "inger": 5270,
      "Ġfict": 5271,
      "Ġtow": 5272,
      "Ġbul": 5273,
      "Ġdie": 5274,
      "Ġhar": 5275,
      "Ġhab": 5276,
      "Ġloved": 5277,
      "Ġrein": 5278,
      "Ġrect": 5279,
      "Ġrevolution": 5280,
      "rol": 5281,
      "Ġnorm": 5282,
      "Ġnone": 5283,
      "iforn": 5284,
      "string": 5285,
      "iments": 5286,
      "owl": 5287,
      "ĠTe": 5288,
      "ĠMX": 5289,
      "Ġstri": 5290,
      "oday": 5291,
      "odies": 5292,
      "rad": 5293,
      "Ġarr": 5294,
      "ĠAtt": 5295,
      "ĠSk": 5296,
      "Ġartist": 5297,
      "hern": 5298,
      "ĠCherry": 5299,
      "ĠCARITATE": 5300,
      "ighb": 5301,
      "Ġsuff": 5302,
      "Ġneur": 5303,
      "Ġneighb": 5304,
      "ĠPol": 5305,
      "Ġrough": 5306,
      "Ġchlor": 5307,
      "ĠHave": 5308,
      "Ġshown": 5309,
      "pped": 5310,
      "Ġnoting": 5311,
      "active": 5312,
      "Ġwealth": 5313,
      "ĠRL": 5314,
      "Ġcomprehens": 5315,
      "Ġatmosp": 5316,
      "ĠGener": 5317,
      "ĠGood": 5318,
      "ĠNext": 5319,
      "Ġ24": 5320,
      "Ġ26": 5321,
      "Ġspeak": 5322,
      "Ġspend": 5323,
      "Ġevil": 5324,
      "ĠInitial": 5325,
      "Ġserve": 5326,
      "Ġindicate": 5327,
      "orde": 5328,
      "current": 5329,
      "Ġrelative": 5330,
      "Ġthanks": 5331,
      "Ġfolk": 5332,
      "Ġdeveloper": 5333,
      "Ġplays": 5334,
      "Ġpatents": 5335,
      "Ġofficial": 5336,
      "Ġlisted": 5337,
      "Ġsolid": 5338,
      "Ġdistinct": 5339,
      "Ġdecided": 5340,
      "ometric": 5341,
      "Ġtypical": 5342,
      "Ġdefeat": 5343,
      "Ġsigns": 5344,
      "Ġsignature": 5345,
      "Ġrefere": 5346,
      "Ġago": 5347,
      "Ġremote": 5348,
      "Ġcorpor": 5349,
      "Ġcorrespon": 5350,
      "Ġ$\\": 5351,
      "Ġsheets": 5352,
      "Ġclassic": 5353,
      "Ġincreases": 5354,
      "Ġvisible": 5355,
      "lik": 5356,
      "eez": 5357,
      "Who": 5358,
      "Ġstudies": 5359,
      "ĠOpenAI": 5360,
      "riven": 5361,
      "Ġmarkdown": 5362,
      "Therefore": 5363,
      "Ġanimation": 5364,
      "Ġbiological": 5365,
      "Ġmoves": 5366,
      "Ġinternal": 5367,
      "backs": 5368,
      "Ġstatus": 5369,
      "ĠThree": 5370,
      "ĠSpain": 5371,
      "Ġengineers": 5372,
      "mazon": 5373,
      "Ġcourses": 5374,
      "Ġinteractions": 5375,
      "Ġcustomer": 5376,
      "ĠIntelligence": 5377,
      "Ġrobust": 5378,
      "Ġmagical": 5379,
      "Ġobserved": 5380,
      "Ġadapted": 5381,
      "Additionally": 5382,
      "Ġconversations": 5383,
      "Ġmonths": 5384,
      "Ġfarming": 5385,
      "Ġmotion": 5386,
      "Ġexciting": 5387,
      "Ġroutine": 5388,
      "Ġforeign": 5389,
      "Ġmoral": 5390,
      "Ġmorning": 5391,
      "Ġdisplayed": 5392,
      "Ġregarding": 5393,
      "Ġminimize": 5394,
      "Ġsatell": 5395,
      "Ġsurvival": 5396,
      "Ġestablished": 5397,
      "rosoft": 5398,
      "Ġkilog": 5399,
      "Ġkilometers": 5400,
      "Ġprecise": 5401,
      "Ġdiseases": 5402,
      "Ġauthentic": 5403,
      "Ġattacks": 5404,
      "Ġantibiotic": 5405,
      "Ġcircum": 5406,
      "Ġhoriz": 5407,
      "SCI": 5408,
      "Ġdemocracy": 5409,
      "ĠWebS": 5410,
      "layout": 5411,
      "Ġpurchase": 5412,
      "Ġopinions": 5413,
      "Ġcampaign": 5414,
      "Ġconsciousness": 5415,
      "Ġcompletely": 5416,
      "Ġschedule": 5417,
      "ĠPostgreSQL": 5418,
      "Ġabstract": 5419,
      "Ġbudget": 5420,
      "ĠCirc": 5421,
      "Ġvaluable": 5422,
      "ifornia": 5423,
      "#\">": 5424,
      "66": 5425,
      "70": 5426,
      "75": 5427,
      "BI": 5428,
      "Bu": 5429,
      "Does": 5430,
      "Give": 5431,
      "HT": 5432,
      "NS": 5433,
      "Out": 5434,
      "SV": 5435,
      "She": 5436,
      "awn": 5437,
      "distance": 5438,
      "even": 5439,
      "hib": 5440,
      "iam": 5441,
      "jacent": 5442,
      "lat": 5443,
      "many": 5444,
      "pes": 5445,
      "pir": 5446,
      "pared": 5447,
      "rus": 5448,
      "rams": 5449,
      "send": 5450,
      "vis": 5451,
      "your": 5452,
      "Â·": 5453,
      "Ñı": 5454,
      "Ġtutorials": 5455,
      "erlin": 5456,
      "Ġsyn": 5457,
      "Ġsection": 5458,
      "Ġsamples": 5459,
      "Ġcra": 5460,
      "Ġcities": 5461,
      "Ġcogn": 5462,
      "orough": 5463,
      "Ġann": 5464,
      "esla": 5465,
      "Ġwall": 5466,
      "Ġpil": 5467,
      "icit": 5468,
      "icing": 5469,
      "Ġfill": 5470,
      "Ġfemale": 5471,
      "Ġocc": 5472,
      "Ġmother": 5473,
      "Ġincon": 5474,
      "Ġban": 5475,
      "Ġbed": 5476,
      "aser": 5477,
      "Ġhi": 5478,
      "Ġgave": 5479,
      "Ġnode": 5480,
      "Ġhear": 5481,
      "ament": 5482,
      "change": 5483,
      "Ġstd": 5484,
      "Ġproced": 5485,
      "Ġexoplan": 5486,
      "Ġcomments": 5487,
      "Ġalert": 5488,
      "Ġvamp": 5489,
      "elligent": 5490,
      "ĠCython": 5491,
      "ptions": 5492,
      "Ġ\"\"": 5493,
      "ĠPar": 5494,
      "Ġrich": 5495,
      "Ġimplications": 5496,
      "Ġ($": 5497,
      "Ġunc": 5498,
      "Ġunits": 5499,
      "Ġmeets": 5500,
      "Ġnotes": 5501,
      "Ġnotice": 5502,
      "ĠElect": 5503,
      "Ġadminist": 5504,
      "Ġadjacent": 5505,
      "ĠBob": 5506,
      "ĠDAN": 5507,
      "cloud": 5508,
      "Ġkm": 5509,
      "ĠLook": 5510,
      "Ġscreens": 5511,
      "Ġquiet": 5512,
      "Ġqueries": 5513,
      "Ġdiffer": 5514,
      "duc": 5515,
      "anges": 5516,
      "Ġclients": 5517,
      "Ġfung": 5518,
      "Ġjud": 5519,
      "ĠUp": 5520,
      "Ġoutline": 5521,
      "Ġoutcome": 5522,
      "Ġpercent": 5523,
      "iented": 5524,
      "Ġtrouble": 5525,
      "ĠJOIN": 5526,
      "comes": 5527,
      "Ġmetagen": 5528,
      "Ġworked": 5529,
      "Ġexploration": 5530,
      "oving": 5531,
      "Ġwants": 5532,
      "standing": 5533,
      "().": 5534,
      "():": 5535,
      "Ġlisten": 5536,
      "Ġinflation": 5537,
      "Ġinterview": 5538,
      "Ġpoly": 5539,
      "Ġcoefficient": 5540,
      "ĠAsia": 5541,
      "Ġruns": 5542,
      "Ġflight": 5543,
      "Ġassess": 5544,
      "Ġ2022": 5545,
      "Ġshel": 5546,
      "=\"#\">": 5547,
      "Ġmush": 5548,
      "Ġkeeping": 5549,
      "Ġscripts": 5550,
      "Ġcalculated": 5551,
      "Ġcontinued": 5552,
      "Ġconcent": 5553,
      "ĠExpl": 5554,
      "Ġsignificance": 5555,
      "Ġmachines": 5556,
      "Ġfinish": 5557,
      "Ġthoughts": 5558,
      "hematics": 5559,
      "Ġpreference": 5560,
      "Ġbalanced": 5561,
      "Ġwarning": 5562,
      "inglets": 5563,
      "Ġcombustion": 5564,
      "Ġnecessarily": 5565,
      "Ġaccurately": 5566,
      "Ġautomation": 5567,
      "Ġwidth": 5568,
      "Ġmoist": 5569,
      "Ġhighest": 5570,
      "Ġsalt": 5571,
      "Ġdelicious": 5572,
      "Add": 5573,
      "Ġgained": 5574,
      "Ġanalyzing": 5575,
      "ĠCalifornia": 5576,
      "Ġexplanations": 5577,
      "Ġoppon": 5578,
      "Ġimagine": 5579,
      "suming": 5580,
      "Ġinterpreted": 5581,
      "ipping": 5582,
      "Ġemotional": 5583,
      "Ġpsych": 5584,
      "Ġawareness": 5585,
      "Ġprobability": 5586,
      "Ġclimbing": 5587,
      "Ġinfinitesimals": 5588,
      "Ġftp": 5589,
      "Ġpanels": 5590,
      "ĠAfrican": 5591,
      "ĠFrance": 5592,
      "Ġbottom": 5593,
      "Account": 5594,
      "ĠMicrosoft": 5595,
      "Ġspirit": 5596,
      "Result": 5597,
      "allel": 5598,
      "Ġincredible": 5599,
      "Ġusername": 5600,
      "Ġtheorem": 5601,
      "ĠWordPress": 5602,
      "Ġsatisf": 5603,
      "Ġaccommodations": 5604,
      "Ġemergency": 5605,
      "Ġgirl": 5606,
      "Ġoxygen": 5607,
      "Ġaccomplish": 5608,
      "Ġfictional": 5609,
      "ĠCircuit": 5610,
      "''": 5611,
      "29": 5612,
      "3000": 5613,
      "Bl": 5614,
      "Button": 5615,
      "Game": 5616,
      "IX": 5617,
      "Plugin": 5618,
      "\\_": 5619,
      "ecurity": 5620,
      "iver": 5621,
      "lib": 5622,
      "pi": 5623,
      "rich": 5624,
      "rics": 5625,
      "then": 5626,
      "var": 5627,
      "week": 5628,
      "Ã¼": 5629,
      "Ġtrip": 5630,
      "Ġtouch": 5631,
      "inates": 5632,
      "reg": 5633,
      "rel": 5634,
      "rend": 5635,
      "atus": 5636,
      "Ġsell": 5637,
      "Ġanime": 5638,
      "iter": 5639,
      "itable": 5640,
      "Ġwal": 5641,
      "Ġpi": 5642,
      "Ġpair": 5643,
      "ician": 5644,
      "Ġfo": 5645,
      "Ġfusion": 5646,
      "Ġfox": 5647,
      "Ġmob": 5648,
      "Ġtoler": 5649,
      "Ġdu": 5650,
      "Ġdrop": 5651,
      "aration": 5652,
      "asks": 5653,
      "elesc": 5654,
      "Ġthorough": 5655,
      "Ġgar": 5656,
      "Ġgold": 5657,
      "istical": 5658,
      "Ġlab": 5659,
      "Ġlapt": 5660,
      "Ġreform": 5661,
      "urch": 5662,
      "imation": 5663,
      "Ġheard": 5664,
      "idents": 5665,
      "ĠTunis": 5666,
      "ĠMem": 5667,
      "ĠMore": 5668,
      "ĠĠĠĠĠĠ": 5669,
      "Ġproxim": 5670,
      "Ġexit": 5671,
      "ada": 5672,
      "ĠSince": 5673,
      "Ġartists": 5674,
      "Ġvs": 5675,
      "Ġdeploy": 5676,
      "ĠPe": 5677,
      "rome": 5678,
      "Ġchuck": 5679,
      "ĠHer": 5680,
      "Ġunf": 5681,
      "inear": 5682,
      "pping": 5683,
      "Ġnoticed": 5684,
      "ocial": 5685,
      "Ġmaze": 5686,
      "Ġplot": 5687,
      "ĠBen": 5688,
      "ĠBit": 5689,
      "ĠBefore": 5690,
      "ĠRun": 5691,
      "Ġcompiled": 5692,
      "Ġkn": 5693,
      "Ġkernel": 5694,
      "ĠGMO": 5695,
      "formance": 5696,
      "ĠLarge": 5697,
      "Ġcreature": 5698,
      "Ġdatetime": 5699,
      "ĠOut": 5700,
      "ĠNot": 5701,
      "ĠNetw": 5702,
      "ĠNote": 5703,
      "apan": 5704,
      "Ġpret": 5705,
      "ensor": 5706,
      "Ġperm": 5707,
      "Ġdiss": 5708,
      "group": 5709,
      "Ġtruly": 5710,
      "Ġmyself": 5711,
      "Ġrocket": 5712,
      "comfort": 5713,
      "lobal": 5714,
      "Ġnumpy": 5715,
      "Ġnumerous": 5716,
      "Ġapplying": 5717,
      "Ġefforts": 5718,
      "phony": 5719,
      "Ġpeace": 5720,
      "Ġapplied": 5721,
      "Ġsettle": 5722,
      "ruption": 5723,
      "Ġgets": 5724,
      "Ġinformed": 5725,
      "rought": 5726,
      "Ġexplicit": 5727,
      "oves": 5728,
      "Ġregions": 5729,
      "rows": 5730,
      "Ġcurious": 5731,
      "Ġcompleted": 5732,
      "Ġexpensive": 5733,
      "Ġmedications": 5734,
      "plicated": 5735,
      "Ġremorse": 5736,
      "Ġrecently": 5737,
      "Ġyearly": 5738,
      "Ġpossess": 5739,
      "Ġdesigning": 5740,
      "oyal": 5741,
      "Ġasset": 5742,
      "Ġassume": 5743,
      "Ġimproving": 5744,
      "Ġguess": 5745,
      "Ġinsights": 5746,
      "Ġconfirm": 5747,
      "bersecurity": 5748,
      "Str": 5749,
      "ecause": 5750,
      "ĠChar": 5751,
      "Ġaccident": 5752,
      "Ġletters": 5753,
      "Ġcalculates": 5754,
      "Ġcontrolled": 5755,
      "Ġharder": 5756,
      "Ġcarrots": 5757,
      "Ġcareer": 5758,
      "Ġcareful": 5759,
      "Ġorganic": 5760,
      "ĠArt": 5761,
      "Ġshowing": 5762,
      "Ġcharacteristics": 5763,
      "Ġresponsibilities": 5764,
      "Ġfoods": 5765,
      "Ġbasis": 5766,
      "Ġsignificantly": 5767,
      "Listener": 5768,
      "Ġstatements": 5769,
      "Ġlikelihood": 5770,
      "Ġhydr": 5771,
      "Ġlandsc": 5772,
      "dev": 5773,
      "Ġsaying": 5774,
      "Ġmaintaining": 5775,
      "Ġappears": 5776,
      "Ġunivers": 5777,
      "Ġpoem": 5778,
      "Ġmonthly": 5779,
      "Ġsorted": 5780,
      "ĠSelect": 5781,
      "Ġlogic": 5782,
      "Ġroute": 5783,
      "Ġregardless": 5784,
      "Ġcards": 5785,
      "Ġassistance": 5786,
      "Ġminimum": 5787,
      "Ġsynd": 5788,
      "Ġparameter": 5789,
      "Ġattempts": 5790,
      "Ġreceived": 5791,
      "ĠMancala": 5792,
      "ĠQuery": 5793,
      "Ġintroduced": 5794,
      "Ġstrengths": 5795,
      "Ġinterpret": 5796,
      "Ġperspectives": 5797,
      "Ġsimplify": 5798,
      "Ġincreasingly": 5799,
      "Ġnavigate": 5800,
      "Ġrestrictions": 5801,
      "Ġdatasets": 5802,
      "Ġvulnerabilities": 5803,
      "Ġmicro": 5804,
      "Ġliquid": 5805,
      "Ġcitizen": 5806,
      "Ġappreciate": 5807,
      "Ġaffordable": 5808,
      "Ġnutrients": 5809,
      "clusive": 5810,
      "Ġmasked": 5811,
      "Ġbouldering": 5812,
      "Ġvibrant": 5813,
      "Ġfrequency": 5814,
      "Ġcognitive": 5815,
      "\\_|": 5816,
      "Ġproximity": 5817,
      "\"?": 5818,
      "((": 5819,
      "24": 5820,
      "28": 5821,
      "After": 5822,
      "BSD": 5823,
      "CO": 5824,
      "Col": 5825,
      "Frame": 5826,
      "Id": 5827,
      "Key": 5828,
      "MD": 5829,
      "Or": 5830,
      "Par": 5831,
      "POS": 5832,
      "SP": 5833,
      "bin": 5834,
      "javascript": 5835,
      "mark": 5836,
      "normal": 5837,
      "ped": 5838,
      "rt": 5839,
      "run": 5840,
      "rum": 5841,
      "rout": 5842,
      "with": 5843,
      "yl": 5844,
      "Ġtit": 5845,
      "inator": 5846,
      "resistant": 5847,
      "oni": 5848,
      "Ġtheories": 5849,
      "Ġsite": 5850,
      "Ġcrops": 5851,
      "ancing": 5852,
      "orking": 5853,
      "ising": 5854,
      "alysis": 5855,
      "itution": 5856,
      "Ġwings": 5857,
      "Ġwoman": 5858,
      "Ġpose": 5859,
      "icking": 5860,
      "icks": 5861,
      "Ġfont": 5862,
      "arats": 5863,
      "osen": 5864,
      "uster": 5865,
      "omial": 5866,
      "Ġgiving": 5867,
      "Ġeu": 5868,
      "Ġeager": 5869,
      "Ġrely": 5870,
      "Ġnose": 5871,
      "eta": 5872,
      "iful": 5873,
      "Ġisol": 5874,
      "ulating": 5875,
      "olves": 5876,
      "chain": 5877,
      "ĠTesla": 5878,
      "ĠMer": 5879,
      "ĠMed": 5880,
      "ĠMort": 5881,
      "Ġonclick": 5882,
      "Ġstir": 5883,
      "ĠAc": 5884,
      "ĠAg": 5885,
      "ĠAir": 5886,
      "ĠAuto": 5887,
      "ĠAmazon": 5888,
      "Ġexpon": 5889,
      "Ġexternal": 5890,
      "quently": 5891,
      "essage": 5892,
      "Ġvia": 5893,
      "open": 5894,
      "ĠCSS": 5895,
      "Ġsugar": 5896,
      "pty": 5897,
      "Ġ\"\\": 5898,
      "ĠPrint": 5899,
      "Ġrom": 5900,
      "ĠHegel": 5901,
      "Ġnotation": 5902,
      "Ġnotable": 5903,
      "Ġworse": 5904,
      "Ġplans": 5905,
      "Ġplenty": 5906,
      "ĠEdit": 5907,
      "ĠWrite": 5908,
      "ĠBack": 5909,
      "ĠBash": 5910,
      "Ġweigh": 5911,
      "Ġresume": 5912,
      "Ġcompar": 5913,
      "Ġcompost": 5914,
      "ĠGr": 5915,
      "ĠGlobal": 5916,
      "formation": 5917,
      "ffect": 5918,
      "acing": 5919,
      "acher": 5920,
      "anged": 5921,
      "ĠOd": 5922,
      "bert": 5923,
      "Ġmodified": 5924,
      "Ġoutcomes": 5925,
      "Ġthemes": 5926,
      "Ġtraffic": 5927,
      "gricult": 5928,
      "Ġtrig": 5929,
      "Ġtrick": 5930,
      "context": 5931,
      "Ġprices": 5932,
      "Ġrock": 5933,
      "Ġroots": 5934,
      "ĠJust": 5935,
      "ossible": 5936,
      "Ġserves": 5937,
      "php": 5938,
      "ordinates": 5939,
      "Input": 5940,
      "Ġsimulate": 5941,
      "Ġrelief": 5942,
      "ĠString": 5943,
      "Ġraces": 5944,
      "Ġlists": 5945,
      "Ġlistening": 5946,
      "ractice": 5947,
      "Ġpersonality": 5948,
      "Ġpolyn": 5949,
      "Ġtexture": 5950,
      "Ġstarts": 5951,
      "Ġgrant": 5952,
      "Ġgrand": 5953,
      "Ġowned": 5954,
      "Ġleads": 5955,
      "Ġextend": 5956,
      "Ġimproved": 5957,
      "Ġentity": 5958,
      "Ġguy": 5959,
      "Ġmonkey": 5960,
      "ĠĠĠĠĠĠĠĠĊ": 5961,
      "ĠUni": 5962,
      "Ġconnections": 5963,
      "Ġequations": 5964,
      "Ġimprovement": 5965,
      "Which": 5966,
      "Ġprotot": 5967,
      "Ġmultiplication": 5968,
      "Ġparallel": 5969,
      "Ġstudying": 5970,
      "Ġoperation": 5971,
      "Ġreading": 5972,
      "ĠRevolution": 5973,
      "Ġterrit": 5974,
      "ĠArch": 5975,
      "Ġ80": 5976,
      "Ġbreed": 5977,
      "Ġorigin": 5978,
      "Ġmanaged": 5979,
      "yram": 5980,
      "Ġencoura": 5981,
      "Ġhypot": 5982,
      "ĠZack": 5983,
      "Ġexperiencing": 5984,
      "ĠIsra": 5985,
      "Ġcustomize": 5986,
      "Ġreleased": 5987,
      "loads": 5988,
      "ĠaccountNumber": 5989,
      "Ġblocks": 5990,
      "Ġspecialized": 5991,
      "Ġsummar": 5992,
      "ontal": 5993,
      "Ġexecute": 5994,
      "Ġbeginning": 5995,
      "Ġstandards": 5996,
      "Ġsongs": 5997,
      "arcus": 5998,
      "Ġwindows": 5999,
      "Ġforest": 6000,
      "ÂłÂłÂłÂłÂłÂłÂł": 6001,
      "Ġloading": 6002,
      "Ġreaction": 6003,
      "Ġsentence": 6004,
      "Ġbattle": 6005,
      "Ġsensitive": 6006,
      "undred": 6007,
      "ĠResearch": 6008,
      "Ġangles": 6009,
      "Ġreviews": 6010,
      "Ġphilosop": 6011,
      "Ġreferring": 6012,
      "ĠMySQLi": 6013,
      "margin": 6014,
      "Ġdemocratic": 6015,
      "Ġutil": 6016,
      "ĠBuild": 6017,
      "ĠAfrica": 6018,
      "ĠSwiss": 6019,
      "Ġvegetables": 6020,
      "Ġshopping": 6021,
      "frac": 6022,
      "ĠAustralia": 6023,
      "Ġimmediately": 6024,
      "Ġapproximately": 6025,
      "Ġperceive": 6026,
      "Ġsequence": 6027,
      "Ġcrystal": 6028,
      "reactions": 6029,
      "Ġconventions": 6030,
      "Ġneutral": 6031,
      "Ġcontrolling": 6032,
      "Ġconfiguration": 6033,
      "Content": 6034,
      "Ġcivil": 6035,
      "Ġsocieties": 6036,
      "Ġcategor": 6037,
      "Ġearlier": 6038,
      "Ġatmosphere": 6039,
      "ĠWebSocket": 6040,
      "Ġuncertain": 6041,
      "aratsuba": 6042,
      "38": 6043,
      "39": 6044,
      "5000": 6045,
      "En": 6046,
      "FET": 6047,
      "Great": 6048,
      "KU": 6049,
      "Per": 6050,
      "Sc": 6051,
      "Sub": 6052,
      "VID": 6053,
      "_{": 6054,
      "best": 6055,
      "days": 6056,
      "gres": 6057,
      "house": 6058,
      "ipl": 6059,
      "kens": 6060,
      "ktop": 6061,
      "local": 6062,
      "no": 6063,
      "pan": 6064,
      "rition": 6065,
      "sort": 6066,
      "ship": 6067,
      "tra": 6068,
      "title": 6069,
      "tasks": 6070,
      "uper": 6071,
      "ugh": 6072,
      "ynt": 6073,
      "zilla": 6074,
      "ÃŃ": 6075,
      "Ġ...": 6076,
      "Ġtight": 6077,
      "Ġtiny": 6078,
      "erry": 6079,
      "erious": 6080,
      "error": 6081,
      "erator": 6082,
      "Ġsrc": 6083,
      "Ġca": 6084,
      "Ġcats": 6085,
      "orge": 6086,
      "isp": 6087,
      "oun": 6088,
      "aled": 6089,
      "itate": 6090,
      "itors": 6091,
      "itutions": 6092,
      "Ġwit": 6093,
      "Ġwinglets": 6094,
      "Ġpal": 6095,
      "Ġple": 6096,
      "Ġpig": 6097,
      "Ġpip": 6098,
      "Ġpark": 6099,
      "ingu": 6100,
      "Ġfirm": 6101,
      "Ġmel": 6102,
      "Ġmol": 6103,
      "Ġmillions": 6104,
      "Ġtomor": 6105,
      "Ġble": 6106,
      "Ġbinary": 6107,
      "Ġbowl": 6108,
      "Ġdol": 6109,
      "lean": 6110,
      "left": 6111,
      "Ġthus": 6112,
      "Ġhom": 6113,
      "Ġhur": 6114,
      "Ġham": 6115,
      "Ġhop": 6116,
      "Ġhalf": 6117,
      "Ġhundred": 6118,
      "Ġgin": 6119,
      "Ġyes": 6120,
      "Ġlyr": 6121,
      "Ġlinks": 6122,
      "Ġloyal": 6123,
      "eterm": 6124,
      "ifts": 6125,
      "stood": 6126,
      "imately": 6127,
      "Ġforces": 6128,
      "Ġforget": 6129,
      "iding": 6130,
      "otkey": 6131,
      "ĠTop": 6132,
      "unt": 6133,
      "ĠMac": 6134,
      "ĠMars": 6135,
      "ĠMarcus": 6136,
      "Ġcanvas": 6137,
      "iration": 6138,
      "Ġhelped": 6139,
      "ĠAct": 6140,
      "umes": 6141,
      "ĠSD": 6142,
      "ĠSS": 6143,
      "ĠSil": 6144,
      "quest": 6145,
      "Ġvoid": 6146,
      "opter": 6147,
      "thal": 6148,
      "Ġdecks": 6149,
      "output": 6150,
      "esting": 6151,
      "estamp": 6152,
      "plot": 6153,
      "ĠPL": 6154,
      "Ġround": 6155,
      "romos": 6156,
      "Ġmeat": 6157,
      "ĠWild": 6158,
      "resh": 6159,
      "ĠBoth": 6160,
      "ĠBGP": 6161,
      "Ġenem": 6162,
      "ĠFred": 6163,
      "Ġresolve": 6164,
      "agine": 6165,
      "agram": 6166,
      "ndum": 6167,
      "Ġknew": 6168,
      "ĠLED": 6169,
      "inder": 6170,
      "Ġque": 6171,
      "ĠNFT": 6172,
      "Ġmanual": 6173,
      "Ġwouldn": 6174,
      "ĠIts": 6175,
      "ĠItem": 6176,
      "Ġsport": 6177,
      "Ġprepar": 6178,
      "Ġpregn": 6179,
      "aves": 6180,
      "aving": 6181,
      "Ġtraditions": 6182,
      "Ġcouldn": 6183,
      "Ġoverw": 6184,
      "Ġknowing": 6185,
      "ĠJoin": 6186,
      "ĠJapan": 6187,
      "Ġservers": 6188,
      "Ġapps": 6189,
      "phone": 6190,
      "Ġamaz": 6191,
      "Ġexperts": 6192,
      "Ġbucket": 6193,
      "Ġexplos": 6194,
      "Ġexploring": 6195,
      "()`": 6196,
      "Ġsold": 6197,
      "Ġinfections": 6198,
      "Ġcurved": 6199,
      "Ġdecide": 6200,
      "Ġdecades": 6201,
      "Ġmedic": 6202,
      "Ġmainly": 6203,
      "Ġseeing": 6204,
      "Ġskin": 6205,
      "Ġflavors": 6206,
      "Ġeffectiveness": 6207,
      "Ġensuring": 6208,
      "arsh": 6209,
      "Ġaccel": 6210,
      "Ġrealized": 6211,
      "Ġboost": 6212,
      "Ġcalculations": 6213,
      "Ġcenturies": 6214,
      "Ġprotagonist": 6215,
      "Ġcontaining": 6216,
      "Ġconsidering": 6217,
      "ĠOpenBSD": 6218,
      "Ġsummer": 6219,
      "Ġimpacts": 6220,
      "ĠWhite": 6221,
      "Ġelection": 6222,
      "198": 6223,
      "Ġfinally": 6224,
      "Ġdetermined": 6225,
      "Ġlayers": 6226,
      "Ġmeasuring": 6227,
      "Ġsites": 6228,
      "Ġbias": 6229,
      "Ġzoo": 6230,
      "Ġfriendly": 6231,
      "Ġdrawn": 6232,
      "ĠNecklaces": 6233,
      "ĠZone": 6234,
      "Ġmeaningful": 6235,
      "Ġescape": 6236,
      "Ġbeneficial": 6237,
      "Weather": 6238,
      "Ġinteractive": 6239,
      "Ġstronger": 6240,
      "ĠDecl": 6241,
      "Ġadjusting": 6242,
      "Ġrecognition": 6243,
      "attribut": 6244,
      "Ġindustries": 6245,
      "Ġdetected": 6246,
      "Ġjoin": 6247,
      "Ġoccurs": 6248,
      "Ġ180": 6249,
      "Ġgloves": 6250,
      "Ġminimal": 6251,
      "Ġnuts": 6252,
      "--------------------------------": 6253,
      "Ġabsol": 6254,
      "Ġslower": 6255,
      "Ġextensions": 6256,
      "ivalent": 6257,
      "Ġperiods": 6258,
      "Ġexpressed": 6259,
      "Ġfigures": 6260,
      "Ġsubstance": 6261,
      "Ġincorporate": 6262,
      "ASA": 6263,
      "ASE": 6264,
      "response": 6265,
      "Ġhorror": 6266,
      "Ġprobably": 6267,
      "Ġpolicyholders": 6268,
      "ĠConsider": 6269,
      "Ġwatching": 6270,
      "Ġaccepted": 6271,
      "Ġdivided": 6272,
      "Ġphilosophical": 6273,
      "ĠArrayList": 6274,
      "Ġalpha": 6275,
      "Ġgalaxies": 6276,
      "Ġbeautiful": 6277,
      "Ġrhyth": 6278,
      "Ġearthquake": 6279,
      "Ġbarrier": 6280,
      "Ġmysterious": 6281,
      "Ġgradually": 6282,
      "Ġreputation": 6283,
      "ĠReturn": 6284,
      "Ġwelcome": 6285,
      "Ġreferendum": 6286,
      "Ġmobile": 6287,
      "Ġpolynomial": 6288,
      "Ġtomorrow": 6289,
      "Ġlyrics": 6290,
      "!!": 6291,
      "-|": 6292,
      "100": 6293,
      "76": 6294,
      "800": 6295,
      "App": 6296,
      "All": 6297,
      "API": 6298,
      "Dis": 6299,
      "Data": 6300,
      "EA": 6301,
      "Hand": 6302,
      "LO": 6303,
      "Le": 6304,
      "OT": 6305,
      "Other": 6306,
      "Point": 6307,
      "UT": 6308,
      "Un": 6309,
      "Value": 6310,
      "Well": 6311,
      "aware": 6312,
      "ban": 6313,
      "fess": 6314,
      "free": 6315,
      "late": 6316,
      "lene": 6317,
      "mand": 6318,
      "post": 6319,
      "predict": 6320,
      "rd": 6321,
      "rist": 6322,
      "rial": 6323,
      "sp": 6324,
      "vents": 6325,
      "Ġ..": 6326,
      "Ġagg": 6327,
      "Ġagricult": 6328,
      "Ġtri": 6329,
      "rete": 6330,
      "erus": 6331,
      "erot": 6332,
      "atile": 6333,
      "Ġsan": 6334,
      "Ġsurp": 6335,
      "Ġslic": 6336,
      "Ġcube": 6337,
      "Ġcodes": 6338,
      "Ġcoding": 6339,
      "alcon": 6340,
      "Ġwa": 6341,
      "Ġwaste": 6342,
      "Ġpin": 6343,
      "Ġpub": 6344,
      "Ġpuzz": 6345,
      "Ġfits": 6346,
      "Ġfetch": 6347,
      "Ġmal": 6348,
      "Ġinherent": 6349,
      "Ġboss": 6350,
      "Ġbub": 6351,
      "Ġbank": 6352,
      "Ġbump": 6353,
      "Ġdf": 6354,
      "Ġdro": 6355,
      "ley": 6356,
      "lete": 6357,
      "arp": 6358,
      "astern": 6359,
      "Ġgather": 6360,
      "Ġgiant": 6361,
      "Ġrev": 6362,
      "Ġreject": 6363,
      "Ġnails": 6364,
      "etary": 6365,
      "Ġisn": 6366,
      "urther": 6367,
      "emb": 6368,
      "Ġhel": 6369,
      "ĠIron": 6370,
      "ĠTy": 6371,
      "Ġintended": 6372,
      "unately": 6373,
      "ĠMet": 6374,
      "ĠMain": 6375,
      "ellow": 6376,
      "Ġconduct": 6377,
      "irÃ©": 6378,
      "Ġarise": 6379,
      "ĠAb": 6380,
      "ĠAge": 6381,
      "ĠAnt": 6382,
      "Ġalthough": 6383,
      "ĠSen": 6384,
      "ĠSur": 6385,
      "ĠSpe": 6386,
      "opy": 6387,
      "ĠCy": 6388,
      "ĠCSV": 6389,
      "username": 6390,
      "Ġdeple": 6391,
      "ptim": 6392,
      "ĠPC": 6393,
      "Ġru": 6394,
      "Ġrig": 6395,
      "ĠHam": 6396,
      "ĠHung": 6397,
      "Ġshower": 6398,
      "ocation": 6399,
      "Ġmap": 6400,
      "Ġworry": 6401,
      "Ġplastic": 6402,
      "ĠEast": 6403,
      "ĠFrom": 6404,
      "ĠFind": 6405,
      "clerot": 6406,
      "ĠRep": 6407,
      "Ġcontra": 6408,
      "iece": 6409,
      "ĠLim": 6410,
      "asts": 6411,
      "asted": 6412,
      "Ġdates": 6413,
      "anging": 6414,
      "Ġwilling": 6415,
      "Ġmoder": 6416,
      "Ġtrim": 6417,
      "conds": 6418,
      "contain": 6419,
      "Ġobj": 6420,
      "ĠInf": 6421,
      "loat": 6422,
      "Ġworkers": 6423,
      "Ġworkflow": 6424,
      "Ġvariations": 6425,
      "Ġhumorous": 6426,
      "Ġbuying": 6427,
      "Ġempty": 6428,
      "ermat": 6429,
      "Ġoffering": 6430,
      "Ġmatches": 6431,
      "Ġobjectives": 6432,
      "Ġattend": 6433,
      "Ġfinds": 6434,
      "iences": 6435,
      "Ġcoat": 6436,
      "Ġcoverage": 6437,
      "Ġgram": 6438,
      "Ġpossibility": 6439,
      "Ġfacts": 6440,
      "swer": 6441,
      "Ġbuildings": 6442,
      "ToResult": 6443,
      "Ġcounter": 6444,
      "Ġtempor": 6445,
      "Ġfeels": 6446,
      "Ġgreatly": 6447,
      "scrib": 6448,
      "Ġtells": 6449,
      "Ġfoundation": 6450,
      "Ġlesson": 6451,
      "Ġmovements": 6452,
      "Ġcharacterized": 6453,
      "Ġfinance": 6454,
      "Ġhappens": 6455,
      "Ġstream": 6456,
      "box": 6457,
      "Ġfocusing": 6458,
      "ttp": 6459,
      "Ġshorter": 6460,
      "ĠThank": 6461,
      "Ġdistributed": 6462,
      "Ġinstallation": 6463,
      "Ġestimate": 6464,
      "Ġbrown": 6465,
      "Ġgeometric": 6466,
      "Ġcombined": 6467,
      "ameter": 6468,
      "Ġadapter": 6469,
      "Ġpredictions": 6470,
      "Adapter": 6471,
      "Ġdescribed": 6472,
      "Ġpoor": 6473,
      "Ġfreed": 6474,
      "Ġdrivers": 6475,
      "Ġdangers": 6476,
      "Ġtracking": 6477,
      "Ġtransformer": 6478,
      "Ġsunlight": 6479,
      "Ġmechanical": 6480,
      "Ġcompetition": 6481,
      "Ġmatching": 6482,
      "Ġfulf": 6483,
      "Ġsnails": 6484,
      "ĠRussian": 6485,
      "Ġstrategic": 6486,
      "Ġdecline": 6487,
      "Ġplugins": 6488,
      "Ġpsycho": 6489,
      "ĠJohnson": 6490,
      "Ġinspired": 6491,
      "Ġconflicts": 6492,
      "Ġillust": 6493,
      "Ġtimeline": 6494,
      "Ġcommitment": 6495,
      "================": 6496,
      "yearly": 6497,
      "ĠBlue": 6498,
      "Ġopinion": 6499,
      "Ġdataset": 6500,
      "Ġphilosophy": 6501,
      "Ġsurrounding": 6502,
      "Ġroller": 6503,
      "Ġelectronic": 6504,
      "Ġheavy": 6505,
      "Ġporosity": 6506,
      "Ġsupply": 6507,
      "Ġextremely": 6508,
      "linked": 6509,
      "entralized": 6510,
      "Ġdialect": 6511,
      "ĠMagic": 6512,
      "Ġhousing": 6513,
      "Ġfavorite": 6514,
      "Ġphenomenon": 6515,
      "Ġalmost": 6516,
      "ĠPOSIX": 6517,
      "Ġprofessionals": 6518,
      "Ġpilot": 6519,
      "Ġexplicitly": 6520,
      "Ġtitles": 6521,
      "Ġoverwhel": 6522,
      "clerotia": 6523,
      ")]": 6524,
      "01": 6525,
      "35": 6526,
      "41": 6527,
      "Buzz": 6528,
      "CH": 6529,
      "Day": 6530,
      "Enter": 6531,
      "IM": 6532,
      "Keep": 6533,
      "Python": 6534,
      "Sp": 6535,
      "Since": 6536,
      "Tell": 6537,
      "bn": 6538,
      "bash": 6539,
      "cre": 6540,
      "cache": 6541,
      "dro": 6542,
      "fishing": 6543,
      "label": 6544,
      "mm": 6545,
      "parent": 6546,
      "sub": 6547,
      "tem": 6548,
      "wik": 6549,
      "wrapper": 6550,
      "ãĤ": 6551,
      "Ġ!": 6552,
      "Ġic": 6553,
      "Ġaid": 6554,
      "Ġtorch": 6555,
      "inations": 6556,
      "era": 6557,
      "attle": 6558,
      "atoes": 6559,
      "Ġcv": 6560,
      "Ġcas": 6561,
      "Ġcub": 6562,
      "oriented": 6563,
      "isible": 6564,
      "oug": 6565,
      "alem": 6566,
      "iti": 6567,
      "itut": 6568,
      "Ġpine": 6569,
      "Ġpounds": 6570,
      "Ġpyram": 6571,
      "Ġfalse": 6572,
      "Ġfission": 6573,
      "Ġtold": 6574,
      "Ġband": 6575,
      "Ġbpy": 6576,
      "Ġborder": 6577,
      "Ġdose": 6578,
      "edge": 6579,
      "users": 6580,
      "elry": 6581,
      "Ġthous": 6582,
      "Ġhon": 6583,
      "Ġharsh": 6584,
      "Ġgym": 6585,
      "Ġease": 6586,
      "istry": 6587,
      "Ġlabor": 6588,
      "Ġreached": 6589,
      "rot": 6590,
      "road": 6591,
      "rooms": 6592,
      "Ġnull": 6593,
      "igital": 6594,
      "sters": 6595,
      "emon": 6596,
      "ama": 6597,
      "amps": 6598,
      "iday": 6599,
      "oly": 6600,
      "olars": 6601,
      "oti": 6602,
      "utter": 6603,
      "ĠTV": 6604,
      "Ġintu": 6605,
      "ĠintList": 6606,
      "Ġintelligent": 6607,
      "ĠMus": 6608,
      "ĠMost": 6609,
      "ĠMachine": 6610,
      "ĠMSCI": 6611,
      "Ġstage": 6612,
      "Ġconquer": 6613,
      "raine": 6614,
      "raint": 6615,
      "ircle": 6616,
      "ĠAWS": 6617,
      "Ġcomment": 6618,
      "ado": 6619,
      "ĠSub": 6620,
      "ĠSave": 6621,
      "Ġgenerating": 6622,
      "query": 6623,
      "Ġvote": 6624,
      "ĠCat": 6625,
      "ĠCode": 6626,
      "rive": 6627,
      "Ġhack": 6628,
      "ĠPS": 6629,
      "Ġran": 6630,
      "Ġchromos": 6631,
      "ĠHis": 6632,
      "ĠHit": 6633,
      "ĠHigh": 6634,
      "Ġlemon": 6635,
      "plete": 6636,
      "Ġ(+": 6637,
      "ppers": 6638,
      "ĠEsk": 6639,
      "ĠEAV": 6640,
      "ĠWater": 6641,
      "ĠWashing": 6642,
      "ĠBi": 6643,
      "ĠBank": 6644,
      "Ġenforce": 6645,
      "area": 6646,
      "ĠFermat": 6647,
      "ĠRust": 6648,
      "ĠRub": 6649,
      "Ġkill": 6650,
      "Ġatoms": 6651,
      "Ġliber": 6652,
      "ĠGame": 6653,
      "ĠGold": 6654,
      "epper": 6655,
      "ĠLL": 6656,
      "ĠLove": 6657,
      "ĠLife": 6658,
      "Ġteasp": 6659,
      "Ġcred": 6660,
      "acuate": 6661,
      "Ġscal": 6662,
      "Ġscrap": 6663,
      "Ġclothing": 6664,
      "Ġsoy": 6665,
      "ĠNone": 6666,
      "ĠNuts": 6667,
      "Ġacqu": 6668,
      "ĠUltimately": 6669,
      "ĠUnder": 6670,
      "Ġspot": 6671,
      "Ġspect": 6672,
      "Ġprepared": 6673,
      "Ġtheme": 6674,
      "Ġtrading": 6675,
      "Ġdispl": 6676,
      "âĢľ": 6677,
      "Ġnewly": 6678,
      "Ġtruth": 6679,
      "Ġprone": 6680,
      "Ġroles": 6681,
      "ftp": 6682,
      "comp": 6683,
      "Ġ300": 6684,
      "Ġvariation": 6685,
      "Ġprocessor": 6686,
      "Ġparties": 6687,
      "Ġexperiments": 6688,
      "Ġformations": 6689,
      "Ġinstitutions": 6690,
      "Ġraised": 6691,
      "Ġoffice": 6692,
      "Ġoffset": 6693,
      "Ġmatrices": 6694,
      "Ġmatrix": 6695,
      "Ġinfection": 6696,
      "anguage": 6697,
      "Ġcurve": 6698,
      "Ġobjective": 6699,
      "Ġproduced": 6700,
      "Ġreply": 6701,
      "Ġpopulations": 6702,
      "Ġcomputational": 6703,
      "Ġdefault": 6704,
      "Ġsubt": 6705,
      "Ġseeks": 6706,
      "Ġperforming": 6707,
      "Ġrecip": 6708,
      "Ġskilled": 6709,
      "Ġ400": 6710,
      "Ġ2010": 6711,
      "example": 6712,
      "Ġmini": 6713,
      "Ġminor": 6714,
      "Ġherbs": 6715,
      "Ġmonop": 6716,
      "Ġinputs": 6717,
      "Ġconstraint": 6718,
      "Ġsurf": 6719,
      "Start": 6720,
      "Ġlaugh": 6721,
      "clear": 6722,
      "Ġdiversity": 6723,
      "Ġrealistic": 6724,
      "Ġeveryday": 6725,
      "Ġpassing": 6726,
      "Ġcontrols": 6727,
      "ĠExper": 6728,
      "Ġreader": 6729,
      "Ġtelling": 6730,
      "Ġsuggests": 6731,
      "apping": 6732,
      "ĠCommun": 6733,
      "__(": 6734,
      "Ġstatistical": 6735,
      "Ġserverless": 6736,
      "Ġsupercon": 6737,
      "Ġstructured": 6738,
      "Ġinfluential": 6739,
      "ĠÐ¿": 6740,
      "Ġinvesting": 6741,
      "Ġturns": 6742,
      "Ġrepresented": 6743,
      "cohol": 6744,
      "Ġdrum": 6745,
      "Ġradio": 6746,
      "ĠShow": 6747,
      "Ġdescribes": 6748,
      "ĠYork": 6749,
      "Ġfrequent": 6750,
      "Answer": 6751,
      "Ġgenre": 6752,
      "Ġvolt": 6753,
      "Ġindustrial": 6754,
      "Ġfastapi": 6755,
      "ĠDisney": 6756,
      "Ġconsists": 6757,
      "')\">": 6758,
      "css": 6759,
      "Ġcriteria": 6760,
      "Ġnutrition": 6761,
      "Ġdestro": 6762,
      "ĠBritain": 6763,
      "ĠEmpire": 6764,
      "Ġprinter": 6765,
      "ĠGPT": 6766,
      "Ġdebug": 6767,
      "Ġmissing": 6768,
      "Ġconstantly": 6769,
      "tuce": 6770,
      "Ġaims": 6771,
      "Ġaimed": 6772,
      "Ġtranslation": 6773,
      "Ġmitigate": 6774,
      "Ġexecuted": 6775,
      "Ġexecutive": 6776,
      "Ġtrusted": 6777,
      "objects": 6778,
      "hetic": 6779,
      "ĠDespite": 6780,
      "ĠListView": 6781,
      "ewelry": 6782,
      "Ġmacd": 6783,
      "Ġclaims": 6784,
      "Ġbatteries": 6785,
      "Ġdedication": 6786,
      "Ġweaknesses": 6787,
      "ĠMathematics": 6788,
      "Ġbottlene": 6789,
      "specific": 6790,
      "Ġrewarding": 6791,
      "Ġturning": 6792,
      "Ġshadows": 6793,
      "appendToResult": 6794,
      "Ġmountains": 6795,
      "Ġgalaxy": 6796,
      "Ġreligious": 6797,
      "Ġpursue": 6798,
      "Ġmenu": 6799,
      "ĠAvoid": 6800,
      "ĠLatin": 6801,
      "Ġcollaboration": 6802,
      "Ġpicture": 6803,
      "ĠGeorge": 6804,
      "Ġrecursively": 6805,
      "Ġphrase": 6806,
      "Ġresistance": 6807,
      "Ġfantasy": 6808,
      "Ġcorresponding": 6809,
      "Ġhiking": 6810,
      "Ġmoisture": 6811,
      "Ġgarlic": 6812,
      "urchill": 6813,
      "ĠGMOs": 6814,
      "Paragraph": 6815,
      "ĠMorty": 6816,
      "ĠIsrael": 6817,
      "inguish": 6818,
      "Ġcontradict": 6819,
      "container": 6820,
      "Ġchromosomes": 6821,
      "ĠEskim": 6822,
      "ĠWashington": 6823,
      "Ġbottlenecks": 6824,
      "$$": 6825,
      "'.": 6826,
      "';": 6827,
      ")?": 6828,
      "600": 6829,
      "92": 6830,
      "<!": 6831,
      "DB": 6832,
      "De": 6833,
      "EN": 6834,
      "Hz": 6835,
      "Hotkey": 6836,
      "Ms": 6837,
      "Make": 6838,
      "Open": 6839,
      "Py": 6840,
      "Time": 6841,
      "]:": 6842,
      "bf": 6843,
      "bul": 6844,
      "cipitation": 6845,
      "ders": 6846,
      "dependent": 6847,
      "direct": 6848,
      "first": 6849,
      "footer": 6850,
      "gent": 6851,
      "game": 6852,
      "hab": 6853,
      "ira": 6854,
      "jw": 6855,
      "ln": 6856,
      "mic": 6857,
      "oor": 6858,
      "oken": 6859,
      "pos": 6860,
      "qrt": 6861,
      "rm": 6862,
      "such": 6863,
      "solving": 6864,
      "tes": 6865,
      "tion": 6866,
      "tom": 6867,
      "uing": 6868,
      "uke": 6869,
      "writ": 6870,
      "works": 6871,
      "yre": 6872,
      "Ã³": 6873,
      "Ñĥ": 6874,
      "Ġãģ": 6875,
      "Ġaer": 6876,
      "Ġten": 6877,
      "Ġtire": 6878,
      "erve": 6879,
      "onal": 6880,
      "ename": 6881,
      "Ġsand": 6882,
      "Ġcert": 6883,
      "Ġcars": 6884,
      "Ġcaffe": 6885,
      "ano": 6886,
      "Ġwro": 6887,
      "Ġwest": 6888,
      "Ġpets": 6889,
      "Ġfu": 6890,
      "Ġfabric": 6891,
      "Ġfinger": 6892,
      "Ġfresh": 6893,
      "Ġoven": 6894,
      "Ġtokens": 6895,
      "Ġbon": 6896,
      "Ġbark": 6897,
      "Ġbold": 6898,
      "Ġbooking": 6899,
      "Ġbond": 6900,
      "Ġdot": 6901,
      "Ġdir": 6902,
      "edy": 6903,
      "elic": 6904,
      "Ġhide": 6905,
      "Ġhier": 6906,
      "Ġgate": 6907,
      "Ġgear": 6908,
      "Ġlived": 6909,
      "Ġrend": 6910,
      "std": 6911,
      "ulated": 6912,
      "ilies": 6913,
      "ima": 6914,
      "Ġheld": 6915,
      "otton": 6916,
      "uture": 6917,
      "utely": 6918,
      "Ġintent": 6919,
      "ĠMo": 6920,
      "ayden": 6921,
      "Ġstrain": 6922,
      "Ġproport": 6923,
      "Ġconve": 6924,
      "Ġarms": 6925,
      "ĠAm": 6926,
      "ĠAlex": 6927,
      "umping": 6928,
      "Ġcompl": 6929,
      "geometry": 6930,
      "advantages": 6931,
      "ĠSl": 6932,
      "ĠSym": 6933,
      "ĠSwit": 6934,
      "herit": 6935,
      "erer": 6936,
      "rian": 6937,
      "aint": 6938,
      "Ġsudo": 6939,
      "plib": 6940,
      "ĠPres": 6941,
      "ĠPart": 6942,
      "ĠPractice": 6943,
      "Ġrat": 6944,
      "Ġriff": 6945,
      "Ġchosen": 6946,
      "ĠHar": 6947,
      "performance": 6948,
      "Ġnothing": 6949,
      "Ġseg": 6950,
      "Ġseconds": 6951,
      "Ġadop": 6952,
      "Ġadopt": 6953,
      "ĠBooking": 6954,
      "ĠDep": 6955,
      "ĠDec": 6956,
      "ĠDynam": 6957,
      "ourse": 6958,
      "agement": 6959,
      "Ġcompiler": 6960,
      "ĠGHz": 6961,
      "ogether": 6962,
      "bled": 6963,
      "ously": 6964,
      "Ġclosed": 6965,
      "Ġsole": 6966,
      "ĠNaz": 6967,
      "aped": 6968,
      "apse": 6969,
      "Ġfees": 6970,
      "Ġfear": 6971,
      "Ġ27": 6972,
      "Ġspeech": 6973,
      "Ġju": 6974,
      "Ġjewelry": 6975,
      "ĠURL": 6976,
      "Ġprem": 6977,
      "enses": 6978,
      "Ġstrict": 6979,
      "Ġouter": 6980,
      "Ġpercept": 6981,
      "Ġevolution": 6982,
      "Ġevolved": 6983,
      "Ġdish": 6984,
      "Ġdisable": 6985,
      "Ġspecifies": 6986,
      "puter": 6987,
      "ĠJerus": 6988,
      "Ġcolle": 6989,
      "Ġserved": 6990,
      "Ġmetrics": 6991,
      "Ġpeppers": 6992,
      "Ġactively": 6993,
      "Ġhumidity": 6994,
      "ponse": 6995,
      "ruct": 6996,
      "Ġrelativity": 6997,
      "Ġincent": 6998,
      "Ġempath": 6999,
      "**,": 7000,
      "Ġraises": 7001,
      "())": 7002,
      "Ġsolved": 7003,
      "Ġtechnological": 7004,
      "Ġfollowed": 7005,
      "Ġdistinguish": 7006,
      "Ġdecor": 7007,
      "Ġdecrypt": 7008,
      "ĠKn": 7009,
      "Ġdefines": 7010,
      "Ġjustice": 7011,
      "Ġprovider": 7012,
      "Ġcorner": 7013,
      "Ġcorners": 7014,
      "Ġleader": 7015,
      "Ġlightweight": 7016,
      "Ġgradient": 7017,
      "egin": 7018,
      "Ġmeme": 7019,
      "Ġentry": 7020,
      "Ġcontrovers": 7021,
      "liot": 7022,
      "Ġdirections": 7023,
      "Ġelif": 7024,
      "Ġdipl": 7025,
      "Ġeditor": 7026,
      "Ġlettuce": 7027,
      "2018": 7028,
      "2021": 7029,
      "Ġcalculation": 7030,
      "Ġgrows": 7031,
      "Ġreaders": 7032,
      "ĠWhich": 7033,
      "Ġpaintings": 7034,
      "Ġorganisms": 7035,
      "Ġoutputs": 7036,
      "Ġbreaks": 7037,
      "process": 7038,
      "ĠProble": 7039,
      "Ġstands": 7040,
      "ĠConst": 7041,
      "('/": 7042,
      "Ġformatted": 7043,
      "venience": 7044,
      "ĠSpace": 7045,
      "Ġhydro": 7046,
      "Ġlegs": 7047,
      "Ġtariff": 7048,
      "Ġbrother": 7049,
      "Ġsucceed": 7050,
      "Ġcontexts": 7051,
      "Ġportion": 7052,
      "fortunately": 7053,
      "Ġnegoti": 7054,
      "Ġsuccessfully": 7055,
      "ĠSecurity": 7056,
      "Ġrecognized": 7057,
      "Ġroutes": 7058,
      "Ġmechanisms": 7059,
      "Ġsecret": 7060,
      "addEvent": 7061,
      "aborate": 7062,
      "Commun": 7063,
      "Ġincorrect": 7064,
      "ographic": 7065,
      "Ġsentiment": 7066,
      "Ġpaths": 7067,
      "Ġinjuries": 7068,
      "ĠEmail": 7069,
      "ĠWithout": 7070,
      "ById": 7071,
      "Ġintegration": 7072,
      "center": 7073,
      "Ġtranslate": 7074,
      "ĠNewton": 7075,
      "Ġcyber": 7076,
      "Ġcybersecurity": 7077,
      "Ġmarine": 7078,
      "Ġhappened": 7079,
      "Ġmentor": 7080,
      "Ġsimpler": 7081,
      "Ġmonitoring": 7082,
      "Ġnavigating": 7083,
      "Ġftplib": 7084,
      "Ġassumes": 7085,
      "gradle": 7086,
      "while": 7087,
      "Ġmistake": 7088,
      "Ġfloat": 7089,
      "Ġcommitted": 7090,
      "aught": 7091,
      "Ġultimate": 7092,
      "install": 7093,
      "ĠRegular": 7094,
      "Apple": 7095,
      "Ġexpertise": 7096,
      "Ġdelivery": 7097,
      "ĠCompany": 7098,
      "Ġliterature": 7099,
      "Ġstruggle": 7100,
      "Ġcitizens": 7101,
      "Ġbeauty": 7102,
      "Ġkidney": 7103,
      "Ġmanipulate": 7104,
      "Ġdictionary": 7105,
      "Ġunsure": 7106,
      "ĠPatient": 7107,
      "Ġadults": 7108,
      "Ġimpressions": 7109,
      "ĠCalculate": 7110,
      "ĠAccording": 7111,
      "Ġsexual": 7112,
      "aphthal": 7113,
      "Ġownership": 7114,
      "Ġmultiplying": 7115,
      "ĠEdison": 7116,
      "Ġcompatible": 7117,
      "Ġecosystems": 7118,
      "Ġocean": 7119,
      "Ġchannel": 7120,
      "Ġphotosynt": 7121,
      "Ġvampire": 7122,
      "ĠPeople": 7123,
      "Ġcomparison": 7124,
      "Ġrollerbl": 7125,
      "Ġvoltage": 7126,
      "jwt": 7127,
      "Ġcaffeine": 7128,
      "Ġwrote": 7129,
      "Ġhierarch": 7130,
      "ĠJerusalem": 7131,
      "addEventListener": 7132,
      "aphthalene": 7133,
      "($": 7134,
      "({": 7135,
      "*.": 7136,
      "46": 7137,
      "49": 7138,
      "500": 7139,
      "Both": 7140,
      "CC": 7141,
      "DP": 7142,
      "Dear": 7143,
      "EC": 7144,
      "Ele": 7145,
      "Go": 7146,
      "MT": 7147,
      "Person": 7148,
      "Rel": 7149,
      "SE": 7150,
      "Zow": 7151,
      "bed": 7152,
      "bage": 7153,
      "bec": 7154,
      "car": 7155,
      "dis": 7156,
      "docker": 7157,
      "eed": 7158,
      "equ": 7159,
      "eks": 7160,
      "fl": 7161,
      "fall": 7162,
      "fast": 7163,
      "float": 7164,
      "gue": 7165,
      "habet": 7166,
      "lamm": 7167,
      "mers": 7168,
      "oom": 7169,
      "pread": 7170,
      "rated": 7171,
      "sm": 7172,
      "sect": 7173,
      "sudo": 7174,
      "vor": 7175,
      "worth": 7176,
      "³ÑĢ": 7177,
      "Ð³ÑĢ": 7178,
      "Ġau": 7179,
      "Ġafra": 7180,
      "hether": 7181,
      "heast": 7182,
      "rest": 7183,
      "onna": 7184,
      "enn": 7185,
      "Ġsin": 7186,
      "Ġsod": 7187,
      "Ġsad": 7188,
      "Ġsac": 7189,
      "Ġcrypt": 7190,
      "Ġcups": 7191,
      "Ġcipher": 7192,
      "anity": 7193,
      "isl": 7194,
      "isis": 7195,
      "alan": 7196,
      "itely": 7197,
      "itute": 7198,
      "itarian": 7199,
      "Ġwides": 7200,
      "Ġpun": 7201,
      "Ġfake": 7202,
      "Ġfails": 7203,
      "Ġbatt": 7204,
      "Ġdim": 7205,
      "Ġdong": 7206,
      "Ġdwar": 7207,
      "Ġdoub": 7208,
      "lev": 7209,
      "ara": 7210,
      "arget": 7211,
      "asion": 7212,
      "ushing": 7213,
      "Ġhub": 7214,
      "Ġhob": 7215,
      "Ġglu": 7216,
      "Ġlun": 7217,
      "Ġlies": 7218,
      "Ġrewrite": 7219,
      "roph": 7220,
      "Ġnarr": 7221,
      "igen": 7222,
      "urning": 7223,
      "ilinear": 7224,
      "Ġaren": 7225,
      "Ġfork": 7226,
      "Ġbear": 7227,
      "Ġbeings": 7228,
      "olt": 7229,
      "ĠTime": 7230,
      "Ġintention": 7231,
      "unc": 7232,
      "under": 7233,
      "ĠMad": 7234,
      "ĠMAC": 7235,
      "Ġonions": 7236,
      "elli": 7237,
      "irling": 7238,
      "ystyre": 7239,
      "ĠAlp": 7240,
      "ĠArab": 7241,
      "Ġcomplicated": 7242,
      "Ġalcohol": 7243,
      "ĠSend": 7244,
      "Ġgenerates": 7245,
      "Ġvon": 7246,
      "ores": 7247,
      "ĠCAM": 7248,
      "Ġassistants": 7249,
      "Ġsufficient": 7250,
      "ĠPros": 7251,
      "Ġrice": 7252,
      "Ġrank": 7253,
      "izers": 7254,
      "izable": 7255,
      "Ġchart": 7256,
      "Ġchron": 7257,
      "Ġchances": 7258,
      "Ġunex": 7259,
      "Ġplain": 7260,
      "ĠEll": 7261,
      "ĠEvent": 7262,
      "ĠEPS": 7263,
      "ĠEduc": 7264,
      "ĠEastern": 7265,
      "ĠWell": 7266,
      "ĠWill": 7267,
      "ĠBig": 7268,
      "ĠBERT": 7269,
      "ĠDepend": 7270,
      "ĠDvor": 7271,
      "close": 7272,
      "ags": 7273,
      "ĠRick": 7274,
      "Ġcompile": 7275,
      "Ġcompelling": 7276,
      "Ġcomposition": 7277,
      "Ġking": 7278,
      "Ġkilling": 7279,
      "Ġimpossible": 7280,
      "ĠLast": 7281,
      "ĠLiqu": 7282,
      "ĠLike": 7283,
      "ĠLua": 7284,
      "ĠLambda": 7285,
      "Ġtech": 7286,
      "Ġteacher": 7287,
      "ĠOur": 7288,
      "Ġhash": 7289,
      "Ġbutter": 7290,
      "apole": 7291,
      "ĠUK": 7292,
      "ĠUt": 7293,
      "Ġspin": 7294,
      "Ġspark": 7295,
      "Ġspices": 7296,
      "Ġpred": 7297,
      "avy": 7298,
      "ipse": 7299,
      "conn": 7300,
      "Ġtape": 7301,
      "Ġoverl": 7302,
      "Ġdesert": 7303,
      "Ġdescript": 7304,
      "Ġ39": 7305,
      "Ġcolorm": 7306,
      "Ġindent": 7307,
      "orders": 7308,
      "Ġmeters": 7309,
      "Ġmetric": 7310,
      "Ġprocessed": 7311,
      "elfare": 7312,
      "Ġinvention": 7313,
      "Ġformed": 7314,
      "Ġemissions": 7315,
      "Ġreturning": 7316,
      "ĠSte": 7317,
      "Ġchef": 7318,
      "Ġregist": 7319,
      "ĠValk": 7320,
      "rowave": 7321,
      "ternatively": 7322,
      "Ġpolystyre": 7323,
      "Ġproduces": 7324,
      "heng": 7325,
      "Ġtransmit": 7326,
      "Ġrepair": 7327,
      "Ġreports": 7328,
      "ĠKingdom": 7329,
      "Ġcharge": 7330,
      "Ġrefrig": 7331,
      "Ġreturned": 7332,
      "ifying": 7333,
      "Ġagre": 7334,
      "Ġperforms": 7335,
      "Ġskill": 7336,
      "cules": 7337,
      "iana": 7338,
      "Ġadvoc": 7339,
      "Ġgrain": 7340,
      "Ġcommunications": 7341,
      "Ġmemories": 7342,
      "yme": 7343,
      "Ġchoosing": 7344,
      "ĠĠĠĠĠĠĠĠĠĠĠĠĠĠĠĠĠĠĠ": 7345,
      "Ġconfident": 7346,
      "Ġconfidence": 7347,
      "Ġlaunch": 7348,
      "Ġreduction": 7349,
      "Ġreduces": 7350,
      "2023": 7351,
      "Ġboat": 7352,
      "Ġequivalent": 7353,
      "Ġcrime": 7354,
      "Ġcontainers": 7355,
      "Ġconsideration": 7356,
      "ĠExample": 7357,
      "Ġaccessible": 7358,
      "Ġprofound": 7359,
      "ĠAlthough": 7360,
      "Ġcorrel": 7361,
      "Ġdetermines": 7362,
      "shot": 7363,
      "Ġstreet": 7364,
      "âĢĿ,": 7365,
      "Ġ60": 7366,
      "Ġfocuses": 7367,
      "Ġfreezing": 7368,
      "Ġlooked": 7369,
      "insp": 7370,
      "textbf": 7371,
      "Ġoptimized": 7372,
      "Ġformats": 7373,
      "Ġsimilarity": 7374,
      "background": 7375,
      "Ġzone": 7376,
      "Ġstatistics": 7377,
      "Ġera": 7378,
      "ĠClass": 7379,
      "Ġworksh": 7380,
      "Ġinstalling": 7381,
      "Ġestim": 7382,
      "Ġpreventing": 7383,
      "Ġaffected": 7384,
      "Ġmaintained": 7385,
      "Ġcalling": 7386,
      "Ġpolitics": 7387,
      "Ġcontributing": 7388,
      "Ġobserver": 7389,
      "Ġobservers": 7390,
      "Ġconsumed": 7391,
      "Ġblocking": 7392,
      "author": 7393,
      "ĠPluto": 7394,
      "Ġheader": 7395,
      "Ġheaders": 7396,
      "Ġbeginner": 7397,
      "Ġgenet": 7398,
      "Ġexcited": 7399,
      "anny": 7400,
      "Ġdanger": 7401,
      "Ġtraveling": 7402,
      "ĠDisc": 7403,
      "Ġregarded": 7404,
      "chemy": 7405,
      "Ġphotography": 7406,
      "Ġsubjects": 7407,
      "Ġdigits": 7408,
      "Ġfitness": 7409,
      "ĠTrue": 7410,
      "Ġstocks": 7411,
      "Ġintroduce": 7412,
      "Ġintroduction": 7413,
      "Ġintegrated": 7414,
      "ANs": 7415,
      "Ġeducational": 7416,
      "Ġwonder": 7417,
      "Ġholds": 7418,
      "Ġsends": 7419,
      "Ġattributes": 7420,
      "going": 7421,
      "Imagine": 7422,
      "ĠColor": 7423,
      "Ġinstruct": 7424,
      "Ġvacation": 7425,
      "Ġlayouts": 7426,
      "Ġfloor": 7427,
      "ĠDesign": 7428,
      "Ġultimately": 7429,
      "Ġalignment": 7430,
      "ĠBukkit": 7431,
      "Ġdeviation": 7432,
      "Art": 7433,
      "Ġvotes": 7434,
      "canvas": 7435,
      "Ġclosely": 7436,
      "Ġearthquakes": 7437,
      "Ġbarriers": 7438,
      "Ġdiagnosis": 7439,
      "fitting": 7440,
      "Ġawait": 7441,
      "Ġdecrease": 7442,
      "ĠComputer": 7443,
      "Ġaltitude": 7444,
      "Ġvoice": 7445,
      "Ġdepartments": 7446,
      "Ġdinner": 7447,
      "Ġexcessive": 7448,
      "Ġnumerical": 7449,
      "zerland": 7450,
      "ervous": 7451,
      "Ġinfringement": 7452,
      "Ġmolecules": 7453,
      "Ġscenario": 7454,
      "Ġcircumst": 7455,
      "Ġadministr": 7456,
      "Ġmetagenomic": 7457,
      "Ġmushrooms": 7458,
      "Ġconcentration": 7459,
      "Ġopponent": 7460,
      "Ġtolerance": 7461,
      "elescope": 7462,
      "ĠTunisia": 7463,
      "ĠArtificial": 7464,
      "ĠEditor": 7465,
      "Ġprototype": 7466,
      "Ġsummarize": 7467,
      "bestos": 7468,
      "Ġpleas": 7469,
      "ĠFreddy": 7470,
      "Ġmedicine": 7471,
      "ĠDeclaration": 7472,
      "Ġabsolute": 7473,
      "urthermore": 7474,
      "Ġdepletion": 7475,
      "scribe": 7476,
      "Ġdialectics": 7477,
      "bnb": 7478,
      "Ġteaspoon": 7479,
      "ĠPresident": 7480,
      "Ġdiplom": 7481,
      "Ġafraid": 7482,
      "Ġwidespread": 7483,
      "ĠDvorak": 7484,
      "ĠValky": 7485,
      "Ġpolystyrene": 7486,
      "(.": 7487,
      ".]": 7488,
      "/*": 7489,
      "37": 7490,
      "400": 7491,
      "65": 7492,
      "90": 7493,
      ":\\": 7494,
      "Ban": 7495,
      "Best": 7496,
      "Caffe": 7497,
      "Don": 7498,
      "Date": 7499,
      "Doc": 7500,
      "EB": 7501,
      "Em": 7502,
      "GB": 7503,
      "Hi": 7504,
      "IA": 7505,
      "MC": 7506,
      "Me": 7507,
      "Man": 7508,
      "NT": 7509,
      "Ne": 7510,
      "Next": 7511,
      "Oh": 7512,
      "Our": 7513,
      "Pr": 7514,
      "Pre": 7515,
      "RS": 7516,
      "Rate": 7517,
      "SX": 7518,
      "Today": 7519,
      "UI": 7520,
      "ULL": 7521,
      "YY": 7522,
      "YPE": 7523,
      "ael": 7524,
      "bi": 7525,
      "base": 7526,
      "cor": 7527,
      "cose": 7528,
      "dent": 7529,
      "draw": 7530,
      "fia": 7531,
      "gpg": 7532,
      "haps": 7533,
      "hogs": 7534,
      "ja": 7535,
      "kai": 7536,
      "len": 7537,
      "lion": 7538,
      "mask": 7539,
      "message": 7540,
      "ns": 7541,
      "natural": 7542,
      "oDB": 7543,
      "pol": 7544,
      "pine": 7545,
      "pact": 7546,
      "power": 7547,
      "party": 7548,
      "random": 7549,
      "tab": 7550,
      "tical": 7551,
      "tree": 7552,
      "vo": 7553,
      "vity": 7554,
      "void": 7555,
      "wur": 7556,
      "wood": 7557,
      "Ð²": 7558,
      "Ġ)": 7559,
      "Ġtor": 7560,
      "Ġtall": 7561,
      "heet": 7562,
      "onom": 7563,
      "onkai": 7564,
      "ences": 7565,
      "Ġtherm": 7566,
      "Ġsing": 7567,
      "Ġsix": 7568,
      "Ġsender": 7569,
      "Ġsending": 7570,
      "Ġsclerotia": 7571,
      "Ġcraft": 7572,
      "Ġcraw": 7573,
      "Ġcmap": 7574,
      "Ġcotton": 7575,
      "orable": 7576,
      "isher": 7577,
      "itory": 7578,
      "Ġpepper": 7579,
      "ico": 7580,
      "Ġfle": 7581,
      "Ġfro": 7582,
      "Ġflying": 7583,
      "Ġos": 7584,
      "Ġmood": 7585,
      "Ġmouth": 7586,
      "Ġbomb": 7587,
      "Ġbrought": 7588,
      "Ġbilinear": 7589,
      "Ġdad": 7590,
      "Ġdance": 7591,
      "Ġdiced": 7592,
      "arn": 7593,
      "aruto": 7594,
      "aroni": 7595,
      "edia": 7596,
      "osph": 7597,
      "Ġthr": 7598,
      "Ġthin": 7599,
      "ctl": 7600,
      "Ġhttp": 7601,
      "Ġgro": 7602,
      "Ġgone": 7603,
      "Ġgrown": 7604,
      "Ġghost": 7605,
      "Ġecl": 7606,
      "Ġyellow": 7607,
      "entle": 7608,
      "Ġlots": 7609,
      "Ġnation": 7610,
      "Ġnervous": 7611,
      "ifting": 7612,
      "uling": 7613,
      "Ġaside": 7614,
      "amiliar": 7615,
      "idates": 7616,
      "ĠIP": 7617,
      "ĠIdent": 7618,
      "ollow": 7619,
      "ollo": 7620,
      "otes": 7621,
      "chuck": 7622,
      "ĠTower": 7623,
      "ĠTrain": 7624,
      "ĠTaking": 7625,
      "unge": 7626,
      "ĠMich": 7627,
      "ĠonD": 7628,
      "Ġstoring": 7629,
      "Ġprops": 7630,
      "Ġorb": 7631,
      "Ġorange": 7632,
      "Ġorbit": 7633,
      "Ġexists": 7634,
      "Ġexchange": 7635,
      "umb": 7636,
      "ĠSee": 7637,
      "ĠSocial": 7638,
      "Ġgenerator": 7639,
      "Ġwhis": 7640,
      "Ġvaries": 7641,
      "thread": 7642,
      "eregr": 7643,
      "ĠCost": 7644,
      "ĠCong": 7645,
      "ĠCorn": 7646,
      "ĠCrypt": 7647,
      "ĠCEO": 7648,
      "sey": 7649,
      "Ġdeals": 7650,
      "ptic": 7651,
      "ptember": 7652,
      "ĠPDF": 7653,
      "Ġrating": 7654,
      "ĠHand": 7655,
      "ĠHonkai": 7656,
      "Ġ('": 7657,
      "Ġ()": 7658,
      "ivate": 7659,
      "Ġunne": 7660,
      "Ġundefined": 7661,
      "Ġunlik": 7662,
      "Ġsharp": 7663,
      "Ġmax": 7664,
      "Ġmafia": 7665,
      "ĠEvery": 7666,
      "ĠEven": 7667,
      "ĠEliot": 7668,
      "Ġadm": 7669,
      "ĠWould": 7670,
      "Ġabroad": 7671,
      "action": 7672,
      "ĠBa": 7673,
      "ĠBrown": 7674,
      "ĠBCE": 7675,
      "ĠBerlin": 7676,
      "Ġ===": 7677,
      "ĠDate": 7678,
      "Ġweeks": 7679,
      "ĠFace": 7680,
      "Ġresolution": 7681,
      "ĠRead": 7682,
      "Ġcompact": 7683,
      "Ġatomic": 7684,
      "ĠGl": 7685,
      "ĠGit": 7686,
      "ĠLoad": 7687,
      "ĠLanguage": 7688,
      "arding": 7689,
      "Ġteach": 7690,
      "Then": 7691,
      "asters": 7692,
      "independent": 7693,
      "Ġscan": 7694,
      "Ġsched": 7695,
      "ango": 7696,
      "ĠOld": 7697,
      "Ġcluster": 7698,
      "ĠNorde": 7699,
      "ĠNASA": 7700,
      "Ġfeat": 7701,
      "Ġmodifications": 7702,
      "Ġjack": 7703,
      "ĠItaly": 7704,
      "ĠUI": 7705,
      "Ġspending": 7706,
      "Ġstrange": 7707,
      "Ġoutdo": 7708,
      "Ġdisrupt": 7709,
      "Ġdiscomfort": 7710,
      "Ġtrial": 7711,
      "Ġpricing": 7712,
      "Ġknows": 7713,
      "ftware": 7714,
      "ĠInclude": 7715,
      "Ġunderstood": 7716,
      "Ġ35": 7717,
      "Ġworkbook": 7718,
      "Ġpeas": 7719,
      "Ġapologies": 7720,
      "Ġthank": 7721,
      "Ġinstant": 7722,
      "Ġretval": 7723,
      "ĠStand": 7724,
      "Ġsmell": 7725,
      "Ġprogrammed": 7726,
      "Ġoffline": 7727,
      "Ġtwist": 7728,
      "Ġtwice": 7729,
      "ĠVEX": 7730,
      "Ġinference": 7731,
      "Ġinflamm": 7732,
      "Ġattached": 7733,
      "Ġwhereas": 7734,
      "Ġdistant": 7735,
      "obser": 7736,
      "Ġnoise": 7737,
      "Ġagent": 7738,
      "Ġremoving": 7739,
      "Ġdesigns": 7740,
      "culus": 7741,
      "Ġengaged": 7742,
      "Ġpotatoes": 7743,
      "Ġgrab": 7744,
      "Ġ45": 7745,
      "Ġ2021": 7746,
      "Ġsupported": 7747,
      "pected": 7748,
      "Ġfewer": 7749,
      "Ġclassical": 7750,
      "Ġlocations": 7751,
      "Ġconfusion": 7752,
      "ĉĉĊ": 7753,
      "ĠUnity": 7754,
      "ĠChurchill": 7755,
      "licopter": 7756,
      "Ġelo": 7757,
      "Ġedit": 7758,
      "Ġpromin": 7759,
      "Assuming": 7760,
      "Ġscripting": 7761,
      "Ġcalculating": 7762,
      "Ġcaps": 7763,
      "Ġconsiderations": 7764,
      "Ġstudent": 7765,
      "Ġaccessing": 7766,
      "Ġprofit": 7767,
      "token": 7768,
      "Ġfamilies": 7769,
      "rivate": 7770,
      "Ġmarkets": 7771,
      "Ġorganized": 7772,
      "ilarly": 7773,
      "Ġversions": 7774,
      "Ġanimations": 7775,
      "lessly": 7776,
      "Ġstret": 7777,
      "Ġstores": 7778,
      "Ġoriginally": 7779,
      "Ġbasics": 7780,
      "ĠAnimation": 7781,
      "ĠConnect": 7782,
      "Ġsearching": 7783,
      "Ġstatic": 7784,
      "player": 7785,
      "ĠThrough": 7786,
      "Ġviral": 7787,
      "Ġviruses": 7788,
      "Ġsuperv": 7789,
      "ĠZheng": 7790,
      "Ġinvestors": 7791,
      "Ġrepresenting": 7792,
      "Ġcombat": 7793,
      "Example": 7794,
      "Ġcontributions": 7795,
      "Ġspeeds": 7796,
      "Ġpaid": 7797,
      "Ġwider": 7798,
      "ĠmoirÃ©": 7799,
      "Ġconsume": 7800,
      "Ġconsumer": 7801,
      "Ġaccounts": 7802,
      "Ġportfol": 7803,
      "Ġfutur": 7804,
      "Ġblockchain": 7805,
      "Ġsymmet": 7806,
      "Ġglue": 7807,
      "ĠPlace": 7808,
      "Ġconcerned": 7809,
      "ĠEngine": 7810,
      "ĠEngland": 7811,
      "Ġjobs": 7812,
      "ĠSeptember": 7813,
      "anned": 7814,
      "ĠDisp": 7815,
      "Ġdetection": 7816,
      "Ġrouting": 7817,
      "Ġexplores": 7818,
      "Ġframeworks": 7819,
      "Ġloader": 7820,
      "Ġolder": 7821,
      "Ġstaying": 7822,
      "Ġcrosslinked": 7823,
      "Ġfairies": 7824,
      "Ġtreats": 7825,
      "Ġshaping": 7826,
      "Ġexpectations": 7827,
      "Ġalternate": 7828,
      "Ġabsence": 7829,
      "ĠGPU": 7830,
      "Ġdebate": 7831,
      "Ġopposite": 7832,
      "Ġprecipitation": 7833,
      "Ġquantity": 7834,
      "Ġfluct": 7835,
      "Ġconfigure": 7836,
      "Ġ>=": 7837,
      "month": 7838,
      "Ġpayment": 7839,
      "Ġmentee": 7840,
      "Ġexecutable": 7841,
      "Ġpenal": 7842,
      "Ġemerged": 7843,
      "Ġentirely": 7844,
      "Ġpurple": 7845,
      "Ġbroadcast": 7846,
      "Ġprinciple": 7847,
      "which": 7848,
      "Ġtactics": 7849,
      "ĠGreece": 7850,
      "Ġutility": 7851,
      "Ġtabs": 7852,
      "Ġmacaroni": 7853,
      "Ġmotivated": 7854,
      "Despite": 7855,
      "Ġwalker": 7856,
      "ĠControl": 7857,
      "Ġdeliver": 7858,
      "pressions": 7859,
      "Ġreplies": 7860,
      "ĠTextField": 7861,
      "ĠElon": 7862,
      "Ġdrawbacks": 7863,
      "ĠðŁĴ": 7864,
      "Ġtuple": 7865,
      "According": 7866,
      "Ġsusp": 7867,
      "ĠMaya": 7868,
      "ĠCOVID": 7869,
      "content": 7870,
      "Ġvegetable": 7871,
      "Ġalphabet": 7872,
      "aturday": 7873,
      "Ġstruggling": 7874,
      "Ġincredibly": 7875,
      "Ġbrightness": 7876,
      "Ġdream": 7877,
      "Ġdreams": 7878,
      "ĠAustralian": 7879,
      "Ġadvancements": 7880,
      "Ġhunger": 7881,
      "ĠLatte": 7882,
      "config": 7883,
      "abetes": 7884,
      "ĠCompute": 7885,
      "nami": 7886,
      "Ġpictures": 7887,
      "Ġclarify": 7888,
      "Ġpromoting": 7889,
      "DOCT": 7890,
      "ubernet": 7891,
      "Ġtourists": 7892,
      "Ġdictionaries": 7893,
      "ĠTrailing": 7894,
      "Ġstraightforward": 7895,
      "Ġscholars": 7896,
      "osaurus": 7897,
      "ĠObser": 7898,
      "ĠEncourage": 7899,
      "Ġfertilizer": 7900,
      "Ġinequality": 7901,
      "Ġmanufacture": 7902,
      "bottom": 7903,
      "description": 7904,
      "Ġhabits": 7905,
      "radius": 7906,
      "Ġneurons": 7907,
      "ĠInitialize": 7908,
      "Ġsatellite": 7909,
      "Ġauthenticity": 7910,
      "Ġcrack": 7911,
      "weekend": 7912,
      "Ġthoroughly": 7913,
      "Ġreforms": 7914,
      "Ġpretty": 7915,
      "Ġaccidentally": 7916,
      "Ġlandscape": 7917,
      "route": 7918,
      "ĠAirbnb": 7919,
      "ĠAutoHotkey": 7920,
      "Ġphilosopher": 7921,
      "Ġcategories": 7922,
      "ÃŃa": 7923,
      "Ġhamster": 7924,
      "Ġloyalty": 7925,
      "Ġacceleration": 7926,
      "ĠSenate": 7927,
      "wiki": 7928,
      "Ġcasual": 7929,
      "Ġsubtract": 7930,
      "Ġconstraints": 7931,
      "Ġfuze": 7932,
      "ĠSymphony": 7933,
      "heritance": 7934,
      "Ġratio": 7935,
      "ĠProblem": 7936,
      "sectional": 7937,
      "Ġglucose": 7938,
      "Ġlunar": 7939,
      "Ġunexpected": 7940,
      "Ġcircumstances": 7941,
      "wurst": 7942,
      "Ġunnecess": 7943,
      "Ġunlikely": 7944,
      "ĠNordea": 7945,
      "Ġportfolio": 7946,
      "DOCTYPE": 7947,
      "ubernetes": 7948,
      "\"\"": 7949,
      "$,": 7950,
      "-%": 7951,
      "1000": 7952,
      "432": 7953,
      "59": 7954,
      "67": 7955,
      "69": 7956,
      "<>": 7957,
      "AF": 7958,
      "Bas": 7959,
      "DA": 7960,
      "ES": 7961,
      "EY": 7962,
      "Earth": 7963,
      "FA": 7964,
      "False": 7965,
      "Have": 7966,
      "IG": 7967,
      "John": 7968,
      "Mon": 7969,
      "Map": 7970,
      "Not": 7971,
      "Ob": 7972,
      "PR": 7973,
      "Ph": 7974,
      "Pi": 7975,
      "Pl": 7976,
      "Port": 7977,
      "Row": 7978,
      "RNA": 7979,
      "Sim": 7980,
      "Sorry": 7981,
      "Te": 7982,
      "Torch": 7983,
      "Ur": 7984,
      "User": 7985,
      "Under": 7986,
      "WIN": 7987,
      "Year": 7988,
      "`:": 7989,
      "aj": 7990,
      "aws": 7991,
      "bat": 7992,
      "cm": 7993,
      "cil": 7994,
      "cular": 7995,
      "dem": 7996,
      "dir": 7997,
      "dep": 7998,
      "dec": 7999
    },
    "merges": [
      [
        "Ġ",
        "a"
      ],
      [
        "Ġ",
        "t"
      ],
      [
        "i",
        "n"
      ],
      [
        "h",
        "e"
      ],
      [
        "r",
        "e"
      ],
      [
        "e",
        "r"
      ],
      [
        "o",
        "n"
      ],
      [
        "e",
        "n"
      ],
      [
        "Ġt",
        "he"
      ],
      [
        "a",
        "t"
      ],
      [
        "Ġ",
        "s"
      ],
      [
        "Ġ",
        "c"
      ],
      [
        "a",
        "n"
      ],
      [
        "o",
        "r"
      ],
      [
        "i",
        "s"
      ],
      [
        "o",
        "u"
      ],
      [
        "a",
        "l"
      ],
      [
        "Ġa",
        "n"
      ],
      [
        "e",
        "s"
      ],
      [
        "i",
        "t"
      ],
      [
        "Ġ",
        "w"
      ],
      [
        "Ġ",
        "p"
      ],
      [
        "i",
        "c"
      ],
      [
        "in",
        "g"
      ],
      [
        "Ġ",
        "f"
      ],
      [
        "Ġ",
        "o"
      ],
      [
        "Ġ",
        "m"
      ],
      [
        "Ġ",
        "in"
      ],
      [
        "Ġan",
        "d"
      ],
      [
        "Ġt",
        "o"
      ],
      [
        "Ġ",
        "b"
      ],
      [
        "Ġ",
        "Ġ"
      ],
      [
        "Ġ",
        "d"
      ],
      [
        "l",
        "e"
      ],
      [
        "a",
        "r"
      ],
      [
        "i",
        "on"
      ],
      [
        "Ġo",
        "f"
      ],
      [
        "e",
        "d"
      ],
      [
        "o",
        "s"
      ],
      [
        "a",
        "s"
      ],
      [
        "u",
        "s"
      ],
      [
        "o",
        "m"
      ],
      [
        "e",
        "l"
      ],
      [
        "Ġt",
        "h"
      ],
      [
        "c",
        "t"
      ],
      [
        "Ġ",
        "h"
      ],
      [
        "Ġ",
        "g"
      ],
      [
        "Ġ",
        "e"
      ],
      [
        "Ġ",
        "y"
      ],
      [
        "is",
        "t"
      ],
      [
        "c",
        "e"
      ],
      [
        "en",
        "t"
      ],
      [
        "Ġ",
        "l"
      ],
      [
        "Ġ",
        "re"
      ],
      [
        "r",
        "o"
      ],
      [
        "an",
        "t"
      ],
      [
        "Ġy",
        "ou"
      ],
      [
        "Ġ",
        "n"
      ],
      [
        "i",
        "g"
      ],
      [
        "e",
        "t"
      ],
      [
        "i",
        "f"
      ],
      [
        "s",
        "t"
      ],
      [
        "Ġ",
        "is"
      ],
      [
        "u",
        "l"
      ],
      [
        "u",
        "r"
      ],
      [
        "Ġa",
        "s"
      ],
      [
        "i",
        "l"
      ],
      [
        "i",
        "m"
      ],
      [
        "Ġa",
        "re"
      ],
      [
        "v",
        "e"
      ],
      [
        "o",
        "w"
      ],
      [
        "s",
        "ist"
      ],
      [
        "e",
        "m"
      ],
      [
        "Ġf",
        "or"
      ],
      [
        "Ġ",
        "he"
      ],
      [
        "a",
        "m"
      ],
      [
        "sist",
        "ant"
      ],
      [
        "i",
        "d"
      ],
      [
        "Ġth",
        "at"
      ],
      [
        "at",
        "ion"
      ],
      [
        "Ġ",
        "I"
      ],
      [
        "Ġb",
        "e"
      ],
      [
        "o",
        "l"
      ],
      [
        "o",
        "t"
      ],
      [
        "c",
        "h"
      ],
      [
        "u",
        "t"
      ],
      [
        "Ġ",
        "T"
      ],
      [
        "Ġin",
        "t"
      ],
      [
        "u",
        "n"
      ],
      [
        "l",
        "y"
      ],
      [
        "en",
        "d"
      ],
      [
        "Ġ",
        "M"
      ],
      [
        "i",
        "al"
      ],
      [
        "Ġ",
        "on"
      ],
      [
        "Ġc",
        "an"
      ],
      [
        "a",
        "y"
      ],
      [
        "Ġs",
        "t"
      ],
      [
        "it",
        "h"
      ],
      [
        "v",
        "er"
      ],
      [
        "Ġ",
        "it"
      ],
      [
        "el",
        "l"
      ],
      [
        "ĠĠ",
        "ĠĠ"
      ],
      [
        "Ġp",
        "ro"
      ],
      [
        "Ġc",
        "on"
      ],
      [
        "o",
        "d"
      ],
      [
        "r",
        "a"
      ],
      [
        "Ġ",
        "or"
      ],
      [
        "Ġ",
        "us"
      ],
      [
        "Ġw",
        "ith"
      ],
      [
        "i",
        "r"
      ],
      [
        "l",
        "p"
      ],
      [
        "en",
        "ce"
      ],
      [
        "Ġhe",
        "lp"
      ],
      [
        "Ġa",
        "r"
      ],
      [
        "y",
        "st"
      ],
      [
        "if",
        "ic"
      ],
      [
        "Ġ",
        "A"
      ],
      [
        "en",
        "er"
      ],
      [
        "yst",
        "em"
      ],
      [
        "Ġe",
        "x"
      ],
      [
        "Y",
        "ou"
      ],
      [
        "k",
        "e"
      ],
      [
        "at",
        "e"
      ],
      [
        "os",
        "e"
      ],
      [
        "er",
        "s"
      ],
      [
        "u",
        "m"
      ],
      [
        "Ġc",
        "om"
      ],
      [
        "f",
        "ul"
      ],
      [
        "l",
        "d"
      ],
      [
        "g",
        "e"
      ],
      [
        "Ġa",
        "l"
      ],
      [
        "ĠĠ",
        "Ġ"
      ],
      [
        "a",
        "d"
      ],
      [
        "Ġ",
        "S"
      ],
      [
        "Ġg",
        "ener"
      ],
      [
        "Ġw",
        "h"
      ],
      [
        "q",
        "u"
      ],
      [
        "u",
        "re"
      ],
      [
        "Ġar",
        "t"
      ],
      [
        "es",
        "s"
      ],
      [
        "Ġyou",
        "r"
      ],
      [
        "Ġ",
        "v"
      ],
      [
        "he",
        "r"
      ],
      [
        "a",
        "b"
      ],
      [
        "Ġgener",
        "al"
      ],
      [
        "o",
        "p"
      ],
      [
        "e",
        "ct"
      ],
      [
        "ell",
        "ig"
      ],
      [
        "t",
        "h"
      ],
      [
        "ur",
        "p"
      ],
      [
        "e",
        "re"
      ],
      [
        "ellig",
        "ence"
      ],
      [
        "o",
        "re"
      ],
      [
        "Ġ",
        "C"
      ],
      [
        "us",
        "er"
      ],
      [
        "Ġint",
        "elligence"
      ],
      [
        "r",
        "i"
      ],
      [
        "ific",
        "ial"
      ],
      [
        "s",
        "e"
      ],
      [
        "Ġhelp",
        "ful"
      ],
      [
        "Ġas",
        "sistant"
      ],
      [
        "it",
        "y"
      ],
      [
        "urp",
        "ose"
      ],
      [
        "Ġart",
        "ificial"
      ],
      [
        "Ġd",
        "e"
      ],
      [
        "os",
        "a"
      ],
      [
        "s",
        "ystem"
      ],
      [
        "b",
        "os"
      ],
      [
        "as",
        "sistant"
      ],
      [
        "p",
        "urpose"
      ],
      [
        "osa",
        "ic"
      ],
      [
        "'",
        "s"
      ],
      [
        "ĠM",
        "osaic"
      ],
      [
        "ou",
        "t"
      ],
      [
        "a",
        "in"
      ],
      [
        "ou",
        "ld"
      ],
      [
        "es",
        "t"
      ],
      [
        "ig",
        "h"
      ],
      [
        "Ġs",
        "u"
      ],
      [
        "p",
        "t"
      ],
      [
        "ĠT",
        "he"
      ],
      [
        "c",
        "k"
      ],
      [
        "n",
        "t"
      ],
      [
        "p",
        "l"
      ],
      [
        "Ġn",
        "e"
      ],
      [
        "Ġh",
        "a"
      ],
      [
        "Ġ",
        "\""
      ],
      [
        "or",
        "t"
      ],
      [
        "Ġ",
        "P"
      ],
      [
        "an",
        "d"
      ],
      [
        "Ġ",
        "r"
      ],
      [
        "p",
        "e"
      ],
      [
        "il",
        "l"
      ],
      [
        "i",
        "es"
      ],
      [
        "r",
        "om"
      ],
      [
        "i",
        "z"
      ],
      [
        "m",
        "ent"
      ],
      [
        "ion",
        "s"
      ],
      [
        "Ġ",
        "im"
      ],
      [
        "Ġc",
        "h"
      ],
      [
        "`",
        "`"
      ],
      [
        "Ġ",
        "H"
      ],
      [
        "i",
        "ve"
      ],
      [
        "p",
        "er"
      ],
      [
        "om",
        "e"
      ],
      [
        "Ġ",
        "le"
      ],
      [
        "Ġb",
        "y"
      ],
      [
        "p",
        "le"
      ],
      [
        "Ġ",
        "("
      ],
      [
        "i",
        "v"
      ],
      [
        "t",
        "er"
      ],
      [
        "Ġha",
        "ve"
      ],
      [
        "igh",
        "t"
      ],
      [
        "Ġ",
        "un"
      ],
      [
        "in",
        "e"
      ],
      [
        "am",
        "e"
      ],
      [
        "Ġs",
        "h"
      ],
      [
        "Ġm",
        "e"
      ],
      [
        "p",
        "p"
      ],
      [
        "Ġn",
        "ot"
      ],
      [
        "Ġs",
        "e"
      ],
      [
        "o",
        "c"
      ],
      [
        "Ġm",
        "a"
      ],
      [
        "t",
        "her"
      ],
      [
        "al",
        "l"
      ],
      [
        "Ġw",
        "or"
      ],
      [
        "Ġp",
        "l"
      ],
      [
        "ic",
        "al"
      ],
      [
        "Ġ",
        "E"
      ],
      [
        "Ġf",
        "rom"
      ],
      [
        "Ġa",
        "d"
      ],
      [
        "Ġ",
        "W"
      ],
      [
        "Ġa",
        "b"
      ],
      [
        "re",
        "s"
      ],
      [
        "Ġ",
        "1"
      ],
      [
        "a",
        "ge"
      ],
      [
        "a",
        "ct"
      ],
      [
        "id",
        "e"
      ],
      [
        "Ġ",
        "B"
      ],
      [
        "or",
        "m"
      ],
      [
        "u",
        "d"
      ],
      [
        "Ġ",
        "="
      ],
      [
        "i",
        "le"
      ],
      [
        "ar",
        "t"
      ],
      [
        "Ġ",
        "D"
      ],
      [
        "Ġw",
        "e"
      ],
      [
        "Ġ",
        "en"
      ],
      [
        "a",
        "re"
      ],
      [
        "Ġ",
        "F"
      ],
      [
        "ab",
        "le"
      ],
      [
        "Ġre",
        "s"
      ],
      [
        "c",
        "l"
      ],
      [
        "ou",
        "r"
      ],
      [
        "ul",
        "t"
      ],
      [
        "a",
        "g"
      ],
      [
        "-",
        "-"
      ],
      [
        "n",
        "d"
      ],
      [
        "Ġ",
        "R"
      ],
      [
        "Ġd",
        "o"
      ],
      [
        "Ġth",
        "is"
      ],
      [
        "Ġcom",
        "p"
      ],
      [
        "Ġm",
        "ore"
      ],
      [
        "ation",
        "s"
      ],
      [
        "us",
        "t"
      ],
      [
        "Ġ",
        "k"
      ],
      [
        "ic",
        "h"
      ],
      [
        "Ġcon",
        "t"
      ],
      [
        "Ġthe",
        "ir"
      ],
      [
        "Ġo",
        "ther"
      ],
      [
        "Ġa",
        "t"
      ],
      [
        "Ġl",
        "i"
      ],
      [
        "an",
        "ce"
      ],
      [
        "Ġ",
        "G"
      ],
      [
        "h",
        "is"
      ],
      [
        "Ġim",
        "p"
      ],
      [
        "f",
        "orm"
      ],
      [
        "r",
        "y"
      ],
      [
        "f",
        "f"
      ],
      [
        "ct",
        "ion"
      ],
      [
        "o",
        "g"
      ],
      [
        "i",
        "e"
      ],
      [
        "e",
        "p"
      ],
      [
        "Ġ",
        "L"
      ],
      [
        "Ġs",
        "ome"
      ],
      [
        "0",
        "0"
      ],
      [
        "ar",
        "d"
      ],
      [
        "Ġus",
        "e"
      ],
      [
        "Ġw",
        "he"
      ],
      [
        "k",
        "ing"
      ],
      [
        "Ġt",
        "e"
      ],
      [
        "b",
        "le"
      ],
      [
        "Ġc",
        "re"
      ],
      [
        "a",
        "c"
      ],
      [
        "if",
        "f"
      ],
      [
        "T",
        "he"
      ],
      [
        "c",
        "ess"
      ],
      [
        "Ġal",
        "l"
      ],
      [
        "as",
        "t"
      ],
      [
        "ĠĠĠĠ",
        "ĠĠĠ"
      ],
      [
        "u",
        "p"
      ],
      [
        "Ġwh",
        "ich"
      ],
      [
        "in",
        "d"
      ],
      [
        "i",
        "re"
      ],
      [
        "in",
        "t"
      ],
      [
        "u",
        "e"
      ],
      [
        "os",
        "t"
      ],
      [
        "a",
        "ck"
      ],
      [
        "Ġs",
        "c"
      ],
      [
        "g",
        "h"
      ],
      [
        "Ġ",
        "-"
      ],
      [
        "ou",
        "s"
      ],
      [
        "Ġ",
        "qu"
      ],
      [
        "Ġd",
        "at"
      ],
      [
        "im",
        "e"
      ],
      [
        "Ġ",
        "if"
      ],
      [
        "Ġd",
        "iff"
      ],
      [
        "s",
        "o"
      ],
      [
        "x",
        "t"
      ],
      [
        "d",
        "u"
      ],
      [
        "d",
        "er"
      ],
      [
        "as",
        "e"
      ],
      [
        "ar",
        "y"
      ],
      [
        "an",
        "g"
      ],
      [
        "Ġw",
        "ill"
      ],
      [
        "ĠT",
        "his"
      ],
      [
        "as",
        "s"
      ],
      [
        "Ġg",
        "o"
      ],
      [
        "v",
        "el"
      ],
      [
        "Ġ",
        "O"
      ],
      [
        "Ġc",
        "l"
      ],
      [
        "Ġh",
        "as"
      ],
      [
        "Ġs",
        "o"
      ],
      [
        "Ġsu",
        "ch"
      ],
      [
        "Ġf",
        "un"
      ],
      [
        "k",
        "s"
      ],
      [
        "Ġ",
        "N"
      ],
      [
        "on",
        "g"
      ],
      [
        "ig",
        "n"
      ],
      [
        "Ġthe",
        "y"
      ],
      [
        "``",
        "`"
      ],
      [
        "ou",
        "gh"
      ],
      [
        "it",
        "ion"
      ],
      [
        "b",
        "er"
      ],
      [
        "Ġan",
        "y"
      ],
      [
        "Ġb",
        "ut"
      ],
      [
        "Ġm",
        "an"
      ],
      [
        "c",
        "es"
      ],
      [
        "a",
        "p"
      ],
      [
        "Ġw",
        "as"
      ],
      [
        "Ġf",
        "e"
      ],
      [
        "h",
        "at"
      ],
      [
        "Ġm",
        "od"
      ],
      [
        "an",
        "s"
      ],
      [
        "Ġw",
        "ould"
      ],
      [
        "Ġm",
        "ay"
      ],
      [
        "ou",
        "nd"
      ],
      [
        "a",
        "ch"
      ],
      [
        "Ġ",
        "2"
      ],
      [
        "Ġs",
        "pe"
      ],
      [
        "it",
        "e"
      ],
      [
        "j",
        "ect"
      ],
      [
        "Ġ",
        "j"
      ],
      [
        "ĠI",
        "t"
      ],
      [
        "at",
        "ed"
      ],
      [
        "or",
        "y"
      ],
      [
        "cl",
        "ud"
      ],
      [
        "Ġa",
        "c"
      ],
      [
        "o",
        "o"
      ],
      [
        "Ġal",
        "so"
      ],
      [
        "Ġab",
        "out"
      ],
      [
        "u",
        "al"
      ],
      [
        "Ġ",
        "U"
      ],
      [
        "Ġus",
        "ed"
      ],
      [
        "Ġs",
        "p"
      ],
      [
        "a",
        "ce"
      ],
      [
        "Ġp",
        "re"
      ],
      [
        "Ġne",
        "ed"
      ],
      [
        "a",
        "v"
      ],
      [
        "el",
        "y"
      ],
      [
        "Ġin",
        "clud"
      ],
      [
        "en",
        "s"
      ],
      [
        "Ġcom",
        "m"
      ],
      [
        "Ġst",
        "r"
      ],
      [
        "Ġ",
        "out"
      ],
      [
        "Ġli",
        "ke"
      ],
      [
        "od",
        "e"
      ],
      [
        "Ġp",
        "er"
      ],
      [
        "Ġ",
        "up"
      ],
      [
        "Ġpro",
        "v"
      ],
      [
        "Ġdat",
        "a"
      ],
      [
        "ic",
        "e"
      ],
      [
        "n",
        "ow"
      ],
      [
        "a",
        "il"
      ],
      [
        "Ġdiff",
        "ere"
      ],
      [
        "Ġthe",
        "m"
      ],
      [
        "Ġex",
        "am"
      ],
      [
        "Ġe",
        "v"
      ],
      [
        "on",
        "e"
      ],
      [
        "ou",
        "nt"
      ],
      [
        "et",
        "w"
      ],
      [
        "Ġt",
        "ra"
      ],
      [
        "Ġus",
        "ing"
      ],
      [
        "Ġh",
        "ow"
      ],
      [
        "Ġd",
        "is"
      ],
      [
        "g",
        "r"
      ],
      [
        "â",
        "Ģ"
      ],
      [
        "or",
        "s"
      ],
      [
        "i",
        "p"
      ],
      [
        "Ġthe",
        "re"
      ],
      [
        "i",
        "ent"
      ],
      [
        "Ġc",
        "ould"
      ],
      [
        "Ġit",
        "s"
      ],
      [
        "Ġad",
        "d"
      ],
      [
        "Ġne",
        "w"
      ],
      [
        "Ġt",
        "r"
      ],
      [
        "Ġm",
        "y"
      ],
      [
        "at",
        "ing"
      ],
      [
        "iz",
        "e"
      ],
      [
        "res",
        "s"
      ],
      [
        "c",
        "on"
      ],
      [
        "ar",
        "i"
      ],
      [
        "Ġt",
        "a"
      ],
      [
        "Ġo",
        "ver"
      ],
      [
        "Ġp",
        "r"
      ],
      [
        "Ġk",
        "now"
      ],
      [
        "Ġspe",
        "c"
      ],
      [
        "Ġ",
        "ro"
      ],
      [
        "f",
        "t"
      ],
      [
        "Ġt",
        "ime"
      ],
      [
        "p",
        "ut"
      ],
      [
        "Ġd",
        "es"
      ],
      [
        "l",
        "ow"
      ],
      [
        "Ġ",
        "J"
      ],
      [
        "Ġfun",
        "ction"
      ],
      [
        "at",
        "er"
      ],
      [
        "n",
        "ing"
      ],
      [
        "Ġo",
        "b"
      ],
      [
        "Ġs",
        "ystem"
      ],
      [
        "y",
        "th"
      ],
      [
        "Ġint",
        "o"
      ],
      [
        "le",
        "d"
      ],
      [
        "Ġt",
        "y"
      ],
      [
        "ul",
        "ar"
      ],
      [
        "Ġon",
        "e"
      ],
      [
        "Ġimp",
        "ort"
      ],
      [
        "ĠI",
        "n"
      ],
      [
        "i",
        "a"
      ],
      [
        "Ġ",
        "ke"
      ],
      [
        "c",
        "om"
      ],
      [
        "os",
        "s"
      ],
      [
        "Ġma",
        "ke"
      ],
      [
        "Ġc",
        "ode"
      ],
      [
        "l",
        "o"
      ],
      [
        "ent",
        "s"
      ],
      [
        "ur",
        "n"
      ],
      [
        "Ġun",
        "der"
      ],
      [
        "m",
        "s"
      ],
      [
        "ic",
        "s"
      ],
      [
        "al",
        "ly"
      ],
      [
        "Ġw",
        "ay"
      ],
      [
        "Ġwhe",
        "n"
      ],
      [
        "Ġn",
        "um"
      ],
      [
        "u",
        "b"
      ],
      [
        "Ġthe",
        "se"
      ],
      [
        "er",
        "n"
      ],
      [
        "Ġcon",
        "s"
      ],
      [
        "'",
        "t"
      ],
      [
        "Ġ",
        "3"
      ],
      [
        "Ġc",
        "ol"
      ],
      [
        "ing",
        "s"
      ],
      [
        "e",
        "ar"
      ],
      [
        "Ġs",
        "er"
      ],
      [
        "a",
        "us"
      ],
      [
        "o",
        "ve"
      ],
      [
        "Ġa",
        "pp"
      ],
      [
        "ic",
        "k"
      ],
      [
        "Ġin",
        "d"
      ],
      [
        "ĠH",
        "ow"
      ],
      [
        "i",
        "ble"
      ],
      [
        "Ġe",
        "ff"
      ],
      [
        "ri",
        "pt"
      ],
      [
        "p",
        "h"
      ],
      [
        "Ġexam",
        "ple"
      ],
      [
        "re",
        "e"
      ],
      [
        "ver",
        "s"
      ],
      [
        "Ġdiffere",
        "nt"
      ],
      [
        "yth",
        "on"
      ],
      [
        "Ġwh",
        "o"
      ],
      [
        "or",
        "d"
      ],
      [
        "Ġm",
        "et"
      ],
      [
        "Ġre",
        "qu"
      ],
      [
        "at",
        "ure"
      ],
      [
        "I",
        "n"
      ],
      [
        "e",
        "ver"
      ],
      [
        "Ġwor",
        "k"
      ],
      [
        "Ġs",
        "im"
      ],
      [
        "--",
        "--"
      ],
      [
        "at",
        "es"
      ],
      [
        "il",
        "d"
      ],
      [
        "Ġv",
        "ari"
      ],
      [
        "Ġ",
        "You"
      ],
      [
        "as",
        "ed"
      ],
      [
        "Ġwh",
        "at"
      ],
      [
        "Ġa",
        "m"
      ],
      [
        "Ġp",
        "e"
      ],
      [
        "vel",
        "op"
      ],
      [
        "ri",
        "b"
      ],
      [
        "p",
        "en"
      ],
      [
        "Ġ",
        "Ċ"
      ],
      [
        "Ġh",
        "is"
      ],
      [
        "\"",
        ","
      ],
      [
        "Ġpro",
        "cess"
      ],
      [
        "Ġp",
        "art"
      ],
      [
        "Ġex",
        "per"
      ],
      [
        "is",
        "h"
      ],
      [
        "Ġa",
        "p"
      ],
      [
        "Ġa",
        "ct"
      ],
      [
        "c",
        "ur"
      ],
      [
        "Ġs",
        "et"
      ],
      [
        "ol",
        "og"
      ],
      [
        "it",
        "ies"
      ],
      [
        "el",
        "f"
      ],
      [
        "Ġin",
        "v"
      ],
      [
        "Ġh",
        "um"
      ],
      [
        "il",
        "ity"
      ],
      [
        "Ġsh",
        "ould"
      ],
      [
        "ar",
        "k"
      ],
      [
        "p",
        "on"
      ],
      [
        "r",
        "u"
      ],
      [
        "Ġv",
        "al"
      ],
      [
        "Ġ",
        "{"
      ],
      [
        "Ġb",
        "u"
      ],
      [
        "Ġfor",
        "m"
      ],
      [
        "Ġg",
        "et"
      ],
      [
        "Ġle",
        "ar"
      ],
      [
        "Ġimport",
        "ant"
      ],
      [
        "w",
        "n"
      ],
      [
        "Ġc",
        "al"
      ],
      [
        "ic",
        "t"
      ],
      [
        "le",
        "ct"
      ],
      [
        "Ġre",
        "l"
      ],
      [
        "e",
        "en"
      ],
      [
        "Ġth",
        "an"
      ],
      [
        "ow",
        "er"
      ],
      [
        "Ġin",
        "st"
      ],
      [
        "Ġf",
        "ol"
      ],
      [
        "Ġman",
        "y"
      ],
      [
        "l",
        "l"
      ],
      [
        "Ġin",
        "c"
      ],
      [
        "ers",
        "on"
      ],
      [
        "o",
        "int"
      ],
      [
        "Ġe",
        "m"
      ],
      [
        "Ġe",
        "ach"
      ],
      [
        "ment",
        "s"
      ],
      [
        "g",
        "et"
      ],
      [
        "al",
        "s"
      ],
      [
        "Ġre",
        "t"
      ],
      [
        "gr",
        "am"
      ],
      [
        "etw",
        "een"
      ],
      [
        "ĠS",
        "t"
      ],
      [
        "Ġde",
        "velop"
      ],
      [
        "*",
        "*"
      ],
      [
        "Ġin",
        "form"
      ],
      [
        "ag",
        "es"
      ],
      [
        "Ġb",
        "etween"
      ],
      [
        "l",
        "es"
      ],
      [
        "r",
        "ough"
      ],
      [
        "ver",
        "y"
      ],
      [
        "Ġpl",
        "ay"
      ],
      [
        "Ġcre",
        "ate"
      ],
      [
        "re",
        "at"
      ],
      [
        "ĠI",
        "f"
      ],
      [
        "r",
        "it"
      ],
      [
        "Ġp",
        "at"
      ],
      [
        "Ġs",
        "m"
      ],
      [
        "an",
        "ge"
      ],
      [
        "er",
        "m"
      ],
      [
        "Ġmod",
        "el"
      ],
      [
        "n",
        "e"
      ],
      [
        "Ġex",
        "pl"
      ],
      [
        "Ġpro",
        "gram"
      ],
      [
        "Ġ",
        "ra"
      ],
      [
        "op",
        "le"
      ],
      [
        "er",
        "t"
      ],
      [
        "o",
        "v"
      ],
      [
        "Ġw",
        "ant"
      ],
      [
        "W",
        "hat"
      ],
      [
        "st",
        "and"
      ],
      [
        "Ġof",
        "f"
      ],
      [
        "Ġbe",
        "c"
      ],
      [
        "i",
        "b"
      ],
      [
        "t",
        "e"
      ],
      [
        "w",
        "are"
      ],
      [
        "aus",
        "e"
      ],
      [
        "(",
        ")"
      ],
      [
        "t",
        "ing"
      ],
      [
        "Ġc",
        "he"
      ],
      [
        "Ġt",
        "w"
      ],
      [
        "Ġd",
        "et"
      ],
      [
        "ent",
        "ial"
      ],
      [
        "Ġwh",
        "ile"
      ],
      [
        "y",
        "s"
      ],
      [
        "Ġp",
        "h"
      ],
      [
        "Ġde",
        "p"
      ],
      [
        "Ġl",
        "ist"
      ],
      [
        "i",
        "ence"
      ],
      [
        "Ġs",
        "ol"
      ],
      [
        "ch",
        "n"
      ],
      [
        "Ġre",
        "g"
      ],
      [
        "ow",
        "n"
      ],
      [
        "ot",
        "h"
      ],
      [
        "Ġ",
        "V"
      ],
[...]
